unsigned char model[] = {
  0x20, 0x00, 0x00, 0x00, 0x54, 0x46, 0x4c, 0x33, 0x00, 0x00, 0x00, 0x00,
  0x14, 0x00, 0x20, 0x00, 0x1c, 0x00, 0x18, 0x00, 0x14, 0x00, 0x10, 0x00,
  0x0c, 0x00, 0x00, 0x00, 0x08, 0x00, 0x04, 0x00, 0x14, 0x00, 0x00, 0x00,
  0x1c, 0x00, 0x00, 0x00, 0x84, 0x00, 0x00, 0x00, 0xd4, 0x00, 0x00, 0x00,
  0x68, 0x0f, 0x00, 0x00, 0x78, 0x0f, 0x00, 0x00, 0xdc, 0x38, 0x00, 0x00,
  0x03, 0x00, 0x00, 0x00, 0x01, 0x00, 0x00, 0x00, 0x04, 0x00, 0x00, 0x00,
  0x8e, 0xd6, 0xff, 0xff, 0x0c, 0x00, 0x00, 0x00, 0x1c, 0x00, 0x00, 0x00,
  0x38, 0x00, 0x00, 0x00, 0x0f, 0x00, 0x00, 0x00, 0x73, 0x65, 0x72, 0x76,
  0x69, 0x6e, 0x67, 0x5f, 0x64, 0x65, 0x66, 0x61, 0x75, 0x6c, 0x74, 0x00,
  0x01, 0x00, 0x00, 0x00, 0x04, 0x00, 0x00, 0x00, 0x98, 0xd8, 0xff, 0xff,
  0x25, 0x00, 0x00, 0x00, 0x04, 0x00, 0x00, 0x00, 0x07, 0x00, 0x00, 0x00,
  0x64, 0x65, 0x6e, 0x73, 0x65, 0x5f, 0x32, 0x00, 0x01, 0x00, 0x00, 0x00,
  0x04, 0x00, 0x00, 0x00, 0x92, 0xd6, 0xff, 0xff, 0x04, 0x00, 0x00, 0x00,
  0x0a, 0x00, 0x00, 0x00, 0x6c, 0x73, 0x74, 0x6d, 0x5f, 0x69, 0x6e, 0x70,
  0x75, 0x74, 0x00, 0x00, 0x02, 0x00, 0x00, 0x00, 0x2c, 0x00, 0x00, 0x00,
  0x04, 0x00, 0x00, 0x00, 0xdc, 0xd8, 0xff, 0xff, 0x56, 0x00, 0x00, 0x00,
  0x04, 0x00, 0x00, 0x00, 0x13, 0x00, 0x00, 0x00, 0x43, 0x4f, 0x4e, 0x56,
  0x45, 0x52, 0x53, 0x49, 0x4f, 0x4e, 0x5f, 0x4d, 0x45, 0x54, 0x41, 0x44,
  0x41, 0x54, 0x41, 0x00, 0x00, 0xd9, 0xff, 0xff, 0x55, 0x00, 0x00, 0x00,
  0x04, 0x00, 0x00, 0x00, 0x13, 0x00, 0x00, 0x00, 0x6d, 0x69, 0x6e, 0x5f,
  0x72, 0x75, 0x6e, 0x74, 0x69, 0x6d, 0x65, 0x5f, 0x76, 0x65, 0x72, 0x73,
  0x69, 0x6f, 0x6e, 0x00, 0x57, 0x00, 0x00, 0x00, 0x90, 0x0e, 0x00, 0x00,
  0x88, 0x0e, 0x00, 0x00, 0x74, 0x0e, 0x00, 0x00, 0x60, 0x0e, 0x00, 0x00,
  0x4c, 0x0e, 0x00, 0x00, 0x34, 0x0e, 0x00, 0x00, 0x20, 0x0e, 0x00, 0x00,
  0x04, 0x0e, 0x00, 0x00, 0xec, 0x0d, 0x00, 0x00, 0xd8, 0x0d, 0x00, 0x00,
  0xbc, 0x0d, 0x00, 0x00, 0xa0, 0x0d, 0x00, 0x00, 0x84, 0x0d, 0x00, 0x00,
  0x70, 0x0d, 0x00, 0x00, 0x78, 0x09, 0x00, 0x00, 0xd8, 0x07, 0x00, 0x00,
  0x38, 0x06, 0x00, 0x00, 0x18, 0x06, 0x00, 0x00, 0x10, 0x06, 0x00, 0x00,
  0x08, 0x06, 0x00, 0x00, 0x00, 0x06, 0x00, 0x00, 0xf8, 0x05, 0x00, 0x00,
  0xf0, 0x05, 0x00, 0x00, 0xe8, 0x05, 0x00, 0x00, 0xe0, 0x05, 0x00, 0x00,
  0xd8, 0x05, 0x00, 0x00, 0xd0, 0x05, 0x00, 0x00, 0xc8, 0x05, 0x00, 0x00,
  0xc0, 0x05, 0x00, 0x00, 0xb8, 0x05, 0x00, 0x00, 0xb0, 0x05, 0x00, 0x00,
  0xa8, 0x05, 0x00, 0x00, 0xa0, 0x05, 0x00, 0x00, 0x98, 0x05, 0x00, 0x00,
  0x90, 0x05, 0x00, 0x00, 0x88, 0x05, 0x00, 0x00, 0x80, 0x05, 0x00, 0x00,
  0x78, 0x05, 0x00, 0x00, 0x70, 0x05, 0x00, 0x00, 0x68, 0x05, 0x00, 0x00,
  0x60, 0x05, 0x00, 0x00, 0x58, 0x05, 0x00, 0x00, 0x50, 0x05, 0x00, 0x00,
  0x48, 0x05, 0x00, 0x00, 0x40, 0x05, 0x00, 0x00, 0x2c, 0x05, 0x00, 0x00,
  0x24, 0x05, 0x00, 0x00, 0x1c, 0x05, 0x00, 0x00, 0x14, 0x05, 0x00, 0x00,
  0x0c, 0x05, 0x00, 0x00, 0x04, 0x05, 0x00, 0x00, 0xfc, 0x04, 0x00, 0x00,
  0xf4, 0x04, 0x00, 0x00, 0xe0, 0x04, 0x00, 0x00, 0xc8, 0x04, 0x00, 0x00,
  0xb4, 0x04, 0x00, 0x00, 0x14, 0x03, 0x00, 0x00, 0x9c, 0x01, 0x00, 0x00,
  0x64, 0x01, 0x00, 0x00, 0x5c, 0x01, 0x00, 0x00, 0x54, 0x01, 0x00, 0x00,
  0x4c, 0x01, 0x00, 0x00, 0x44, 0x01, 0x00, 0x00, 0x3c, 0x01, 0x00, 0x00,
  0x34, 0x01, 0x00, 0x00, 0x2c, 0x01, 0x00, 0x00, 0x24, 0x01, 0x00, 0x00,
  0x1c, 0x01, 0x00, 0x00, 0x14, 0x01, 0x00, 0x00, 0x0c, 0x01, 0x00, 0x00,
  0x04, 0x01, 0x00, 0x00, 0xfc, 0x00, 0x00, 0x00, 0xf4, 0x00, 0x00, 0x00,
  0xec, 0x00, 0x00, 0x00, 0xe4, 0x00, 0x00, 0x00, 0xdc, 0x00, 0x00, 0x00,
  0xd4, 0x00, 0x00, 0x00, 0xcc, 0x00, 0x00, 0x00, 0xc4, 0x00, 0x00, 0x00,
  0xbc, 0x00, 0x00, 0x00, 0xb4, 0x00, 0x00, 0x00, 0xac, 0x00, 0x00, 0x00,
  0xa4, 0x00, 0x00, 0x00, 0x9c, 0x00, 0x00, 0x00, 0x94, 0x00, 0x00, 0x00,
  0x74, 0x00, 0x00, 0x00, 0x04, 0x00, 0x00, 0x00, 0x5e, 0xd8, 0xff, 0xff,
  0x04, 0x00, 0x00, 0x00, 0x60, 0x00, 0x00, 0x00, 0x0c, 0x00, 0x00, 0x00,
  0x08, 0x00, 0x0e, 0x00, 0x08, 0x00, 0x04, 0x00, 0x08, 0x00, 0x00, 0x00,
  0x14, 0x00, 0x00, 0x00, 0x30, 0x00, 0x00, 0x00, 0x00, 0x00, 0x0a, 0x00,
  0x0c, 0x00, 0x08, 0x00, 0x00, 0x00, 0x07, 0x00, 0x0a, 0x00, 0x00, 0x00,
  0x00, 0x00, 0x00, 0x01, 0x04, 0x00, 0x00, 0x00, 0x01, 0x00, 0x00, 0x00,
  0xeb, 0x03, 0x00, 0x00, 0x00, 0x00, 0x0a, 0x00, 0x10, 0x00, 0x0c, 0x00,
  0x08, 0x00, 0x04, 0x00, 0x0a, 0x00, 0x00, 0x00, 0x01, 0x00, 0x00, 0x00,
  0x02, 0x00, 0x00, 0x00, 0x04, 0x00, 0x00, 0x00, 0x05, 0x00, 0x00, 0x00,
  0x32, 0x2e, 0x39, 0x2e, 0x30, 0x00, 0x00, 0x00, 0xca, 0xd8, 0xff, 0xff,
  0x04, 0x00, 0x00, 0x00, 0x10, 0x00, 0x00, 0x00, 0x32, 0x2e, 0x35, 0x2e,
  0x30, 0x00, 0x00, 0x00, 0x00, 0x00, 0x00, 0x00, 0x00, 0x00, 0x00, 0x00,
  0xb0, 0xca, 0xff, 0xff, 0xb4, 0xca, 0xff, 0xff, 0xb8, 0xca, 0xff, 0xff,
  0xbc, 0xca, 0xff, 0xff, 0xc0, 0xca, 0xff, 0xff, 0xc4, 0xca, 0xff, 0xff,
  0xc8, 0xca, 0xff, 0xff, 0xcc, 0xca, 0xff, 0xff, 0xd0, 0xca, 0xff, 0xff,
  0xd4, 0xca, 0xff, 0xff, 0xd8, 0xca, 0xff, 0xff, 0xdc, 0xca, 0xff, 0xff,
  0xe0, 0xca, 0xff, 0xff, 0xe4, 0xca, 0xff, 0xff, 0xe8, 0xca, 0xff, 0xff,
  0xec, 0xca, 0xff, 0xff, 0xf0, 0xca, 0xff, 0xff, 0xf4, 0xca, 0xff, 0xff,
  0xf8, 0xca, 0xff, 0xff, 0xfc, 0xca, 0xff, 0xff, 0x00, 0xcb, 0xff, 0xff,
  0x04, 0xcb, 0xff, 0xff, 0x08, 0xcb, 0xff, 0xff, 0x0c, 0xcb, 0xff, 0xff,
  0x10, 0xcb, 0xff, 0xff, 0x14, 0xcb, 0xff, 0xff, 0x4e, 0xd9, 0xff, 0xff,
  0x04, 0x00, 0x00, 0x00, 0x28, 0x00, 0x00, 0x00, 0xc4, 0xc8, 0xa1, 0xb9,
  0xa7, 0xab, 0xaa, 0xb0, 0x9d, 0xf9, 0x20, 0xc2, 0xee, 0x0b, 0xed, 0x0c,
  0xec, 0x00, 0xc7, 0x7f, 0xb3, 0xb8, 0xb6, 0xd0, 0xd0, 0xcc, 0xb0, 0xac,
  0xb3, 0xd5, 0xb0, 0xbe, 0xec, 0xa7, 0x89, 0x9d, 0xae, 0x9f, 0x99, 0x80,
  0x82, 0xd9, 0xff, 0xff, 0x04, 0x00, 0x00, 0x00, 0x68, 0x01, 0x00, 0x00,
  0x1a, 0xe0, 0x18, 0xef, 0xfe, 0x1b, 0xe5, 0x19, 0xd3, 0x04, 0x0b, 0xed,
  0xe7, 0xf8, 0x27, 0xf4, 0x07, 0x29, 0x0c, 0x27, 0xc0, 0x02, 0xcd, 0xe2,
  0x20, 0xdb, 0x27, 0x13, 0xec, 0x07, 0xd3, 0xe8, 0x2f, 0xe0, 0xeb, 0xf9,
  0x07, 0x1c, 0xc0, 0x11, 0x2c, 0xfc, 0x27, 0x1b, 0xdd, 0xf6, 0xf4, 0xeb,
  0xf1, 0xfe, 0x11, 0xe2, 0x49, 0xf6, 0x1a, 0xdc, 0xee, 0xec, 0xcd, 0x20,
  0x0f, 0x4f, 0xd7, 0x22, 0xde, 0x13, 0xd4, 0xec, 0x27, 0xe9, 0xe6, 0x09,
  0x0f, 0xe7, 0xcb, 0xe0, 0xd8, 0x13, 0x02, 0x49, 0xf7, 0x21, 0x23, 0x10,
  0x19, 0x3d, 0x2b, 0x0d, 0xf1, 0x28, 0x04, 0xdc, 0x25, 0xde, 0xec, 0x13,
  0xdf, 0x01, 0xd5, 0xef, 0x06, 0xd7, 0xce, 0xd1, 0xe4, 0xd5, 0xdc, 0x27,
  0x0b, 0xe1, 0xfa, 0xe0, 0xc1, 0xf6, 0xec, 0x8a, 0x2f, 0x15, 0xdf, 0x04,
  0xc0, 0xd8, 0x09, 0xde, 0x01, 0x0a, 0x03, 0x04, 0xd6, 0xfb, 0x1b, 0xe6,
  0x0d, 0xfe, 0xc3, 0xf7, 0xe3, 0xef, 0xdb, 0xec, 0x12, 0xcc, 0x4e, 0xf7,
  0xf9, 0xec, 0xe2, 0xcc, 0xb3, 0xff, 0xe5, 0x42, 0xe9, 0x13, 0xc9, 0x0b,
  0xce, 0xcb, 0x07, 0xd2, 0x08, 0xfc, 0xf3, 0xcd, 0xdb, 0xd4, 0xb8, 0xfe,
  0xdd, 0x38, 0xeb, 0x27, 0x21, 0x19, 0x1a, 0x1f, 0x26, 0x26, 0xe1, 0x2e,
  0xfb, 0xeb, 0x11, 0x05, 0xe1, 0x12, 0x1f, 0xc5, 0xba, 0xe9, 0x0c, 0x11,
  0x0b, 0x29, 0xfd, 0x12, 0x91, 0xee, 0xfc, 0xfb, 0x12, 0x00, 0x1a, 0x0c,
  0x1a, 0x81, 0xf9, 0xf9, 0x09, 0x03, 0x0b, 0x16, 0xf0, 0xdc, 0x53, 0x1c,
  0x13, 0x01, 0x3a, 0xfb, 0x29, 0x10, 0xe8, 0xb9, 0xd9, 0xfa, 0x07, 0x16,
  0xf5, 0x25, 0xef, 0xe3, 0xf9, 0x3e, 0xf6, 0x10, 0xe7, 0x10, 0xed, 0xf5,
  0x25, 0x07, 0xb6, 0xff, 0xfb, 0x0a, 0xee, 0xeb, 0x18, 0x21, 0xa9, 0xde,
  0xf3, 0xfc, 0xd0, 0x05, 0xe7, 0x10, 0x29, 0x24, 0xd4, 0xf7, 0x19, 0x0d,
  0x0e, 0x33, 0xee, 0xd3, 0x38, 0x1e, 0x29, 0xd7, 0x0d, 0xcd, 0xd8, 0x28,
  0xe4, 0x15, 0xd6, 0xfa, 0x10, 0xfc, 0xdc, 0xd5, 0x23, 0x04, 0x01, 0x26,
  0x32, 0x24, 0xfb, 0x19, 0xf2, 0xfb, 0x34, 0xfb, 0x2b, 0x2d, 0xe7, 0x02,
  0xb3, 0xd4, 0x16, 0xe2, 0xe2, 0x07, 0xf4, 0x17, 0xba, 0x09, 0x00, 0xcd,
  0x24, 0x1f, 0xcc, 0x03, 0xe2, 0xe1, 0xe0, 0xc8, 0x0d, 0xda, 0x3f, 0xfd,
  0x13, 0xe8, 0xe8, 0xda, 0xbb, 0x1f, 0xfc, 0x4a, 0xdb, 0x1a, 0xcb, 0x04,
  0xc0, 0xec, 0x1f, 0xda, 0xeb, 0x14, 0x0f, 0xef, 0xd7, 0xe1, 0xb5, 0xfc,
  0xf9, 0x42, 0x0f, 0x07, 0xfb, 0xcf, 0xef, 0x1d, 0x04, 0xfe, 0xac, 0x02,
  0xf6, 0xda, 0xff, 0xff, 0x04, 0x00, 0x00, 0x00, 0x90, 0x01, 0x00, 0x00,
  0x3a, 0xee, 0xdb, 0xe8, 0x25, 0x01, 0xe6, 0x37, 0xea, 0xaf, 0x03, 0xf4,
  0x12, 0x0e, 0xfb, 0x11, 0xc7, 0xef, 0xea, 0xaa, 0x21, 0xdb, 0x0b, 0xd2,
  0xbd, 0xd3, 0x19, 0x08, 0x16, 0xab, 0xff, 0xf6, 0x18, 0xec, 0x2d, 0x1a,
  0xa1, 0x28, 0xc1, 0xb4, 0x04, 0xd6, 0xde, 0xf3, 0xe1, 0xe7, 0x38, 0x1c,
  0x3a, 0x10, 0xf1, 0xeb, 0xe1, 0xee, 0xf0, 0x05, 0xeb, 0x15, 0xfd, 0xcf,
  0xd5, 0x95, 0x9b, 0x10, 0x02, 0x0b, 0xe9, 0xee, 0xe9, 0x07, 0x01, 0x0c,
  0x25, 0xf6, 0x37, 0x1c, 0xb7, 0x1e, 0xad, 0xba, 0xd7, 0xc5, 0xc4, 0x26,
  0xe5, 0xfb, 0xed, 0xf5, 0x0e, 0x09, 0xe0, 0xf3, 0x0f, 0x18, 0x25, 0x24,
  0xe6, 0x0c, 0xbb, 0x18, 0x3d, 0x04, 0xf8, 0xe8, 0x5b, 0x07, 0xc8, 0x13,
  0xcd, 0xce, 0x10, 0xcd, 0xf5, 0xf0, 0xf3, 0x1f, 0xc7, 0x21, 0xd2, 0xba,
  0x11, 0x09, 0x29, 0xb1, 0xc9, 0xfb, 0xf7, 0x30, 0xef, 0xb2, 0x01, 0xd7,
  0x06, 0xf0, 0x34, 0x13, 0xb3, 0x0c, 0xcb, 0xc1, 0x23, 0x09, 0x17, 0xe8,
  0x31, 0xe5, 0x34, 0x26, 0x3e, 0x2c, 0xe0, 0xb1, 0xb6, 0x1a, 0x0e, 0x07,
  0xf7, 0xe3, 0xdf, 0x16, 0xe2, 0xb0, 0xc2, 0x1a, 0xe3, 0x00, 0xf5, 0xee,
  0xf1, 0x0f, 0xf6, 0x04, 0x0c, 0xfc, 0x31, 0x1d, 0xbe, 0x27, 0xc5, 0xbb,
  0xe9, 0xc6, 0xc9, 0x1a, 0xe4, 0xf0, 0xe4, 0xf9, 0x14, 0xfd, 0xd4, 0x04,
  0x44, 0x3a, 0x7f, 0x54, 0xc7, 0xe0, 0x98, 0x3b, 0xe8, 0xfa, 0xff, 0xe4,
  0x07, 0xe6, 0x3b, 0x41, 0x22, 0xe6, 0x27, 0xbf, 0x2b, 0xf2, 0x33, 0x02,
  0x13, 0x1d, 0xf8, 0x19, 0x23, 0xfa, 0xdf, 0xf2, 0x3b, 0x05, 0x0d, 0x05,
  0xe2, 0x12, 0xac, 0xeb, 0xd9, 0xca, 0xe9, 0xfb, 0xea, 0xd4, 0x08, 0x20,
  0xec, 0xdf, 0xda, 0x2c, 0xe2, 0x14, 0x02, 0xe2, 0xdd, 0x41, 0xcf, 0xfe,
  0x05, 0x3a, 0x19, 0xde, 0xe5, 0xc9, 0xd1, 0x5a, 0xd6, 0xe3, 0xeb, 0x1b,
  0x15, 0xf8, 0xff, 0xf5, 0xfb, 0x1c, 0x2e, 0x22, 0x3d, 0xe9, 0x12, 0xf9,
  0x15, 0xd3, 0xf2, 0xdf, 0x0e, 0x0c, 0x1a, 0xe9, 0xfd, 0xf7, 0x10, 0x15,
  0xdb, 0xb9, 0x8e, 0xe4, 0xd8, 0x40, 0x03, 0x36, 0xef, 0xd6, 0xea, 0x15,
  0x3e, 0xe9, 0xec, 0xe4, 0x32, 0xfa, 0xd0, 0x2b, 0xfa, 0xa9, 0x11, 0xd6,
  0xfd, 0x04, 0xe5, 0x18, 0xdc, 0xed, 0xd0, 0x9d, 0x08, 0xe3, 0x0c, 0xe6,
  0xce, 0xe6, 0x21, 0xfa, 0x0e, 0xcf, 0x06, 0xda, 0x1d, 0xe6, 0x20, 0x28,
  0x96, 0x1f, 0xd3, 0xae, 0x00, 0xc6, 0xd7, 0xff, 0x01, 0xef, 0x55, 0x14,
  0x31, 0x1e, 0xf6, 0xbb, 0xc9, 0x0a, 0xdc, 0xf6, 0xec, 0x10, 0xf6, 0xd1,
  0xd7, 0x83, 0x95, 0x14, 0x05, 0x05, 0xfb, 0xeb, 0xf4, 0xfd, 0x12, 0x1b,
  0x3c, 0x03, 0x50, 0x26, 0xad, 0x33, 0xaa, 0xb1, 0xd5, 0xbc, 0xad, 0x25,
  0xdf, 0xf6, 0xf9, 0xe2, 0x19, 0x09, 0x2b, 0x40, 0x5e, 0xba, 0x3c, 0xdf,
  0x2f, 0x75, 0x26, 0x0c, 0x92, 0xdc, 0xff, 0xff, 0x04, 0x00, 0x00, 0x00,
  0x04, 0x00, 0x00, 0x00, 0x00, 0x00, 0x00, 0x00, 0xa2, 0xdc, 0xff, 0xff,
  0x04, 0x00, 0x00, 0x00, 0x08, 0x00, 0x00, 0x00, 0xff, 0xff, 0xff, 0xff,
  0x09, 0x00, 0x00, 0x00, 0xb6, 0xdc, 0xff, 0xff, 0x04, 0x00, 0x00, 0x00,
  0x04, 0x00, 0x00, 0x00, 0x01, 0x00, 0x00, 0x00, 0x90, 0xce, 0xff, 0xff,
  0x94, 0xce, 0xff, 0xff, 0x98, 0xce, 0xff, 0xff, 0x9c, 0xce, 0xff, 0xff,
  0xa0, 0xce, 0xff, 0xff, 0xa4, 0xce, 0xff, 0xff, 0xa8, 0xce, 0xff, 0xff,
  0xe2, 0xdc, 0xff, 0xff, 0x04, 0x00, 0x00, 0x00, 0x04, 0x00, 0x00, 0x00,
  0x05, 0x00, 0x00, 0x00, 0xbc, 0xce, 0xff, 0xff, 0xc0, 0xce, 0xff, 0xff,
  0xc4, 0xce, 0xff, 0xff, 0xc8, 0xce, 0xff, 0xff, 0xcc, 0xce, 0xff, 0xff,
  0xd0, 0xce, 0xff, 0xff, 0xd4, 0xce, 0xff, 0xff, 0xd8, 0xce, 0xff, 0xff,
  0xdc, 0xce, 0xff, 0xff, 0xe0, 0xce, 0xff, 0xff, 0xe4, 0xce, 0xff, 0xff,
  0xe8, 0xce, 0xff, 0xff, 0xec, 0xce, 0xff, 0xff, 0xf0, 0xce, 0xff, 0xff,
  0xf4, 0xce, 0xff, 0xff, 0xf8, 0xce, 0xff, 0xff, 0xfc, 0xce, 0xff, 0xff,
  0x00, 0xcf, 0xff, 0xff, 0x04, 0xcf, 0xff, 0xff, 0x08, 0xcf, 0xff, 0xff,
  0x0c, 0xcf, 0xff, 0xff, 0x10, 0xcf, 0xff, 0xff, 0x14, 0xcf, 0xff, 0xff,
  0x18, 0xcf, 0xff, 0xff, 0x1c, 0xcf, 0xff, 0xff, 0x20, 0xcf, 0xff, 0xff,
  0x24, 0xcf, 0xff, 0xff, 0x5e, 0xdd, 0xff, 0xff, 0x04, 0x00, 0x00, 0x00,
  0x10, 0x00, 0x00, 0x00, 0x11, 0x04, 0x00, 0x00, 0xdb, 0xeb, 0xff, 0xff,
  0xaa, 0x0b, 0x00, 0x00, 0xe7, 0xf9, 0xff, 0xff, 0x7a, 0xdd, 0xff, 0xff,
  0x04, 0x00, 0x00, 0x00, 0x90, 0x01, 0x00, 0x00, 0xf0, 0x02, 0xdb, 0xef,
  0xea, 0x01, 0xf5, 0xdb, 0xf7, 0xf6, 0xd9, 0xed, 0x01, 0x02, 0xe0, 0xe8,
  0xfe, 0xc7, 0x06, 0xc7, 0x0b, 0xde, 0xda, 0xec, 0x02, 0xf0, 0x05, 0x07,
  0xfc, 0xec, 0xfe, 0x07, 0xfc, 0xf7, 0xff, 0xfa, 0x0a, 0xe7, 0x0d, 0xed,
  0xfd, 0xff, 0xdc, 0xf8, 0x02, 0xf3, 0xfc, 0xe9, 0x03, 0xe8, 0xe9, 0xff,
  0xe7, 0xdd, 0xfc, 0xf2, 0x0a, 0xed, 0xe6, 0xf6, 0xf4, 0xe7, 0x0c, 0xfa,
  0x02, 0xfb, 0xfb, 0xd7, 0xf9, 0xf1, 0xe9, 0xf5, 0xfb, 0xdb, 0xdf, 0xe6,
  0xf3, 0x08, 0xff, 0xfc, 0x06, 0xe3, 0x01, 0xf5, 0x02, 0x00, 0xdc, 0xfc,
  0xdd, 0xea, 0x81, 0x08, 0xd3, 0xd5, 0xe1, 0xdc, 0xe1, 0xf8, 0xe4, 0xfc,
  0xb5, 0x10, 0xf3, 0xe1, 0xef, 0xc6, 0x02, 0x1a, 0x06, 0xe5, 0xe9, 0x9d,
  0xd6, 0xed, 0x03, 0x09, 0x09, 0xaf, 0x1c, 0xf7, 0xdb, 0xb6, 0xd3, 0x1a,
  0x03, 0xc3, 0xd0, 0xd2, 0xc9, 0x18, 0x13, 0x01, 0x01, 0x0f, 0xdc, 0xf1,
  0xc3, 0x0d, 0xe6, 0x21, 0x0e, 0xc6, 0x17, 0xfa, 0x06, 0x01, 0xd9, 0xdb,
  0xbf, 0x09, 0xe5, 0xfb, 0x0c, 0xea, 0xfb, 0xd4, 0xfd, 0x03, 0xcc, 0xec,
  0xef, 0x17, 0x09, 0xff, 0xe1, 0x0f, 0x05, 0x16, 0xfe, 0x07, 0xdb, 0x0d,
  0x0f, 0x0b, 0x16, 0xfa, 0xff, 0xf9, 0x11, 0xfa, 0x02, 0xd8, 0x15, 0xe0,
  0xbd, 0xe4, 0xd2, 0xfa, 0x05, 0x2a, 0xf9, 0xd6, 0xf6, 0x0a, 0x19, 0x2e,
  0xf5, 0x00, 0xe4, 0xe0, 0x08, 0xdd, 0x12, 0xe5, 0x0e, 0xc8, 0x08, 0x0b,
  0x04, 0xfd, 0xfa, 0xfc, 0xf9, 0xeb, 0x2d, 0x06, 0x13, 0x02, 0xea, 0xfd,
  0xba, 0x05, 0xed, 0xeb, 0xfe, 0xfe, 0xfa, 0xc2, 0x00, 0xe3, 0xd9, 0xbf,
  0xf9, 0xf3, 0xe7, 0xfa, 0xb4, 0xcb, 0xfc, 0xf9, 0xc4, 0xf3, 0x07, 0xcf,
  0x0d, 0x06, 0x03, 0xed, 0xe2, 0xef, 0x14, 0xb6, 0x19, 0x03, 0xf9, 0xff,
  0xf9, 0x02, 0xff, 0xf9, 0xe5, 0x07, 0xfe, 0xd5, 0xf6, 0x03, 0xe8, 0xe8,
  0xd6, 0xf9, 0x05, 0x04, 0xf8, 0x06, 0xea, 0x10, 0x05, 0xbc, 0xa1, 0x01,
  0xfb, 0x0e, 0xfb, 0xfb, 0xc1, 0x02, 0x04, 0x06, 0xfb, 0xf9, 0x17, 0xfa,
  0x14, 0x29, 0x04, 0xea, 0xf6, 0xfa, 0x05, 0xe1, 0xee, 0xc1, 0x07, 0xfa,
  0xea, 0x01, 0xcd, 0xf0, 0x10, 0x0c, 0x0b, 0x09, 0x0f, 0x02, 0x03, 0xd2,
  0xae, 0x19, 0x9d, 0xda, 0x0b, 0x1c, 0x15, 0x1f, 0x9e, 0x11, 0x0a, 0x0b,
  0x07, 0x14, 0xc1, 0x00, 0xff, 0xca, 0x05, 0xe6, 0x0c, 0x23, 0x09, 0xd4,
  0x09, 0x07, 0xb5, 0xf6, 0xb4, 0xa4, 0x0f, 0x17, 0x07, 0x2e, 0x13, 0x02,
  0x27, 0x0b, 0xf9, 0x0b, 0xef, 0xeb, 0x20, 0x02, 0x0f, 0x0d, 0xba, 0x16,
  0xfd, 0xb2, 0xef, 0x2e, 0x05, 0xf7, 0xe7, 0xf5, 0x04, 0xd6, 0x23, 0xf0,
  0x05, 0x07, 0x14, 0x06, 0x06, 0x06, 0x9c, 0x0a, 0x04, 0xff, 0x08, 0xfe,
  0xe0, 0xcb, 0xd5, 0x0d, 0xf7, 0xfd, 0xe5, 0x1a, 0x21, 0xfe, 0x02, 0x02,
  0x16, 0xdf, 0xff, 0xff, 0x04, 0x00, 0x00, 0x00, 0x90, 0x01, 0x00, 0x00,
  0x42, 0xc2, 0xff, 0xff, 0xdd, 0x02, 0x00, 0x00, 0x5c, 0xc3, 0xff, 0xff,
  0x6f, 0xc1, 0xff, 0xff, 0xcf, 0xa6, 0xff, 0xff, 0x91, 0xeb, 0xff, 0xff,
  0x43, 0xc6, 0xff, 0xff, 0x0d, 0xa0, 0xff, 0xff, 0xb3, 0x98, 0xff, 0xff,
  0xfc, 0xd1, 0xff, 0xff, 0xa6, 0xaf, 0xff, 0xff, 0xf8, 0xa3, 0xff, 0xff,
  0xe1, 0xd8, 0xff, 0xff, 0x0e, 0xa8, 0xff, 0xff, 0x98, 0xc3, 0xff, 0xff,
  0x21, 0x02, 0x00, 0x00, 0x9e, 0x24, 0x00, 0x00, 0x8e, 0xdc, 0xff, 0xff,
  0x70, 0xf1, 0xff, 0xff, 0xd9, 0xb7, 0xff, 0xff, 0x1a, 0xf2, 0xff, 0xff,
  0x26, 0xc0, 0xff, 0xff, 0x36, 0x96, 0xff, 0xff, 0x81, 0xd2, 0xff, 0xff,
  0x27, 0x28, 0x00, 0x00, 0xff, 0xdd, 0xff, 0xff, 0x70, 0xf1, 0xff, 0xff,
  0xbc, 0xf4, 0xff, 0xff, 0x2b, 0x05, 0x00, 0x00, 0xfb, 0xd4, 0xff, 0xff,
  0x3a, 0xf6, 0xff, 0xff, 0x23, 0x10, 0x00, 0x00, 0x51, 0x8d, 0xff, 0xff,
  0xfc, 0xe6, 0xff, 0xff, 0x0f, 0xa1, 0xff, 0xff, 0x5d, 0xda, 0xff, 0xff,
  0xac, 0xf9, 0xff, 0xff, 0x2a, 0x13, 0x00, 0x00, 0xa6, 0xe0, 0xff, 0xff,
  0x31, 0xe9, 0xff, 0xff, 0xf4, 0xc0, 0xff, 0xff, 0x57, 0xe5, 0xff, 0xff,
  0x98, 0x0b, 0x00, 0x00, 0x8f, 0x97, 0xff, 0xff, 0x9e, 0x25, 0x00, 0x00,
  0xc0, 0x37, 0x00, 0x00, 0x61, 0xa1, 0xff, 0xff, 0x2f, 0xbb, 0xff, 0xff,
  0xdb, 0xd6, 0xff, 0xff, 0x3c, 0xa8, 0xff, 0xff, 0x08, 0x05, 0x00, 0x00,
  0xb1, 0xc3, 0xff, 0xff, 0x34, 0xcb, 0xff, 0xff, 0xb0, 0xc5, 0xff, 0xff,
  0x56, 0xbf, 0xff, 0xff, 0xb6, 0xe8, 0xff, 0xff, 0xde, 0xd1, 0xff, 0xff,
  0x3f, 0xa4, 0xff, 0xff, 0x50, 0x6f, 0xff, 0xff, 0xff, 0xd1, 0xff, 0xff,
  0x0e, 0xd1, 0xff, 0xff, 0x12, 0xb8, 0xff, 0xff, 0xb6, 0xed, 0xff, 0xff,
  0x84, 0xd9, 0xff, 0xff, 0xe7, 0xb3, 0xff, 0xff, 0xc7, 0xf8, 0xff, 0xff,
  0xa0, 0xb7, 0xff, 0xff, 0x83, 0xf5, 0xff, 0xff, 0x8e, 0x91, 0xff, 0xff,
  0xb3, 0xa4, 0xff, 0xff, 0x38, 0xca, 0xff, 0xff, 0x22, 0x97, 0xff, 0xff,
  0x40, 0xbc, 0xff, 0xff, 0x9a, 0x0d, 0x00, 0x00, 0x9a, 0xd1, 0xff, 0xff,
  0x8b, 0xab, 0xff, 0xff, 0xa0, 0xab, 0xff, 0xff, 0x3d, 0xc4, 0xff, 0xff,
  0x1d, 0xc6, 0xff, 0xff, 0x13, 0xbe, 0xff, 0xff, 0xd8, 0xb8, 0xff, 0xff,
  0x5d, 0xa0, 0xff, 0xff, 0xd8, 0x30, 0x00, 0x00, 0x85, 0xb0, 0xff, 0xff,
  0xa9, 0xee, 0xff, 0xff, 0x16, 0xc4, 0xff, 0xff, 0xf0, 0xcc, 0xff, 0xff,
  0xcd, 0xbb, 0xff, 0xff, 0x3e, 0xff, 0xff, 0xff, 0x57, 0xd8, 0xff, 0xff,
  0x7c, 0xdf, 0xff, 0xff, 0x98, 0xe7, 0xff, 0xff, 0x2b, 0xcd, 0xff, 0xff,
  0xee, 0xaa, 0xff, 0xff, 0x26, 0xa0, 0xff, 0xff, 0x4d, 0xc9, 0xff, 0xff,
  0x67, 0xd1, 0xff, 0xff, 0xd3, 0xb8, 0xff, 0xff, 0x9a, 0xb1, 0xff, 0xff,
  0x49, 0xb8, 0xff, 0xff, 0xb2, 0xe0, 0xff, 0xff, 0x04, 0x00, 0x00, 0x00,
  0xe8, 0x03, 0x00, 0x00, 0xea, 0xfd, 0xe4, 0x1f, 0x0d, 0x09, 0xfa, 0xef,
  0x05, 0x05, 0x09, 0x75, 0x64, 0x06, 0x23, 0x04, 0x0c, 0x09, 0xf4, 0x10,
  0x0c, 0x01, 0xdf, 0xec, 0xc8, 0x2a, 0x13, 0xe3, 0xd6, 0x00, 0x03, 0xdf,
  0x02, 0x21, 0x02, 0x07, 0xee, 0xeb, 0x18, 0x02, 0xfe, 0xf8, 0x10, 0x00,
  0xf1, 0xf9, 0x31, 0xfd, 0x17, 0x0e, 0xef, 0x0a, 0xfe, 0x33, 0x1a, 0x49,
  0x0f, 0xde, 0xc2, 0xf9, 0x0a, 0x26, 0xff, 0xed, 0xf4, 0xf5, 0x19, 0xfa,
  0x0a, 0xfb, 0x05, 0x06, 0x2c, 0xee, 0xfb, 0xf4, 0xf2, 0xfc, 0x08, 0xfe,
  0x05, 0xe2, 0x07, 0xef, 0xfc, 0xf6, 0xe5, 0x0e, 0xf5, 0x11, 0x04, 0xfd,
  0xf1, 0xe1, 0xeb, 0x3f, 0x36, 0x05, 0xf9, 0x09, 0x08, 0x0a, 0xd6, 0xe7,
  0xf5, 0xd1, 0xef, 0xdf, 0x35, 0x12, 0xff, 0xdb, 0x05, 0xdf, 0xcf, 0xfe,
  0xe3, 0xf7, 0x03, 0x1c, 0xdc, 0xdb, 0xfe, 0xf0, 0x0c, 0xd0, 0xf5, 0xeb,
  0x4d, 0x00, 0x11, 0xf1, 0xfd, 0x05, 0xef, 0x09, 0xe4, 0xe6, 0x2a, 0xf9,
  0x15, 0xe0, 0x24, 0x0f, 0xe2, 0xc7, 0x3f, 0x08, 0x1c, 0x00, 0x3f, 0xf6,
  0x0c, 0xc9, 0xeb, 0xaa, 0x03, 0x35, 0x45, 0xe8, 0x05, 0x1a, 0x36, 0xd8,
  0x10, 0xd9, 0x6a, 0x16, 0x1c, 0x0a, 0x1f, 0xfd, 0xec, 0x07, 0x29, 0xb1,
  0xe2, 0xba, 0x08, 0x0d, 0xfb, 0x02, 0x06, 0xf4, 0x65, 0xfd, 0x39, 0x08,
  0xf8, 0x07, 0x02, 0xff, 0xde, 0x0b, 0xfb, 0xdb, 0x28, 0x0e, 0x2c, 0xfe,
  0xe6, 0x19, 0x09, 0x43, 0x09, 0x4f, 0x07, 0xd1, 0xb5, 0x01, 0x04, 0xba,
  0xff, 0x07, 0xfd, 0xa3, 0xce, 0xd3, 0xf7, 0x02, 0xf5, 0xb3, 0xf9, 0xec,
  0xf8, 0x05, 0xec, 0xf8, 0xfe, 0x07, 0x41, 0x18, 0xd6, 0xfe, 0xf4, 0x31,
  0xc6, 0x10, 0xe9, 0xfb, 0x0b, 0x01, 0xff, 0xf0, 0xe4, 0xef, 0x31, 0x07,
  0x0c, 0xdc, 0xea, 0xe8, 0xfc, 0x41, 0x10, 0xc6, 0xd4, 0x0c, 0x3a, 0x03,
  0xfc, 0xfc, 0x02, 0x2f, 0x16, 0x2c, 0x54, 0xd2, 0x07, 0xfe, 0xd6, 0x11,
  0xf6, 0x49, 0x16, 0x52, 0x00, 0xcf, 0xcf, 0x29, 0xf6, 0xcd, 0xf3, 0x05,
  0x0d, 0xf9, 0x68, 0xe1, 0x08, 0xf7, 0x03, 0xee, 0x2b, 0xed, 0xf8, 0xfe,
  0xea, 0x19, 0xfc, 0xe8, 0x0c, 0x72, 0x5a, 0x01, 0xed, 0xf3, 0x04, 0x05,
  0x00, 0x2a, 0xd2, 0x57, 0x2d, 0xe1, 0x06, 0x08, 0xbf, 0x0e, 0xcc, 0xf0,
  0xfc, 0x04, 0xfc, 0xf2, 0x19, 0x03, 0xfb, 0xfc, 0xec, 0xf5, 0x00, 0x5c,
  0x2e, 0x01, 0xf5, 0xf9, 0x0f, 0x05, 0x03, 0x35, 0xf9, 0xd4, 0x0b, 0xf7,
  0xdb, 0xfa, 0xec, 0xe2, 0x0c, 0x06, 0xfe, 0xfb, 0xf5, 0x07, 0xeb, 0xcc,
  0x06, 0x04, 0x02, 0xf2, 0xc1, 0x12, 0xfa, 0x6c, 0x19, 0x6a, 0x00, 0xc3,
  0xb4, 0x2f, 0xe3, 0x15, 0x05, 0x98, 0x03, 0xf3, 0xc1, 0x43, 0xff, 0x13,
  0xf1, 0xd2, 0xfe, 0x00, 0x06, 0xe8, 0x3a, 0xee, 0x3e, 0x08, 0x40, 0x1e,
  0x10, 0xbe, 0xd6, 0xd6, 0xf9, 0x34, 0x1f, 0x26, 0x0a, 0x1e, 0x02, 0x32,
  0x02, 0x13, 0xf9, 0x06, 0xf8, 0xe0, 0xee, 0xee, 0xdf, 0xe2, 0xfe, 0x1e,
  0x0a, 0xdf, 0x10, 0xf2, 0x40, 0x05, 0xef, 0xc0, 0xd7, 0xb1, 0x07, 0x39,
  0x4b, 0xd3, 0x00, 0x19, 0xf4, 0xf9, 0x18, 0x0a, 0xfe, 0xff, 0x04, 0x0f,
  0x0a, 0x16, 0x26, 0xdf, 0xfe, 0xdb, 0x49, 0x10, 0x16, 0xed, 0x0a, 0x2a,
  0x64, 0xe0, 0x15, 0xd5, 0x49, 0x10, 0x22, 0x0c, 0x19, 0x0f, 0xf8, 0x0a,
  0xf1, 0x25, 0xfa, 0xe2, 0x4e, 0xf4, 0x03, 0xcc, 0x02, 0x0d, 0x06, 0x07,
  0xe5, 0x04, 0xe0, 0x0a, 0xfe, 0xf6, 0xf6, 0x1f, 0x2a, 0x30, 0x01, 0xd7,
  0xd8, 0x04, 0x05, 0x27, 0x0d, 0xda, 0x1e, 0x18, 0xe1, 0x1e, 0xc6, 0xff,
  0xf3, 0xef, 0xd6, 0x26, 0xf8, 0x08, 0x42, 0xfb, 0x34, 0x04, 0xfe, 0x11,
  0x0d, 0x00, 0x06, 0xfd, 0xda, 0x06, 0xf0, 0xd8, 0x0d, 0x12, 0x28, 0xe5,
  0xdd, 0xd0, 0xd9, 0xd5, 0x0a, 0x0c, 0x06, 0x21, 0xc6, 0xf4, 0x18, 0xe1,
  0x0a, 0xfe, 0xb8, 0x06, 0x01, 0xfa, 0xf4, 0xf6, 0x00, 0xf3, 0x0e, 0x0a,
  0x19, 0x03, 0xf7, 0xe7, 0xf6, 0x24, 0xea, 0x09, 0x14, 0xe4, 0xf6, 0xef,
  0xff, 0xed, 0xee, 0xf5, 0xf4, 0xdc, 0x33, 0x06, 0x31, 0xfe, 0x13, 0x21,
  0x0f, 0xed, 0x0c, 0x05, 0xf7, 0x1f, 0xfc, 0xfa, 0xd8, 0xee, 0x00, 0x2f,
  0xdc, 0xbc, 0xe2, 0x0a, 0xf7, 0x14, 0x0d, 0xfa, 0xf3, 0x0c, 0xf7, 0x11,
  0xe0, 0x3f, 0xf6, 0x06, 0x07, 0xd7, 0x02, 0xe6, 0x05, 0xed, 0xd9, 0x15,
  0x03, 0x07, 0xe4, 0x36, 0x02, 0xfb, 0xf7, 0x18, 0xfc, 0xf0, 0x13, 0x04,
  0x01, 0x00, 0xf5, 0xed, 0xe2, 0xe0, 0x6c, 0x05, 0x1d, 0x20, 0x0b, 0xfa,
  0x12, 0xe0, 0x12, 0x3e, 0xf2, 0x1f, 0xd0, 0xe7, 0xfd, 0xf4, 0x03, 0xf8,
  0xfc, 0xf4, 0xf6, 0x02, 0x02, 0xff, 0x07, 0x5e, 0x48, 0x05, 0x28, 0xf9,
  0x30, 0x0a, 0xf7, 0x23, 0xfe, 0x00, 0x14, 0xb2, 0xf7, 0x0d, 0xf2, 0x14,
  0x07, 0x04, 0x38, 0x10, 0xea, 0x4f, 0x0c, 0xf3, 0x02, 0x35, 0xc8, 0xff,
  0x06, 0x16, 0x0c, 0x1f, 0x02, 0x16, 0xe4, 0xf5, 0xee, 0xf1, 0xf6, 0x08,
  0x13, 0xc5, 0xfa, 0x02, 0xfc, 0x1b, 0x09, 0x0b, 0xfc, 0xfa, 0xd6, 0x0b,
  0xf7, 0xeb, 0x0d, 0xec, 0x2c, 0x0a, 0x21, 0x1b, 0x19, 0xe9, 0x0b, 0x09,
  0xe9, 0x22, 0x00, 0xf1, 0x1a, 0xf6, 0x03, 0x0e, 0x18, 0x10, 0xeb, 0x0d,
  0xe8, 0x0a, 0x4d, 0xf9, 0x0d, 0xb4, 0xe2, 0x99, 0x00, 0x4a, 0x51, 0xe4,
  0xd0, 0xfc, 0x38, 0xd1, 0xfa, 0x0c, 0xef, 0x28, 0xe9, 0x06, 0x02, 0xef,
  0xf1, 0x07, 0xe3, 0xe2, 0x19, 0x07, 0x21, 0xf6, 0x1b, 0x1d, 0x11, 0xff,
  0xfe, 0xfe, 0xea, 0x03, 0x08, 0x00, 0xea, 0x2c, 0x04, 0xdc, 0xfb, 0x1a,
  0xe8, 0x40, 0xd3, 0xfb, 0x22, 0x32, 0x13, 0x0b, 0xfe, 0x1a, 0xe0, 0x1e,
  0xe3, 0xd3, 0xff, 0xfd, 0x01, 0x00, 0x00, 0xf6, 0x07, 0xf4, 0x09, 0xfa,
  0x0a, 0x11, 0xfe, 0x34, 0xfa, 0x14, 0x00, 0x02, 0xfa, 0xff, 0x02, 0xf2,
  0x0d, 0x1d, 0xd0, 0x28, 0x2a, 0x0f, 0xf9, 0x0b, 0x0c, 0x7b, 0x7f, 0xe7,
  0x02, 0xe8, 0x3e, 0x09, 0xfd, 0x0d, 0x06, 0xf2, 0xfa, 0xdc, 0x00, 0x2f,
  0x17, 0xf5, 0xfd, 0x10, 0xcf, 0x09, 0xf6, 0x58, 0x1b, 0x53, 0x07, 0xd1,
  0xd7, 0x1a, 0xfa, 0xfc, 0xf9, 0xff, 0xf9, 0x00, 0x03, 0x09, 0xf6, 0xfb,
  0xec, 0x00, 0xe2, 0x20, 0x2e, 0x06, 0xd7, 0xc1, 0xff, 0x17, 0xf7, 0x08,
  0x04, 0x13, 0xe5, 0xf5, 0x30, 0xf8, 0x0a, 0x04, 0x3c, 0x10, 0xf6, 0xb7,
  0xe3, 0xac, 0xf9, 0x30, 0x3b, 0xee, 0x05, 0x2b, 0xfe, 0x11, 0x03, 0xed,
  0x0b, 0x1b, 0x08, 0x45, 0x04, 0xf7, 0xf1, 0xf6, 0xd5, 0xe4, 0x40, 0xe9,
  0x03, 0xe9, 0xf6, 0xd5, 0xf9, 0x11, 0x01, 0x1c, 0x5c, 0xea, 0x06, 0xfe,
  0xd9, 0xfe, 0xf1, 0x01, 0xd8, 0x0f, 0x1f, 0x19, 0x03, 0xf8, 0x0b, 0x1f,
  0xd2, 0x26, 0x04, 0x2d, 0x00, 0xf3, 0x03, 0x03, 0x1e, 0xfd, 0x2b, 0xe1,
  0xe2, 0xf0, 0xea, 0x03, 0x17, 0xe1, 0xd6, 0xdc, 0x07, 0x21, 0xff, 0xef,
  0x08, 0x3b, 0x13, 0xd7, 0x04, 0x04, 0x04, 0x18, 0x04, 0xd7, 0x14, 0xbc,
  0xf0, 0x19, 0xfd, 0x08, 0x01, 0x02, 0x08, 0x08, 0x01, 0x02, 0xfd, 0xfc,
  0x05, 0x09, 0xe0, 0x03, 0xed, 0xe9, 0x25, 0xfc, 0xe2, 0x0b, 0x15, 0xe0,
  0xf1, 0x27, 0x0d, 0xf8, 0xbb, 0xf5, 0x06, 0xf5, 0xa6, 0xe4, 0xff, 0xff,
  0x04, 0x00, 0x00, 0x00, 0x01, 0x00, 0x00, 0x00, 0x00, 0x00, 0x00, 0x00,
  0xb6, 0xe4, 0xff, 0xff, 0x04, 0x00, 0x00, 0x00, 0x0c, 0x00, 0x00, 0x00,
  0x01, 0x00, 0x00, 0x00, 0x01, 0x00, 0x00, 0x00, 0x01, 0x00, 0x00, 0x00,
  0xce, 0xe4, 0xff, 0xff, 0x04, 0x00, 0x00, 0x00, 0x0c, 0x00, 0x00, 0x00,
  0x00, 0x00, 0x00, 0x00, 0xff, 0xff, 0xff, 0xff, 0x0a, 0x00, 0x00, 0x00,
  0xe6, 0xe4, 0xff, 0xff, 0x04, 0x00, 0x00, 0x00, 0x0c, 0x00, 0x00, 0x00,
  0xff, 0xff, 0xff, 0xff, 0x00, 0x00, 0x00, 0x00, 0x00, 0x00, 0x00, 0x00,
  0xfe, 0xe4, 0xff, 0xff, 0x04, 0x00, 0x00, 0x00, 0x04, 0x00, 0x00, 0x00,
  0x00, 0x00, 0x00, 0x00, 0x0e, 0xe5, 0xff, 0xff, 0x04, 0x00, 0x00, 0x00,
  0x08, 0x00, 0x00, 0x00, 0xff, 0xff, 0xff, 0xff, 0x09, 0x00, 0x00, 0x00,
  0x22, 0xe5, 0xff, 0xff, 0x04, 0x00, 0x00, 0x00, 0x0c, 0x00, 0x00, 0x00,
  0x01, 0x00, 0x00, 0x00, 0x00, 0x00, 0x00, 0x00, 0x02, 0x00, 0x00, 0x00,
  0x3a, 0xe5, 0xff, 0xff, 0x04, 0x00, 0x00, 0x00, 0x04, 0x00, 0x00, 0x00,
  0x01, 0x00, 0x00, 0x00, 0x4a, 0xe5, 0xff, 0xff, 0x04, 0x00, 0x00, 0x00,
  0x08, 0x00, 0x00, 0x00, 0xff, 0xff, 0xff, 0xff, 0x0a, 0x00, 0x00, 0x00,
  0x5e, 0xe5, 0xff, 0xff, 0x04, 0x00, 0x00, 0x00, 0x04, 0x00, 0x00, 0x00,
  0x0a, 0x00, 0x00, 0x00, 0x6e, 0xe5, 0xff, 0xff, 0x04, 0x00, 0x00, 0x00,
  0x04, 0x00, 0x00, 0x00, 0x01, 0x00, 0x00, 0x00, 0x7e, 0xe5, 0xff, 0xff,
  0x04, 0x00, 0x00, 0x00, 0x04, 0x00, 0x00, 0x00, 0x00, 0x00, 0x00, 0x00,
  0x58, 0xd7, 0xff, 0xff, 0x5c, 0xd7, 0xff, 0xff, 0x0f, 0x00, 0x00, 0x00,
  0x4d, 0x4c, 0x49, 0x52, 0x20, 0x43, 0x6f, 0x6e, 0x76, 0x65, 0x72, 0x74,
  0x65, 0x64, 0x2e, 0x00, 0x03, 0x00, 0x00, 0x00, 0x14, 0x16, 0x00, 0x00,
  0xd0, 0x13, 0x00, 0x00, 0x04, 0x00, 0x00, 0x00, 0x06, 0xea, 0xff, 0xff,
  0x14, 0x00, 0x00, 0x00, 0x20, 0x00, 0x00, 0x00, 0x5c, 0x05, 0x00, 0x00,
  0x74, 0x05, 0x00, 0x00, 0x8c, 0x05, 0x00, 0x00, 0x0a, 0x00, 0x00, 0x00,
  0x77, 0x68, 0x69, 0x6c, 0x65, 0x5f, 0x62, 0x6f, 0x64, 0x79, 0x00, 0x00,
  0x17, 0x00, 0x00, 0x00, 0x1c, 0x05, 0x00, 0x00, 0xf8, 0x04, 0x00, 0x00,
  0xc4, 0x04, 0x00, 0x00, 0x8c, 0x04, 0x00, 0x00, 0xcc, 0x03, 0x00, 0x00,
  0xa8, 0x03, 0x00, 0x00, 0x70, 0x03, 0x00, 0x00, 0x3c, 0x03, 0x00, 0x00,
  0x08, 0x03, 0x00, 0x00, 0xc4, 0x02, 0x00, 0x00, 0xa0, 0x02, 0x00, 0x00,
  0x7c, 0x02, 0x00, 0x00, 0x48, 0x02, 0x00, 0x00, 0x24, 0x02, 0x00, 0x00,
  0x00, 0x02, 0x00, 0x00, 0xcc, 0x01, 0x00, 0x00, 0x98, 0x01, 0x00, 0x00,
  0x74, 0x01, 0x00, 0x00, 0x50, 0x01, 0x00, 0x00, 0x1c, 0x01, 0x00, 0x00,
  0xf8, 0x00, 0x00, 0x00, 0x38, 0x00, 0x00, 0x00, 0x04, 0x00, 0x00, 0x00,
  0x1e, 0xe6, 0xff, 0xff, 0x14, 0x00, 0x00, 0x00, 0x00, 0x00, 0x00, 0x0b,
  0x10, 0x00, 0x00, 0x00, 0x14, 0x00, 0x00, 0x00, 0x0e, 0x00, 0x00, 0x00,
  0x24, 0xd8, 0xff, 0xff, 0x01, 0x00, 0x00, 0x00, 0x25, 0x00, 0x00, 0x00,
  0x02, 0x00, 0x00, 0x00, 0x00, 0x00, 0x00, 0x00, 0x06, 0x00, 0x00, 0x00,
  0x78, 0xe7, 0xff, 0xff, 0x10, 0x00, 0x00, 0x00, 0x9c, 0x00, 0x00, 0x00,
  0xa0, 0x00, 0x00, 0x00, 0x14, 0x00, 0x00, 0x00, 0x8c, 0x00, 0x00, 0x00,
  0x11, 0x54, 0x65, 0x6e, 0x73, 0x6f, 0x72, 0x4c, 0x69, 0x73, 0x74, 0x53,
  0x65, 0x74, 0x49, 0x74, 0x65, 0x6d, 0x00, 0x6f, 0x12, 0x11, 0x54, 0x65,
  0x6e, 0x73, 0x6f, 0x72, 0x4c, 0x69, 0x73, 0x74, 0x53, 0x65, 0x74, 0x49,
  0x74, 0x65, 0x6d, 0x1a, 0x00, 0x1a, 0x00, 0x1a, 0x00, 0x2a, 0x13, 0x0a,
  0x0d, 0x65, 0x6c, 0x65, 0x6d, 0x65, 0x6e, 0x74, 0x5f, 0x64, 0x74, 0x79,
  0x70, 0x65, 0x12, 0x02, 0x30, 0x01, 0x32, 0x3f, 0x0a, 0x2a, 0x77, 0x68,
  0x69, 0x6c, 0x65, 0x2f, 0x54, 0x65, 0x6e, 0x73, 0x6f, 0x72, 0x41, 0x72,
  0x72, 0x61, 0x79, 0x56, 0x32, 0x57, 0x72, 0x69, 0x74, 0x65, 0x2f, 0x54,
  0x65, 0x6e, 0x73, 0x6f, 0x72, 0x4c, 0x69, 0x73, 0x74, 0x53, 0x65, 0x74,
  0x49, 0x74, 0x65, 0x6d, 0x12, 0x11, 0x77, 0x68, 0x69, 0x6c, 0x65, 0x5f,
  0x62, 0x6f, 0x64, 0x79, 0x5f, 0x31, 0x39, 0x36, 0x32, 0x31, 0x38, 0x00,
  0x02, 0x84, 0x72, 0x14, 0x14, 0x04, 0x28, 0x01, 0x01, 0x00, 0x00, 0x00,
  0x24, 0x00, 0x00, 0x00, 0x03, 0x00, 0x00, 0x00, 0x02, 0x00, 0x00, 0x00,
  0x08, 0x00, 0x00, 0x00, 0x23, 0x00, 0x00, 0x00, 0x76, 0xe7, 0xff, 0xff,
  0x0c, 0x00, 0x00, 0x00, 0x10, 0x00, 0x00, 0x00, 0x04, 0x00, 0x00, 0x00,
  0x01, 0x00, 0x00, 0x00, 0x23, 0x00, 0x00, 0x00, 0x01, 0x00, 0x00, 0x00,
  0x22, 0x00, 0x00, 0x00, 0x2a, 0xe7, 0xff, 0xff, 0x14, 0x00, 0x00, 0x00,
  0x00, 0x00, 0x00, 0x15, 0x10, 0x00, 0x00, 0x00, 0x14, 0x00, 0x00, 0x00,
  0x12, 0x00, 0x00, 0x00, 0x30, 0xd9, 0xff, 0xff, 0x01, 0x00, 0x00, 0x00,
  0x22, 0x00, 0x00, 0x00, 0x02, 0x00, 0x00, 0x00, 0x1c, 0x00, 0x00, 0x00,
  0x21, 0x00, 0x00, 0x00, 0xc6, 0xe7, 0xff, 0xff, 0x0c, 0x00, 0x00, 0x00,
  0x10, 0x00, 0x00, 0x00, 0x13, 0x00, 0x00, 0x00, 0x01, 0x00, 0x00, 0x00,
  0x21, 0x00, 0x00, 0x00, 0x01, 0x00, 0x00, 0x00, 0x1f, 0x00, 0x00, 0x00,
  0xe6, 0xe7, 0xff, 0xff, 0x0c, 0x00, 0x00, 0x00, 0x10, 0x00, 0x00, 0x00,
  0x04, 0x00, 0x00, 0x00, 0x01, 0x00, 0x00, 0x00, 0x20, 0x00, 0x00, 0x00,
  0x01, 0x00, 0x00, 0x00, 0x1f, 0x00, 0x00, 0x00, 0x9a, 0xe7, 0xff, 0xff,
  0x14, 0x00, 0x00, 0x00, 0x00, 0x00, 0x00, 0x0b, 0x10, 0x00, 0x00, 0x00,
  0x14, 0x00, 0x00, 0x00, 0x0e, 0x00, 0x00, 0x00, 0xa0, 0xd9, 0xff, 0xff,
  0x01, 0x00, 0x00, 0x00, 0x1f, 0x00, 0x00, 0x00, 0x02, 0x00, 0x00, 0x00,
  0x1b, 0x00, 0x00, 0x00, 0x1e, 0x00, 0x00, 0x00, 0xca, 0xe7, 0xff, 0xff,
  0x14, 0x00, 0x00, 0x00, 0x00, 0x00, 0x00, 0x15, 0x10, 0x00, 0x00, 0x00,
  0x14, 0x00, 0x00, 0x00, 0x12, 0x00, 0x00, 0x00, 0xd0, 0xd9, 0xff, 0xff,
  0x01, 0x00, 0x00, 0x00, 0x1e, 0x00, 0x00, 0x00, 0x02, 0x00, 0x00, 0x00,
  0x19, 0x00, 0x00, 0x00, 0x1d, 0x00, 0x00, 0x00, 0x66, 0xe8, 0xff, 0xff,
  0x0c, 0x00, 0x00, 0x00, 0x10, 0x00, 0x00, 0x00, 0x13, 0x00, 0x00, 0x00,
  0x01, 0x00, 0x00, 0x00, 0x1d, 0x00, 0x00, 0x00, 0x01, 0x00, 0x00, 0x00,
  0x17, 0x00, 0x00, 0x00, 0x86, 0xe8, 0xff, 0xff, 0x0c, 0x00, 0x00, 0x00,
  0x10, 0x00, 0x00, 0x00, 0x11, 0x00, 0x00, 0x00, 0x01, 0x00, 0x00, 0x00,
  0x1c, 0x00, 0x00, 0x00, 0x01, 0x00, 0x00, 0x00, 0x18, 0x00, 0x00, 0x00,
  0x3a, 0xe8, 0xff, 0xff, 0x14, 0x00, 0x00, 0x00, 0x00, 0x00, 0x00, 0x15,
  0x10, 0x00, 0x00, 0x00, 0x14, 0x00, 0x00, 0x00, 0x12, 0x00, 0x00, 0x00,
  0x40, 0xda, 0xff, 0xff, 0x01, 0x00, 0x00, 0x00, 0x1b, 0x00, 0x00, 0x00,
  0x02, 0x00, 0x00, 0x00, 0x1a, 0x00, 0x00, 0x00, 0x0d, 0x00, 0x00, 0x00,
  0xd6, 0xe8, 0xff, 0xff, 0x0c, 0x00, 0x00, 0x00, 0x10, 0x00, 0x00, 0x00,
  0x11, 0x00, 0x00, 0x00, 0x01, 0x00, 0x00, 0x00, 0x1a, 0x00, 0x00, 0x00,
  0x01, 0x00, 0x00, 0x00, 0x16, 0x00, 0x00, 0x00, 0xf6, 0xe8, 0xff, 0xff,
  0x0c, 0x00, 0x00, 0x00, 0x10, 0x00, 0x00, 0x00, 0x11, 0x00, 0x00, 0x00,
  0x01, 0x00, 0x00, 0x00, 0x19, 0x00, 0x00, 0x00, 0x01, 0x00, 0x00, 0x00,
  0x15, 0x00, 0x00, 0x00, 0xaa, 0xe8, 0xff, 0xff, 0x14, 0x00, 0x00, 0x00,
  0x00, 0x00, 0x00, 0x23, 0x14, 0x00, 0x00, 0x00, 0x24, 0x00, 0x00, 0x00,
  0x10, 0x00, 0x00, 0x00, 0xe6, 0xe8, 0xff, 0xff, 0x04, 0x00, 0x00, 0x00,
  0x04, 0x00, 0x00, 0x00, 0x15, 0x00, 0x00, 0x00, 0x16, 0x00, 0x00, 0x00,
  0x17, 0x00, 0x00, 0x00, 0x18, 0x00, 0x00, 0x00, 0x02, 0x00, 0x00, 0x00,
  0x06, 0x00, 0x00, 0x00, 0x14, 0x00, 0x00, 0x00, 0xea, 0xe8, 0xff, 0xff,
  0x14, 0x00, 0x00, 0x00, 0x00, 0x00, 0x00, 0x0b, 0x10, 0x00, 0x00, 0x00,
  0x14, 0x00, 0x00, 0x00, 0x0e, 0x00, 0x00, 0x00, 0xf0, 0xda, 0xff, 0xff,
  0x01, 0x00, 0x00, 0x00, 0x14, 0x00, 0x00, 0x00, 0x02, 0x00, 0x00, 0x00,
  0x13, 0x00, 0x00, 0x00, 0x0b, 0x00, 0x00, 0x00, 0x1a, 0xe9, 0xff, 0xff,
  0x14, 0x00, 0x00, 0x00, 0x00, 0x00, 0x00, 0x0b, 0x10, 0x00, 0x00, 0x00,
  0x14, 0x00, 0x00, 0x00, 0x0e, 0x00, 0x00, 0x00, 0x20, 0xdb, 0xff, 0xff,
  0x01, 0x00, 0x00, 0x00, 0x13, 0x00, 0x00, 0x00, 0x02, 0x00, 0x00, 0x00,
  0x12, 0x00, 0x00, 0x00, 0x0f, 0x00, 0x00, 0x00, 0x4a, 0xe9, 0xff, 0xff,
  0x14, 0x00, 0x00, 0x00, 0x00, 0x00, 0x00, 0x08, 0x10, 0x00, 0x00, 0x00,
  0x14, 0x00, 0x00, 0x00, 0x0b, 0x00, 0x00, 0x00, 0x50, 0xdb, 0xff, 0xff,
  0x01, 0x00, 0x00, 0x00, 0x12, 0x00, 0x00, 0x00, 0x03, 0x00, 0x00, 0x00,
  0x11, 0x00, 0x00, 0x00, 0x0a, 0x00, 0x00, 0x00, 0xff, 0xff, 0xff, 0xff,
  0xea, 0xe9, 0xff, 0xff, 0x0c, 0x00, 0x00, 0x00, 0x10, 0x00, 0x00, 0x00,
  0x0a, 0x00, 0x00, 0x00, 0x01, 0x00, 0x00, 0x00, 0x11, 0x00, 0x00, 0x00,
  0x01, 0x00, 0x00, 0x00, 0x10, 0x00, 0x00, 0x00, 0xc8, 0xea, 0xff, 0xff,
  0x10, 0x00, 0x00, 0x00, 0x9c, 0x00, 0x00, 0x00, 0xa0, 0x00, 0x00, 0x00,
  0x0f, 0x00, 0x00, 0x00, 0x8b, 0x00, 0x00, 0x00, 0x11, 0x54, 0x65, 0x6e,
  0x73, 0x6f, 0x72, 0x4c, 0x69, 0x73, 0x74, 0x47, 0x65, 0x74, 0x49, 0x74,
  0x65, 0x6d, 0x00, 0x6e, 0x12, 0x11, 0x54, 0x65, 0x6e, 0x73, 0x6f, 0x72,
  0x4c, 0x69, 0x73, 0x74, 0x47, 0x65, 0x74, 0x49, 0x74, 0x65, 0x6d, 0x1a,
  0x00, 0x1a, 0x00, 0x1a, 0x00, 0x2a, 0x13, 0x0a, 0x0d, 0x65, 0x6c, 0x65,
  0x6d, 0x65, 0x6e, 0x74, 0x5f, 0x64, 0x74, 0x79, 0x70, 0x65, 0x12, 0x02,
  0x30, 0x01, 0x32, 0x3e, 0x0a, 0x29, 0x77, 0x68, 0x69, 0x6c, 0x65, 0x2f,
  0x54, 0x65, 0x6e, 0x73, 0x6f, 0x72, 0x41, 0x72, 0x72, 0x61, 0x79, 0x56,
  0x32, 0x52, 0x65, 0x61, 0x64, 0x2f, 0x54, 0x65, 0x6e, 0x73, 0x6f, 0x72,
  0x4c, 0x69, 0x73, 0x74, 0x47, 0x65, 0x74, 0x49, 0x74, 0x65, 0x6d, 0x12,
  0x11, 0x77, 0x68, 0x69, 0x6c, 0x65, 0x5f, 0x62, 0x6f, 0x64, 0x79, 0x5f,
  0x31, 0x39, 0x36, 0x32, 0x31, 0x38, 0x00, 0x02, 0x83, 0x71, 0x14, 0x14,
  0x04, 0x28, 0x01, 0x00, 0x01, 0x00, 0x00, 0x00, 0x10, 0x00, 0x00, 0x00,
  0x03, 0x00, 0x00, 0x00, 0x05, 0x00, 0x00, 0x00, 0x01, 0x00, 0x00, 0x00,
  0x07, 0x00, 0x00, 0x00, 0x5a, 0xea, 0xff, 0xff, 0x14, 0x00, 0x00, 0x00,
  0x00, 0x00, 0x00, 0x08, 0x10, 0x00, 0x00, 0x00, 0x14, 0x00, 0x00, 0x00,
  0x0b, 0x00, 0x00, 0x00, 0x60, 0xdc, 0xff, 0xff, 0x01, 0x00, 0x00, 0x00,
  0x0f, 0x00, 0x00, 0x00, 0x03, 0x00, 0x00, 0x00, 0x0c, 0x00, 0x00, 0x00,
  0x09, 0x00, 0x00, 0x00, 0xff, 0xff, 0xff, 0xff, 0x8e, 0xea, 0xff, 0xff,
  0x14, 0x00, 0x00, 0x00, 0x00, 0x00, 0x00, 0x0b, 0x10, 0x00, 0x00, 0x00,
  0x14, 0x00, 0x00, 0x00, 0x0e, 0x00, 0x00, 0x00, 0x94, 0xdc, 0xff, 0xff,
  0x01, 0x00, 0x00, 0x00, 0x0e, 0x00, 0x00, 0x00, 0x02, 0x00, 0x00, 0x00,
  0x01, 0x00, 0x00, 0x00, 0x06, 0x00, 0x00, 0x00, 0x2a, 0xeb, 0xff, 0xff,
  0x0c, 0x00, 0x00, 0x00, 0x10, 0x00, 0x00, 0x00, 0x0a, 0x00, 0x00, 0x00,
  0x01, 0x00, 0x00, 0x00, 0x0d, 0x00, 0x00, 0x00, 0x01, 0x00, 0x00, 0x00,
  0x04, 0x00, 0x00, 0x00, 0x4a, 0xeb, 0xff, 0xff, 0x0c, 0x00, 0x00, 0x00,
  0x10, 0x00, 0x00, 0x00, 0x0a, 0x00, 0x00, 0x00, 0x01, 0x00, 0x00, 0x00,
  0x0c, 0x00, 0x00, 0x00, 0x01, 0x00, 0x00, 0x00, 0x03, 0x00, 0x00, 0x00,
  0x06, 0x00, 0x00, 0x00, 0x25, 0x00, 0x00, 0x00, 0x0e, 0x00, 0x00, 0x00,
  0x24, 0x00, 0x00, 0x00, 0x23, 0x00, 0x00, 0x00, 0x20, 0x00, 0x00, 0x00,
  0x05, 0x00, 0x00, 0x00, 0x06, 0x00, 0x00, 0x00, 0x00, 0x00, 0x00, 0x00,
  0x01, 0x00, 0x00, 0x00, 0x02, 0x00, 0x00, 0x00, 0x03, 0x00, 0x00, 0x00,
  0x04, 0x00, 0x00, 0x00, 0x05, 0x00, 0x00, 0x00, 0x26, 0x00, 0x00, 0x00,
  0xf8, 0x0d, 0x00, 0x00, 0xc8, 0x0d, 0x00, 0x00, 0x98, 0x0d, 0x00, 0x00,
  0x54, 0x0d, 0x00, 0x00, 0x10, 0x0d, 0x00, 0x00, 0xe0, 0x0c, 0x00, 0x00,
  0x98, 0x0c, 0x00, 0x00, 0x34, 0x0c, 0x00, 0x00, 0x04, 0x0c, 0x00, 0x00,
  0xa4, 0x0b, 0x00, 0x00, 0x48, 0x0b, 0x00, 0x00, 0xd4, 0x0a, 0x00, 0x00,
  0x68, 0x0a, 0x00, 0x00, 0xfc, 0x09, 0x00, 0x00, 0xc8, 0x09, 0x00, 0x00,
  0x5c, 0x09, 0x00, 0x00, 0xf4, 0x08, 0x00, 0x00, 0x84, 0x08, 0x00, 0x00,
  0x18, 0x08, 0x00, 0x00, 0xac, 0x07, 0x00, 0x00, 0x40, 0x07, 0x00, 0x00,
  0xac, 0x06, 0x00, 0x00, 0x18, 0x06, 0x00, 0x00, 0x84, 0x05, 0x00, 0x00,
  0xf0, 0x04, 0x00, 0x00, 0x84, 0x04, 0x00, 0x00, 0x18, 0x04, 0x00, 0x00,
  0xac, 0x03, 0x00, 0x00, 0x40, 0x03, 0x00, 0x00, 0xd4, 0x02, 0x00, 0x00,
  0x68, 0x02, 0x00, 0x00, 0xfc, 0x01, 0x00, 0x00, 0xb0, 0x01, 0x00, 0x00,
  0x44, 0x01, 0x00, 0x00, 0xd8, 0x00, 0x00, 0x00, 0x8c, 0x00, 0x00, 0x00,
  0x38, 0x00, 0x00, 0x00, 0x04, 0x00, 0x00, 0x00, 0xe6, 0xdd, 0xff, 0xff,
  0x14, 0x00, 0x00, 0x00, 0x14, 0x00, 0x00, 0x00, 0x54, 0x00, 0x00, 0x00,
  0x00, 0x00, 0x00, 0x02, 0x18, 0x00, 0x00, 0x00, 0xd8, 0xdd, 0xff, 0xff,
  0x0b, 0x00, 0x00, 0x00, 0x77, 0x68, 0x69, 0x6c, 0x65, 0x2f, 0x61, 0x64,
  0x64, 0x5f, 0x33, 0x00, 0x00, 0x00, 0x00, 0x00, 0x16, 0xde, 0xff, 0xff,
  0x14, 0x00, 0x00, 0x00, 0x14, 0x00, 0x00, 0x00, 0x53, 0x00, 0x00, 0x00,
  0x00, 0x00, 0x00, 0x0e, 0x38, 0x00, 0x00, 0x00, 0x08, 0xde, 0xff, 0xff,
  0x2a, 0x00, 0x00, 0x00, 0x77, 0x68, 0x69, 0x6c, 0x65, 0x2f, 0x54, 0x65,
  0x6e, 0x73, 0x6f, 0x72, 0x41, 0x72, 0x72, 0x61, 0x79, 0x56, 0x32, 0x57,
  0x72, 0x69, 0x74, 0x65, 0x2f, 0x54, 0x65, 0x6e, 0x73, 0x6f, 0x72, 0x4c,
  0x69, 0x73, 0x74, 0x53, 0x65, 0x74, 0x49, 0x74, 0x65, 0x6d, 0x00, 0x00,
  0x00, 0x00, 0x00, 0x00, 0xc4, 0xe4, 0xff, 0xff, 0x14, 0x00, 0x00, 0x00,
  0x1c, 0x00, 0x00, 0x00, 0x1c, 0x00, 0x00, 0x00, 0x52, 0x00, 0x00, 0x00,
  0x28, 0x00, 0x00, 0x00, 0x02, 0x00, 0x00, 0x00, 0xff, 0xff, 0xff, 0xff,
  0x0a, 0x00, 0x00, 0x00, 0x64, 0xde, 0xff, 0xff, 0x0f, 0x00, 0x00, 0x00,
  0x74, 0x66, 0x6c, 0x2e, 0x64, 0x65, 0x71, 0x75, 0x61, 0x6e, 0x74, 0x69,
  0x7a, 0x65, 0x32, 0x00, 0x02, 0x00, 0x00, 0x00, 0x01, 0x00, 0x00, 0x00,
  0x0a, 0x00, 0x00, 0x00, 0x4c, 0xde, 0xff, 0xff, 0x18, 0x00, 0x00, 0x00,
  0x20, 0x00, 0x00, 0x00, 0x40, 0x00, 0x00, 0x00, 0x51, 0x00, 0x00, 0x00,
  0x00, 0x00, 0x00, 0x09, 0x44, 0x00, 0x00, 0x00, 0x02, 0x00, 0x00, 0x00,
  0xff, 0xff, 0xff, 0xff, 0x0a, 0x00, 0x00, 0x00, 0x34, 0xde, 0xff, 0xff,
  0x08, 0x00, 0x00, 0x00, 0x14, 0x00, 0x00, 0x00, 0x01, 0x00, 0x00, 0x00,
  0xd8, 0xff, 0xff, 0xff, 0xff, 0xff, 0xff, 0xff, 0x00, 0x00, 0x00, 0x00,
  0x01, 0x00, 0x00, 0x00, 0x47, 0x21, 0xf9, 0x3a, 0x0b, 0x00, 0x00, 0x00,
  0x77, 0x68, 0x69, 0x6c, 0x65, 0x2f, 0x6d, 0x75, 0x6c, 0x5f, 0x32, 0x00,
  0x02, 0x00, 0x00, 0x00, 0x01, 0x00, 0x00, 0x00, 0x0a, 0x00, 0x00, 0x00,
  0xb4, 0xde, 0xff, 0xff, 0x18, 0x00, 0x00, 0x00, 0x20, 0x00, 0x00, 0x00,
  0x3c, 0x00, 0x00, 0x00, 0x50, 0x00, 0x00, 0x00, 0x00, 0x00, 0x00, 0x09,
  0x44, 0x00, 0x00, 0x00, 0x02, 0x00, 0x00, 0x00, 0xff, 0xff, 0xff, 0xff,
  0x0a, 0x00, 0x00, 0x00, 0x9c, 0xde, 0xff, 0xff, 0x08, 0x00, 0x00, 0x00,
  0x10, 0x00, 0x00, 0x00, 0x01, 0x00, 0x00, 0x00, 0x00, 0x00, 0x00, 0x00,
  0x00, 0x00, 0x00, 0x00, 0x01, 0x00, 0x00, 0x00, 0x00, 0x00, 0x00, 0x3c,
  0x0c, 0x00, 0x00, 0x00, 0x77, 0x68, 0x69, 0x6c, 0x65, 0x2f, 0x54, 0x61,
  0x6e, 0x68, 0x5f, 0x31, 0x00, 0x00, 0x00, 0x00, 0x02, 0x00, 0x00, 0x00,
  0x01, 0x00, 0x00, 0x00, 0x0a, 0x00, 0x00, 0x00, 0xdc, 0xe5, 0xff, 0xff,
  0x14, 0x00, 0x00, 0x00, 0x1c, 0x00, 0x00, 0x00, 0x1c, 0x00, 0x00, 0x00,
  0x4f, 0x00, 0x00, 0x00, 0x28, 0x00, 0x00, 0x00, 0x02, 0x00, 0x00, 0x00,
  0xff, 0xff, 0xff, 0xff, 0x0a, 0x00, 0x00, 0x00, 0x7c, 0xdf, 0xff, 0xff,
  0x0f, 0x00, 0x00, 0x00, 0x74, 0x66, 0x6c, 0x2e, 0x64, 0x65, 0x71, 0x75,
  0x61, 0x6e, 0x74, 0x69, 0x7a, 0x65, 0x31, 0x00, 0x02, 0x00, 0x00, 0x00,
  0x01, 0x00, 0x00, 0x00, 0x0a, 0x00, 0x00, 0x00, 0x64, 0xdf, 0xff, 0xff,
  0x18, 0x00, 0x00, 0x00, 0x20, 0x00, 0x00, 0x00, 0x40, 0x00, 0x00, 0x00,
  0x4e, 0x00, 0x00, 0x00, 0x00, 0x00, 0x00, 0x09, 0x44, 0x00, 0x00, 0x00,
  0x02, 0x00, 0x00, 0x00, 0xff, 0xff, 0xff, 0xff, 0x0a, 0x00, 0x00, 0x00,
  0x4c, 0xdf, 0xff, 0xff, 0x08, 0x00, 0x00, 0x00, 0x14, 0x00, 0x00, 0x00,
  0x01, 0x00, 0x00, 0x00, 0x9a, 0xff, 0xff, 0xff, 0xff, 0xff, 0xff, 0xff,
  0x00, 0x00, 0x00, 0x00, 0x01, 0x00, 0x00, 0x00, 0x9e, 0x6f, 0xa1, 0x3c,
  0x0b, 0x00, 0x00, 0x00, 0x77, 0x68, 0x69, 0x6c, 0x65, 0x2f, 0x61, 0x64,
  0x64, 0x5f, 0x31, 0x00, 0x02, 0x00, 0x00, 0x00, 0x01, 0x00, 0x00, 0x00,
  0x0a, 0x00, 0x00, 0x00, 0xcc, 0xdf, 0xff, 0xff, 0x18, 0x00, 0x00, 0x00,
  0x20, 0x00, 0x00, 0x00, 0x40, 0x00, 0x00, 0x00, 0x4d, 0x00, 0x00, 0x00,
  0x00, 0x00, 0x00, 0x09, 0x44, 0x00, 0x00, 0x00, 0x02, 0x00, 0x00, 0x00,
  0xff, 0xff, 0xff, 0xff, 0x0a, 0x00, 0x00, 0x00, 0xb4, 0xdf, 0xff, 0xff,
  0x08, 0x00, 0x00, 0x00, 0x14, 0x00, 0x00, 0x00, 0x01, 0x00, 0x00, 0x00,
  0xc7, 0xff, 0xff, 0xff, 0xff, 0xff, 0xff, 0xff, 0x00, 0x00, 0x00, 0x00,
  0x01, 0x00, 0x00, 0x00, 0xd4, 0x0a, 0xab, 0x3b, 0x0b, 0x00, 0x00, 0x00,
  0x77, 0x68, 0x69, 0x6c, 0x65, 0x2f, 0x6d, 0x75, 0x6c, 0x5f, 0x31, 0x00,
  0x02, 0x00, 0x00, 0x00, 0x01, 0x00, 0x00, 0x00, 0x0a, 0x00, 0x00, 0x00,
  0x34, 0xe0, 0xff, 0xff, 0x18, 0x00, 0x00, 0x00, 0x20, 0x00, 0x00, 0x00,
  0x40, 0x00, 0x00, 0x00, 0x4c, 0x00, 0x00, 0x00, 0x00, 0x00, 0x00, 0x09,
  0x44, 0x00, 0x00, 0x00, 0x02, 0x00, 0x00, 0x00, 0xff, 0xff, 0xff, 0xff,
  0x0a, 0x00, 0x00, 0x00, 0x1c, 0xe0, 0xff, 0xff, 0x08, 0x00, 0x00, 0x00,
  0x14, 0x00, 0x00, 0x00, 0x01, 0x00, 0x00, 0x00, 0x00, 0x00, 0x00, 0x00,
  0x00, 0x00, 0x00, 0x00, 0x00, 0x00, 0x00, 0x00, 0x01, 0x00, 0x00, 0x00,
  0x00, 0x00, 0x00, 0x3c, 0x0a, 0x00, 0x00, 0x00, 0x77, 0x68, 0x69, 0x6c,
  0x65, 0x2f, 0x54, 0x61, 0x6e, 0x68, 0x00, 0x00, 0x02, 0x00, 0x00, 0x00,
  0x01, 0x00, 0x00, 0x00, 0x0a, 0x00, 0x00, 0x00, 0x9c, 0xe0, 0xff, 0xff,
  0x18, 0x00, 0x00, 0x00, 0x20, 0x00, 0x00, 0x00, 0x3c, 0x00, 0x00, 0x00,
  0x4b, 0x00, 0x00, 0x00, 0x00, 0x00, 0x00, 0x09, 0x44, 0x00, 0x00, 0x00,
  0x02, 0x00, 0x00, 0x00, 0xff, 0xff, 0xff, 0xff, 0x0a, 0x00, 0x00, 0x00,
  0x84, 0xe0, 0xff, 0xff, 0x08, 0x00, 0x00, 0x00, 0x10, 0x00, 0x00, 0x00,
  0x01, 0x00, 0x00, 0x00, 0x80, 0xff, 0xff, 0xff, 0xff, 0xff, 0xff, 0xff,
  0x01, 0x00, 0x00, 0x00, 0x00, 0x00, 0x80, 0x3b, 0x0f, 0x00, 0x00, 0x00,
  0x77, 0x68, 0x69, 0x6c, 0x65, 0x2f, 0x53, 0x69, 0x67, 0x6d, 0x6f, 0x69,
  0x64, 0x5f, 0x32, 0x00, 0x02, 0x00, 0x00, 0x00, 0x01, 0x00, 0x00, 0x00,
  0x0a, 0x00, 0x00, 0x00, 0x04, 0xe1, 0xff, 0xff, 0x18, 0x00, 0x00, 0x00,
  0x20, 0x00, 0x00, 0x00, 0x40, 0x00, 0x00, 0x00, 0x4a, 0x00, 0x00, 0x00,
  0x00, 0x00, 0x00, 0x09, 0x44, 0x00, 0x00, 0x00, 0x02, 0x00, 0x00, 0x00,
  0xff, 0xff, 0xff, 0xff, 0x0a, 0x00, 0x00, 0x00, 0xec, 0xe0, 0xff, 0xff,
  0x08, 0x00, 0x00, 0x00, 0x14, 0x00, 0x00, 0x00, 0x01, 0x00, 0x00, 0x00,
  0x8c, 0xff, 0xff, 0xff, 0xff, 0xff, 0xff, 0xff, 0x00, 0x00, 0x00, 0x00,
  0x01, 0x00, 0x00, 0x00, 0xd0, 0x51, 0x71, 0x3c, 0x09, 0x00, 0x00, 0x00,
  0x77, 0x68, 0x69, 0x6c, 0x65, 0x2f, 0x6d, 0x75, 0x6c, 0x00, 0x00, 0x00,
  0x02, 0x00, 0x00, 0x00, 0x01, 0x00, 0x00, 0x00, 0x0a, 0x00, 0x00, 0x00,
  0x6c, 0xe1, 0xff, 0xff, 0x18, 0x00, 0x00, 0x00, 0x20, 0x00, 0x00, 0x00,
  0x3c, 0x00, 0x00, 0x00, 0x49, 0x00, 0x00, 0x00, 0x00, 0x00, 0x00, 0x09,
  0x44, 0x00, 0x00, 0x00, 0x02, 0x00, 0x00, 0x00, 0xff, 0xff, 0xff, 0xff,
  0x0a, 0x00, 0x00, 0x00, 0x54, 0xe1, 0xff, 0xff, 0x08, 0x00, 0x00, 0x00,
  0x10, 0x00, 0x00, 0x00, 0x01, 0x00, 0x00, 0x00, 0x80, 0xff, 0xff, 0xff,
  0xff, 0xff, 0xff, 0xff, 0x01, 0x00, 0x00, 0x00, 0x00, 0x00, 0x80, 0x3b,
  0x0f, 0x00, 0x00, 0x00, 0x77, 0x68, 0x69, 0x6c, 0x65, 0x2f, 0x53, 0x69,
  0x67, 0x6d, 0x6f, 0x69, 0x64, 0x5f, 0x31, 0x00, 0x02, 0x00, 0x00, 0x00,
  0x01, 0x00, 0x00, 0x00, 0x0a, 0x00, 0x00, 0x00, 0xd4, 0xe1, 0xff, 0xff,
  0x18, 0x00, 0x00, 0x00, 0x20, 0x00, 0x00, 0x00, 0x3c, 0x00, 0x00, 0x00,
  0x48, 0x00, 0x00, 0x00, 0x00, 0x00, 0x00, 0x09, 0x44, 0x00, 0x00, 0x00,
  0x02, 0x00, 0x00, 0x00, 0xff, 0xff, 0xff, 0xff, 0x0a, 0x00, 0x00, 0x00,
  0xbc, 0xe1, 0xff, 0xff, 0x08, 0x00, 0x00, 0x00, 0x10, 0x00, 0x00, 0x00,
  0x01, 0x00, 0x00, 0x00, 0x80, 0xff, 0xff, 0xff, 0xff, 0xff, 0xff, 0xff,
  0x01, 0x00, 0x00, 0x00, 0x00, 0x00, 0x80, 0x3b, 0x0d, 0x00, 0x00, 0x00,
  0x77, 0x68, 0x69, 0x6c, 0x65, 0x2f, 0x53, 0x69, 0x67, 0x6d, 0x6f, 0x69,
  0x64, 0x00, 0x00, 0x00, 0x02, 0x00, 0x00, 0x00, 0x01, 0x00, 0x00, 0x00,
  0x0a, 0x00, 0x00, 0x00, 0x3c, 0xe2, 0xff, 0xff, 0x18, 0x00, 0x00, 0x00,
  0x20, 0x00, 0x00, 0x00, 0x40, 0x00, 0x00, 0x00, 0x47, 0x00, 0x00, 0x00,
  0x00, 0x00, 0x00, 0x09, 0x6c, 0x00, 0x00, 0x00, 0x02, 0x00, 0x00, 0x00,
  0xff, 0xff, 0xff, 0xff, 0x0a, 0x00, 0x00, 0x00, 0x24, 0xe2, 0xff, 0xff,
  0x08, 0x00, 0x00, 0x00, 0x14, 0x00, 0x00, 0x00, 0x01, 0x00, 0x00, 0x00,
  0xe5, 0xff, 0xff, 0xff, 0xff, 0xff, 0xff, 0xff, 0x00, 0x00, 0x00, 0x00,
  0x01, 0x00, 0x00, 0x00, 0x8d, 0x94, 0x36, 0x3d, 0x33, 0x00, 0x00, 0x00,
  0x77, 0x68, 0x69, 0x6c, 0x65, 0x2f, 0x73, 0x70, 0x6c, 0x69, 0x74, 0x3b,
  0x77, 0x68, 0x69, 0x6c, 0x65, 0x2f, 0x73, 0x70, 0x6c, 0x69, 0x74, 0x31,
  0x3b, 0x77, 0x68, 0x69, 0x6c, 0x65, 0x2f, 0x73, 0x70, 0x6c, 0x69, 0x74,
  0x32, 0x3b, 0x77, 0x68, 0x69, 0x6c, 0x65, 0x2f, 0x73, 0x70, 0x6c, 0x69,
  0x74, 0x33, 0x33, 0x00, 0x02, 0x00, 0x00, 0x00, 0x01, 0x00, 0x00, 0x00,
  0x0a, 0x00, 0x00, 0x00, 0xcc, 0xe2, 0xff, 0xff, 0x18, 0x00, 0x00, 0x00,
  0x20, 0x00, 0x00, 0x00, 0x40, 0x00, 0x00, 0x00, 0x46, 0x00, 0x00, 0x00,
  0x00, 0x00, 0x00, 0x09, 0x6c, 0x00, 0x00, 0x00, 0x02, 0x00, 0x00, 0x00,
  0xff, 0xff, 0xff, 0xff, 0x0a, 0x00, 0x00, 0x00, 0xb4, 0xe2, 0xff, 0xff,
  0x08, 0x00, 0x00, 0x00, 0x14, 0x00, 0x00, 0x00, 0x01, 0x00, 0x00, 0x00,
  0xe5, 0xff, 0xff, 0xff, 0xff, 0xff, 0xff, 0xff, 0x00, 0x00, 0x00, 0x00,
  0x01, 0x00, 0x00, 0x00, 0x8d, 0x94, 0x36, 0x3d, 0x33, 0x00, 0x00, 0x00,
  0x77, 0x68, 0x69, 0x6c, 0x65, 0x2f, 0x73, 0x70, 0x6c, 0x69, 0x74, 0x3b,
  0x77, 0x68, 0x69, 0x6c, 0x65, 0x2f, 0x73, 0x70, 0x6c, 0x69, 0x74, 0x31,
  0x3b, 0x77, 0x68, 0x69, 0x6c, 0x65, 0x2f, 0x73, 0x70, 0x6c, 0x69, 0x74,
  0x32, 0x3b, 0x77, 0x68, 0x69, 0x6c, 0x65, 0x2f, 0x73, 0x70, 0x6c, 0x69,
  0x74, 0x33, 0x32, 0x00, 0x02, 0x00, 0x00, 0x00, 0x01, 0x00, 0x00, 0x00,
  0x0a, 0x00, 0x00, 0x00, 0x5c, 0xe3, 0xff, 0xff, 0x18, 0x00, 0x00, 0x00,
  0x20, 0x00, 0x00, 0x00, 0x40, 0x00, 0x00, 0x00, 0x45, 0x00, 0x00, 0x00,
  0x00, 0x00, 0x00, 0x09, 0x6c, 0x00, 0x00, 0x00, 0x02, 0x00, 0x00, 0x00,
  0xff, 0xff, 0xff, 0xff, 0x0a, 0x00, 0x00, 0x00, 0x44, 0xe3, 0xff, 0xff,
  0x08, 0x00, 0x00, 0x00, 0x14, 0x00, 0x00, 0x00, 0x01, 0x00, 0x00, 0x00,
  0xe5, 0xff, 0xff, 0xff, 0xff, 0xff, 0xff, 0xff, 0x00, 0x00, 0x00, 0x00,
  0x01, 0x00, 0x00, 0x00, 0x8d, 0x94, 0x36, 0x3d, 0x33, 0x00, 0x00, 0x00,
  0x77, 0x68, 0x69, 0x6c, 0x65, 0x2f, 0x73, 0x70, 0x6c, 0x69, 0x74, 0x3b,
  0x77, 0x68, 0x69, 0x6c, 0x65, 0x2f, 0x73, 0x70, 0x6c, 0x69, 0x74, 0x31,
  0x3b, 0x77, 0x68, 0x69, 0x6c, 0x65, 0x2f, 0x73, 0x70, 0x6c, 0x69, 0x74,
  0x32, 0x3b, 0x77, 0x68, 0x69, 0x6c, 0x65, 0x2f, 0x73, 0x70, 0x6c, 0x69,
  0x74, 0x33, 0x31, 0x00, 0x02, 0x00, 0x00, 0x00, 0x01, 0x00, 0x00, 0x00,
  0x0a, 0x00, 0x00, 0x00, 0xec, 0xe3, 0xff, 0xff, 0x18, 0x00, 0x00, 0x00,
  0x20, 0x00, 0x00, 0x00, 0x40, 0x00, 0x00, 0x00, 0x44, 0x00, 0x00, 0x00,
  0x00, 0x00, 0x00, 0x09, 0x6c, 0x00, 0x00, 0x00, 0x02, 0x00, 0x00, 0x00,
  0xff, 0xff, 0xff, 0xff, 0x0a, 0x00, 0x00, 0x00, 0xd4, 0xe3, 0xff, 0xff,
  0x08, 0x00, 0x00, 0x00, 0x14, 0x00, 0x00, 0x00, 0x01, 0x00, 0x00, 0x00,
  0xe5, 0xff, 0xff, 0xff, 0xff, 0xff, 0xff, 0xff, 0x00, 0x00, 0x00, 0x00,
  0x01, 0x00, 0x00, 0x00, 0x8d, 0x94, 0x36, 0x3d, 0x32, 0x00, 0x00, 0x00,
  0x77, 0x68, 0x69, 0x6c, 0x65, 0x2f, 0x73, 0x70, 0x6c, 0x69, 0x74, 0x3b,
  0x77, 0x68, 0x69, 0x6c, 0x65, 0x2f, 0x73, 0x70, 0x6c, 0x69, 0x74, 0x31,
  0x3b, 0x77, 0x68, 0x69, 0x6c, 0x65, 0x2f, 0x73, 0x70, 0x6c, 0x69, 0x74,
  0x32, 0x3b, 0x77, 0x68, 0x69, 0x6c, 0x65, 0x2f, 0x73, 0x70, 0x6c, 0x69,
  0x74, 0x33, 0x00, 0x00, 0x02, 0x00, 0x00, 0x00, 0x01, 0x00, 0x00, 0x00,
  0x0a, 0x00, 0x00, 0x00, 0x7c, 0xe4, 0xff, 0xff, 0x18, 0x00, 0x00, 0x00,
  0x20, 0x00, 0x00, 0x00, 0x3c, 0x00, 0x00, 0x00, 0x43, 0x00, 0x00, 0x00,
  0x00, 0x00, 0x00, 0x09, 0x44, 0x00, 0x00, 0x00, 0x02, 0x00, 0x00, 0x00,
  0xff, 0xff, 0xff, 0xff, 0x28, 0x00, 0x00, 0x00, 0x64, 0xe4, 0xff, 0xff,
  0x08, 0x00, 0x00, 0x00, 0x10, 0x00, 0x00, 0x00, 0x01, 0x00, 0x00, 0x00,
  0xe5, 0xff, 0xff, 0xff, 0xff, 0xff, 0xff, 0xff, 0x01, 0x00, 0x00, 0x00,
  0x8d, 0x94, 0x36, 0x3d, 0x0d, 0x00, 0x00, 0x00, 0x77, 0x68, 0x69, 0x6c,
  0x65, 0x2f, 0x42, 0x69, 0x61, 0x73, 0x41, 0x64, 0x64, 0x00, 0x00, 0x00,
  0x02, 0x00, 0x00, 0x00, 0x01, 0x00, 0x00, 0x00, 0x28, 0x00, 0x00, 0x00,
  0xe4, 0xe4, 0xff, 0xff, 0x18, 0x00, 0x00, 0x00, 0x20, 0x00, 0x00, 0x00,
  0x40, 0x00, 0x00, 0x00, 0x42, 0x00, 0x00, 0x00, 0x00, 0x00, 0x00, 0x09,
  0x44, 0x00, 0x00, 0x00, 0x02, 0x00, 0x00, 0x00, 0xff, 0xff, 0xff, 0xff,
  0x28, 0x00, 0x00, 0x00, 0xcc, 0xe4, 0xff, 0xff, 0x08, 0x00, 0x00, 0x00,
  0x14, 0x00, 0x00, 0x00, 0x01, 0x00, 0x00, 0x00, 0xf7, 0xff, 0xff, 0xff,
  0xff, 0xff, 0xff, 0xff, 0x00, 0x00, 0x00, 0x00, 0x01, 0x00, 0x00, 0x00,
  0xb2, 0xf6, 0x1a, 0x3d, 0x09, 0x00, 0x00, 0x00, 0x77, 0x68, 0x69, 0x6c,
  0x65, 0x2f, 0x61, 0x64, 0x64, 0x00, 0x00, 0x00, 0x02, 0x00, 0x00, 0x00,
  0x01, 0x00, 0x00, 0x00, 0x28, 0x00, 0x00, 0x00, 0x4c, 0xe5, 0xff, 0xff,
  0x18, 0x00, 0x00, 0x00, 0x20, 0x00, 0x00, 0x00, 0x3c, 0x00, 0x00, 0x00,
  0x41, 0x00, 0x00, 0x00, 0x00, 0x00, 0x00, 0x09, 0x44, 0x00, 0x00, 0x00,
  0x02, 0x00, 0x00, 0x00, 0xff, 0xff, 0xff, 0xff, 0x28, 0x00, 0x00, 0x00,
  0x34, 0xe5, 0xff, 0xff, 0x08, 0x00, 0x00, 0x00, 0x10, 0x00, 0x00, 0x00,
  0x01, 0x00, 0x00, 0x00, 0xf8, 0xff, 0xff, 0xff, 0xff, 0xff, 0xff, 0xff,
  0x01, 0x00, 0x00, 0x00, 0x63, 0x2b, 0x15, 0x3d, 0x0d, 0x00, 0x00, 0x00,
  0x77, 0x68, 0x69, 0x6c, 0x65, 0x2f, 0x4d, 0x61, 0x74, 0x4d, 0x75, 0x6c,
  0x32, 0x00, 0x00, 0x00, 0x02, 0x00, 0x00, 0x00, 0x01, 0x00, 0x00, 0x00,
  0x28, 0x00, 0x00, 0x00, 0xb4, 0xe5, 0xff, 0xff, 0x18, 0x00, 0x00, 0x00,
  0x20, 0x00, 0x00, 0x00, 0x40, 0x00, 0x00, 0x00, 0x40, 0x00, 0x00, 0x00,
  0x00, 0x00, 0x00, 0x09, 0x48, 0x00, 0x00, 0x00, 0x02, 0x00, 0x00, 0x00,
  0xff, 0xff, 0xff, 0xff, 0x09, 0x00, 0x00, 0x00, 0x9c, 0xe5, 0xff, 0xff,
  0x08, 0x00, 0x00, 0x00, 0x14, 0x00, 0x00, 0x00, 0x01, 0x00, 0x00, 0x00,
  0x80, 0xff, 0xff, 0xff, 0xff, 0xff, 0xff, 0xff, 0x00, 0x00, 0x00, 0x00,
  0x01, 0x00, 0x00, 0x00, 0x81, 0x80, 0x80, 0x3b, 0x0d, 0x00, 0x00, 0x00,
  0x74, 0x66, 0x6c, 0x2e, 0x71, 0x75, 0x61, 0x6e, 0x74, 0x69, 0x7a, 0x65,
  0x33, 0x00, 0x00, 0x00, 0x02, 0x00, 0x00, 0x00, 0x01, 0x00, 0x00, 0x00,
  0x09, 0x00, 0x00, 0x00, 0xe0, 0xec, 0xff, 0xff, 0x14, 0x00, 0x00, 0x00,
  0x1c, 0x00, 0x00, 0x00, 0x1c, 0x00, 0x00, 0x00, 0x3f, 0x00, 0x00, 0x00,
  0x44, 0x00, 0x00, 0x00, 0x02, 0x00, 0x00, 0x00, 0xff, 0xff, 0xff, 0xff,
  0x09, 0x00, 0x00, 0x00, 0x80, 0xe6, 0xff, 0xff, 0x29, 0x00, 0x00, 0x00,
  0x77, 0x68, 0x69, 0x6c, 0x65, 0x2f, 0x54, 0x65, 0x6e, 0x73, 0x6f, 0x72,
  0x41, 0x72, 0x72, 0x61, 0x79, 0x56, 0x32, 0x52, 0x65, 0x61, 0x64, 0x2f,
  0x54, 0x65, 0x6e, 0x73, 0x6f, 0x72, 0x4c, 0x69, 0x73, 0x74, 0x47, 0x65,
  0x74, 0x49, 0x74, 0x65, 0x6d, 0x00, 0x00, 0x00, 0x02, 0x00, 0x00, 0x00,
  0x01, 0x00, 0x00, 0x00, 0x09, 0x00, 0x00, 0x00, 0x84, 0xe6, 0xff, 0xff,
  0x18, 0x00, 0x00, 0x00, 0x20, 0x00, 0x00, 0x00, 0x3c, 0x00, 0x00, 0x00,
  0x3e, 0x00, 0x00, 0x00, 0x00, 0x00, 0x00, 0x09, 0x44, 0x00, 0x00, 0x00,
  0x02, 0x00, 0x00, 0x00, 0xff, 0xff, 0xff, 0xff, 0x28, 0x00, 0x00, 0x00,
  0x6c, 0xe6, 0xff, 0xff, 0x08, 0x00, 0x00, 0x00, 0x10, 0x00, 0x00, 0x00,
  0x01, 0x00, 0x00, 0x00, 0xf4, 0xff, 0xff, 0xff, 0xff, 0xff, 0xff, 0xff,
  0x01, 0x00, 0x00, 0x00, 0xb0, 0xa1, 0xfa, 0x3b, 0x0f, 0x00, 0x00, 0x00,
  0x77, 0x68, 0x69, 0x6c, 0x65, 0x2f, 0x4d, 0x61, 0x74, 0x4d, 0x75, 0x6c,
  0x5f, 0x31, 0x31, 0x00, 0x02, 0x00, 0x00, 0x00, 0x01, 0x00, 0x00, 0x00,
  0x28, 0x00, 0x00, 0x00, 0x4e, 0xe7, 0xff, 0xff, 0x14, 0x00, 0x00, 0x00,
  0x14, 0x00, 0x00, 0x00, 0x3d, 0x00, 0x00, 0x00, 0x00, 0x00, 0x00, 0x02,
  0x18, 0x00, 0x00, 0x00, 0x40, 0xe7, 0xff, 0xff, 0x0b, 0x00, 0x00, 0x00,
  0x77, 0x68, 0x69, 0x6c, 0x65, 0x2f, 0x61, 0x64, 0x64, 0x5f, 0x32, 0x00,
  0x00, 0x00, 0x00, 0x00, 0x1c, 0xe7, 0xff, 0xff, 0x18, 0x00, 0x00, 0x00,
  0x20, 0x00, 0x00, 0x00, 0x3c, 0x00, 0x00, 0x00, 0x3c, 0x00, 0x00, 0x00,
  0x00, 0x00, 0x00, 0x09, 0x44, 0x00, 0x00, 0x00, 0x02, 0x00, 0x00, 0x00,
  0xff, 0xff, 0xff, 0xff, 0x0a, 0x00, 0x00, 0x00, 0x04, 0xe7, 0xff, 0xff,
  0x08, 0x00, 0x00, 0x00, 0x10, 0x00, 0x00, 0x00, 0x01, 0x00, 0x00, 0x00,
  0xa0, 0xff, 0xff, 0xff, 0xff, 0xff, 0xff, 0xff, 0x01, 0x00, 0x00, 0x00,
  0xe1, 0xfa, 0x83, 0x3c, 0x0d, 0x00, 0x00, 0x00, 0x74, 0x66, 0x6c, 0x2e,
  0x71, 0x75, 0x61, 0x6e, 0x74, 0x69, 0x7a, 0x65, 0x32, 0x00, 0x00, 0x00,
  0x02, 0x00, 0x00, 0x00, 0x01, 0x00, 0x00, 0x00, 0x0a, 0x00, 0x00, 0x00,
  0x84, 0xe7, 0xff, 0xff, 0x18, 0x00, 0x00, 0x00, 0x20, 0x00, 0x00, 0x00,
  0x3c, 0x00, 0x00, 0x00, 0x3b, 0x00, 0x00, 0x00, 0x00, 0x00, 0x00, 0x09,
  0x44, 0x00, 0x00, 0x00, 0x02, 0x00, 0x00, 0x00, 0xff, 0xff, 0xff, 0xff,
  0x0a, 0x00, 0x00, 0x00, 0x6c, 0xe7, 0xff, 0xff, 0x08, 0x00, 0x00, 0x00,
  0x10, 0x00, 0x00, 0x00, 0x01, 0x00, 0x00, 0x00, 0xd8, 0xff, 0xff, 0xff,
  0xff, 0xff, 0xff, 0xff, 0x01, 0x00, 0x00, 0x00, 0x47, 0x21, 0xf9, 0x3a,
  0x0d, 0x00, 0x00, 0x00, 0x74, 0x66, 0x6c, 0x2e, 0x71, 0x75, 0x61, 0x6e,
  0x74, 0x69, 0x7a, 0x65, 0x31, 0x00, 0x00, 0x00, 0x02, 0x00, 0x00, 0x00,
  0x01, 0x00, 0x00, 0x00, 0x0a, 0x00, 0x00, 0x00, 0x4e, 0xe8, 0xff, 0xff,
  0x14, 0x00, 0x00, 0x00, 0x30, 0x00, 0x00, 0x00, 0x3a, 0x00, 0x00, 0x00,
  0x00, 0x00, 0x00, 0x09, 0x54, 0x00, 0x00, 0x00, 0xc4, 0xe7, 0xff, 0xff,
  0x08, 0x00, 0x00, 0x00, 0x10, 0x00, 0x00, 0x00, 0x01, 0x00, 0x00, 0x00,
  0xc4, 0xff, 0xff, 0xff, 0xff, 0xff, 0xff, 0xff, 0x01, 0x00, 0x00, 0x00,
  0x1e, 0x9b, 0x1c, 0x3c, 0x28, 0x00, 0x00, 0x00, 0x73, 0x65, 0x71, 0x75,
  0x65, 0x6e, 0x74, 0x69, 0x61, 0x6c, 0x5f, 0x32, 0x2f, 0x6c, 0x73, 0x74,
  0x6d, 0x2f, 0x52, 0x65, 0x61, 0x64, 0x5f, 0x32, 0x2f, 0x52, 0x65, 0x61,
  0x64, 0x56, 0x61, 0x72, 0x69, 0x61, 0x62, 0x6c, 0x65, 0x4f, 0x70, 0x31,
  0x00, 0x00, 0x00, 0x00, 0x01, 0x00, 0x00, 0x00, 0x28, 0x00, 0x00, 0x00,
  0xbe, 0xe8, 0xff, 0xff, 0x14, 0x00, 0x00, 0x00, 0x30, 0x00, 0x00, 0x00,
  0x39, 0x00, 0x00, 0x00, 0x00, 0x00, 0x00, 0x09, 0x38, 0x00, 0x00, 0x00,
  0x34, 0xe8, 0xff, 0xff, 0x08, 0x00, 0x00, 0x00, 0x10, 0x00, 0x00, 0x00,
  0x01, 0x00, 0x00, 0x00, 0x00, 0x00, 0x00, 0x00, 0x00, 0x00, 0x00, 0x00,
  0x01, 0x00, 0x00, 0x00, 0x5a, 0xd2, 0xdf, 0x3c, 0x0c, 0x00, 0x00, 0x00,
  0x77, 0x68, 0x69, 0x6c, 0x65, 0x2f, 0x4d, 0x61, 0x74, 0x4d, 0x75, 0x6c,
  0x00, 0x00, 0x00, 0x00, 0x02, 0x00, 0x00, 0x00, 0x28, 0x00, 0x00, 0x00,
  0x09, 0x00, 0x00, 0x00, 0x16, 0xe9, 0xff, 0xff, 0x14, 0x00, 0x00, 0x00,
  0x34, 0x00, 0x00, 0x00, 0x38, 0x00, 0x00, 0x00, 0x00, 0x00, 0x00, 0x09,
  0x3c, 0x00, 0x00, 0x00, 0x8c, 0xe8, 0xff, 0xff, 0x08, 0x00, 0x00, 0x00,
  0x14, 0x00, 0x00, 0x00, 0x01, 0x00, 0x00, 0x00, 0x00, 0x00, 0x00, 0x00,
  0x00, 0x00, 0x00, 0x00, 0x00, 0x00, 0x00, 0x00, 0x01, 0x00, 0x00, 0x00,
  0x6e, 0x31, 0xc6, 0x3c, 0x0e, 0x00, 0x00, 0x00, 0x77, 0x68, 0x69, 0x6c,
  0x65, 0x2f, 0x4d, 0x61, 0x74, 0x4d, 0x75, 0x6c, 0x5f, 0x31, 0x00, 0x00,
  0x02, 0x00, 0x00, 0x00, 0x28, 0x00, 0x00, 0x00, 0x0a, 0x00, 0x00, 0x00,
  0x72, 0xe9, 0xff, 0xff, 0x14, 0x00, 0x00, 0x00, 0x14, 0x00, 0x00, 0x00,
  0x37, 0x00, 0x00, 0x00, 0x00, 0x00, 0x00, 0x02, 0x14, 0x00, 0x00, 0x00,
  0x64, 0xe9, 0xff, 0xff, 0x05, 0x00, 0x00, 0x00, 0x74, 0x69, 0x6d, 0x65,
  0x31, 0x00, 0x00, 0x00, 0x00, 0x00, 0x00, 0x00, 0x9e, 0xe9, 0xff, 0xff,
  0x14, 0x00, 0x00, 0x00, 0x14, 0x00, 0x00, 0x00, 0x36, 0x00, 0x00, 0x00,
  0x00, 0x00, 0x00, 0x02, 0x44, 0x00, 0x00, 0x00, 0x90, 0xe9, 0xff, 0xff,
  0x36, 0x00, 0x00, 0x00, 0x54, 0x65, 0x6e, 0x73, 0x6f, 0x72, 0x41, 0x72,
  0x72, 0x61, 0x79, 0x55, 0x6e, 0x73, 0x74, 0x61, 0x63, 0x6b, 0x2f, 0x54,
  0x65, 0x6e, 0x73, 0x6f, 0x72, 0x4c, 0x69, 0x73, 0x74, 0x46, 0x72, 0x6f,
  0x6d, 0x54, 0x65, 0x6e, 0x73, 0x6f, 0x72, 0x2f, 0x65, 0x6c, 0x65, 0x6d,
  0x65, 0x6e, 0x74, 0x5f, 0x73, 0x68, 0x61, 0x70, 0x65, 0x31, 0x00, 0x00,
  0x01, 0x00, 0x00, 0x00, 0x02, 0x00, 0x00, 0x00, 0xfe, 0xe9, 0xff, 0xff,
  0x14, 0x00, 0x00, 0x00, 0x14, 0x00, 0x00, 0x00, 0x35, 0x00, 0x00, 0x00,
  0x00, 0x00, 0x00, 0x02, 0x2c, 0x00, 0x00, 0x00, 0xf0, 0xe9, 0xff, 0xff,
  0x1d, 0x00, 0x00, 0x00, 0x54, 0x65, 0x6e, 0x73, 0x6f, 0x72, 0x41, 0x72,
  0x72, 0x61, 0x79, 0x56, 0x32, 0x5f, 0x31, 0x2f, 0x6e, 0x75, 0x6d, 0x5f,
  0x65, 0x6c, 0x65, 0x6d, 0x65, 0x6e, 0x74, 0x73, 0x31, 0x00, 0x00, 0x00,
  0x00, 0x00, 0x00, 0x00, 0x42, 0xea, 0xff, 0xff, 0x14, 0x00, 0x00, 0x00,
  0x14, 0x00, 0x00, 0x00, 0x34, 0x00, 0x00, 0x00, 0x00, 0x00, 0x00, 0x0e,
  0x14, 0x00, 0x00, 0x00, 0x34, 0xea, 0xff, 0xff, 0x04, 0x00, 0x00, 0x00,
  0x61, 0x72, 0x67, 0x35, 0x00, 0x00, 0x00, 0x00, 0x00, 0x00, 0x00, 0x00,
  0xcc, 0xf0, 0xff, 0xff, 0x14, 0x00, 0x00, 0x00, 0x1c, 0x00, 0x00, 0x00,
  0x1c, 0x00, 0x00, 0x00, 0x33, 0x00, 0x00, 0x00, 0x20, 0x00, 0x00, 0x00,
  0x02, 0x00, 0x00, 0x00, 0xff, 0xff, 0xff, 0xff, 0x0a, 0x00, 0x00, 0x00,
  0x6c, 0xea, 0xff, 0xff, 0x04, 0x00, 0x00, 0x00, 0x61, 0x72, 0x67, 0x34,
  0x00, 0x00, 0x00, 0x00, 0x02, 0x00, 0x00, 0x00, 0x01, 0x00, 0x00, 0x00,
  0x0a, 0x00, 0x00, 0x00, 0x0c, 0xf1, 0xff, 0xff, 0x14, 0x00, 0x00, 0x00,
  0x1c, 0x00, 0x00, 0x00, 0x1c, 0x00, 0x00, 0x00, 0x32, 0x00, 0x00, 0x00,
  0x20, 0x00, 0x00, 0x00, 0x02, 0x00, 0x00, 0x00, 0xff, 0xff, 0xff, 0xff,
  0x0a, 0x00, 0x00, 0x00, 0xac, 0xea, 0xff, 0xff, 0x04, 0x00, 0x00, 0x00,
  0x61, 0x72, 0x67, 0x33, 0x00, 0x00, 0x00, 0x00, 0x02, 0x00, 0x00, 0x00,
  0x01, 0x00, 0x00, 0x00, 0x0a, 0x00, 0x00, 0x00, 0xee, 0xea, 0xff, 0xff,
  0x14, 0x00, 0x00, 0x00, 0x14, 0x00, 0x00, 0x00, 0x31, 0x00, 0x00, 0x00,
  0x00, 0x00, 0x00, 0x0e, 0x14, 0x00, 0x00, 0x00, 0xe0, 0xea, 0xff, 0xff,
  0x04, 0x00, 0x00, 0x00, 0x61, 0x72, 0x67, 0x32, 0x00, 0x00, 0x00, 0x00,
  0x00, 0x00, 0x00, 0x00, 0x1a, 0xeb, 0xff, 0xff, 0x14, 0x00, 0x00, 0x00,
  0x14, 0x00, 0x00, 0x00, 0x30, 0x00, 0x00, 0x00, 0x00, 0x00, 0x00, 0x02,
  0x14, 0x00, 0x00, 0x00, 0x0c, 0xeb, 0xff, 0xff, 0x04, 0x00, 0x00, 0x00,
  0x61, 0x72, 0x67, 0x31, 0x00, 0x00, 0x00, 0x00, 0x00, 0x00, 0x00, 0x00,
  0x46, 0xeb, 0xff, 0xff, 0x14, 0x00, 0x00, 0x00, 0x14, 0x00, 0x00, 0x00,
  0x2f, 0x00, 0x00, 0x00, 0x00, 0x00, 0x00, 0x02, 0x14, 0x00, 0x00, 0x00,
  0x38, 0xeb, 0xff, 0xff, 0x04, 0x00, 0x00, 0x00, 0x61, 0x72, 0x67, 0x30,
  0x00, 0x00, 0x00, 0x00, 0x00, 0x00, 0x00, 0x00, 0xce, 0xfd, 0xff, 0xff,
  0x14, 0x00, 0x00, 0x00, 0x20, 0x00, 0x00, 0x00, 0x48, 0x00, 0x00, 0x00,
  0x4c, 0x00, 0x00, 0x00, 0x64, 0x00, 0x00, 0x00, 0x0a, 0x00, 0x00, 0x00,
  0x77, 0x68, 0x69, 0x6c, 0x65, 0x5f, 0x63, 0x6f, 0x6e, 0x64, 0x00, 0x00,
  0x01, 0x00, 0x00, 0x00, 0x04, 0x00, 0x00, 0x00, 0xfa, 0xf9, 0xff, 0xff,
  0x0c, 0x00, 0x00, 0x00, 0x10, 0x00, 0x00, 0x00, 0x0d, 0x00, 0x00, 0x00,
  0x01, 0x00, 0x00, 0x00, 0x07, 0x00, 0x00, 0x00, 0x02, 0x00, 0x00, 0x00,
  0x01, 0x00, 0x00, 0x00, 0x06, 0x00, 0x00, 0x00, 0x01, 0x00, 0x00, 0x00,
  0x07, 0x00, 0x00, 0x00, 0x06, 0x00, 0x00, 0x00, 0x00, 0x00, 0x00, 0x00,
  0x01, 0x00, 0x00, 0x00, 0x02, 0x00, 0x00, 0x00, 0x03, 0x00, 0x00, 0x00,
  0x04, 0x00, 0x00, 0x00, 0x05, 0x00, 0x00, 0x00, 0x08, 0x00, 0x00, 0x00,
  0x88, 0x01, 0x00, 0x00, 0x58, 0x01, 0x00, 0x00, 0x28, 0x01, 0x00, 0x00,
  0xe4, 0x00, 0x00, 0x00, 0xa0, 0x00, 0x00, 0x00, 0x70, 0x00, 0x00, 0x00,
  0x38, 0x00, 0x00, 0x00, 0x04, 0x00, 0x00, 0x00, 0x0e, 0xec, 0xff, 0xff,
  0x14, 0x00, 0x00, 0x00, 0x14, 0x00, 0x00, 0x00, 0x2e, 0x00, 0x00, 0x00,
  0x00, 0x00, 0x00, 0x06, 0x18, 0x00, 0x00, 0x00, 0x00, 0xec, 0xff, 0xff,
  0x0a, 0x00, 0x00, 0x00, 0x77, 0x68, 0x69, 0x6c, 0x65, 0x2f, 0x4c, 0x65,
  0x73, 0x73, 0x00, 0x00, 0x00, 0x00, 0x00, 0x00, 0x3e, 0xec, 0xff, 0xff,
  0x14, 0x00, 0x00, 0x00, 0x14, 0x00, 0x00, 0x00, 0x2d, 0x00, 0x00, 0x00,
  0x00, 0x00, 0x00, 0x02, 0x1c, 0x00, 0x00, 0x00, 0x30, 0xec, 0xff, 0xff,
  0x0e, 0x00, 0x00, 0x00, 0x73, 0x74, 0x72, 0x69, 0x64, 0x65, 0x64, 0x5f,
  0x73, 0x6c, 0x69, 0x63, 0x65, 0x31, 0x00, 0x00, 0x00, 0x00, 0x00, 0x00,
  0x72, 0xec, 0xff, 0xff, 0x14, 0x00, 0x00, 0x00, 0x14, 0x00, 0x00, 0x00,
  0x2c, 0x00, 0x00, 0x00, 0x00, 0x00, 0x00, 0x0e, 0x14, 0x00, 0x00, 0x00,
  0x64, 0xec, 0xff, 0xff, 0x04, 0x00, 0x00, 0x00, 0x61, 0x72, 0x67, 0x35,
  0x00, 0x00, 0x00, 0x00, 0x00, 0x00, 0x00, 0x00, 0xfc, 0xf2, 0xff, 0xff,
  0x14, 0x00, 0x00, 0x00, 0x1c, 0x00, 0x00, 0x00, 0x1c, 0x00, 0x00, 0x00,
  0x2b, 0x00, 0x00, 0x00, 0x20, 0x00, 0x00, 0x00, 0x02, 0x00, 0x00, 0x00,
  0xff, 0xff, 0xff, 0xff, 0x0a, 0x00, 0x00, 0x00, 0x9c, 0xec, 0xff, 0xff,
  0x04, 0x00, 0x00, 0x00, 0x61, 0x72, 0x67, 0x34, 0x00, 0x00, 0x00, 0x00,
  0x02, 0x00, 0x00, 0x00, 0x01, 0x00, 0x00, 0x00, 0x0a, 0x00, 0x00, 0x00,
  0x3c, 0xf3, 0xff, 0xff, 0x14, 0x00, 0x00, 0x00, 0x1c, 0x00, 0x00, 0x00,
  0x1c, 0x00, 0x00, 0x00, 0x2a, 0x00, 0x00, 0x00, 0x20, 0x00, 0x00, 0x00,
  0x02, 0x00, 0x00, 0x00, 0xff, 0xff, 0xff, 0xff, 0x0a, 0x00, 0x00, 0x00,
  0xdc, 0xec, 0xff, 0xff, 0x04, 0x00, 0x00, 0x00, 0x61, 0x72, 0x67, 0x33,
  0x00, 0x00, 0x00, 0x00, 0x02, 0x00, 0x00, 0x00, 0x01, 0x00, 0x00, 0x00,
  0x0a, 0x00, 0x00, 0x00, 0x1e, 0xed, 0xff, 0xff, 0x14, 0x00, 0x00, 0x00,
  0x14, 0x00, 0x00, 0x00, 0x29, 0x00, 0x00, 0x00, 0x00, 0x00, 0x00, 0x0e,
  0x14, 0x00, 0x00, 0x00, 0x10, 0xed, 0xff, 0xff, 0x04, 0x00, 0x00, 0x00,
  0x61, 0x72, 0x67, 0x32, 0x00, 0x00, 0x00, 0x00, 0x00, 0x00, 0x00, 0x00,
  0x4a, 0xed, 0xff, 0xff, 0x14, 0x00, 0x00, 0x00, 0x14, 0x00, 0x00, 0x00,
  0x28, 0x00, 0x00, 0x00, 0x00, 0x00, 0x00, 0x02, 0x14, 0x00, 0x00, 0x00,
  0x3c, 0xed, 0xff, 0xff, 0x04, 0x00, 0x00, 0x00, 0x61, 0x72, 0x67, 0x31,
  0x00, 0x00, 0x00, 0x00, 0x00, 0x00, 0x00, 0x00, 0x76, 0xed, 0xff, 0xff,
  0x14, 0x00, 0x00, 0x00, 0x14, 0x00, 0x00, 0x00, 0x27, 0x00, 0x00, 0x00,
  0x00, 0x00, 0x00, 0x02, 0x14, 0x00, 0x00, 0x00, 0x68, 0xed, 0xff, 0xff,
  0x04, 0x00, 0x00, 0x00, 0x61, 0x72, 0x67, 0x30, 0x00, 0x00, 0x00, 0x00,
  0x00, 0x00, 0x00, 0x00, 0x00, 0x00, 0x0e, 0x00, 0x18, 0x00, 0x14, 0x00,
  0x10, 0x00, 0x0c, 0x00, 0x08, 0x00, 0x04, 0x00, 0x0e, 0x00, 0x00, 0x00,
  0x14, 0x00, 0x00, 0x00, 0x1c, 0x00, 0x00, 0x00, 0xf4, 0x04, 0x00, 0x00,
  0xf8, 0x04, 0x00, 0x00, 0xfc, 0x04, 0x00, 0x00, 0x04, 0x00, 0x00, 0x00,
  0x6d, 0x61, 0x69, 0x6e, 0x00, 0x00, 0x00, 0x00, 0x10, 0x00, 0x00, 0x00,
  0xa4, 0x04, 0x00, 0x00, 0x44, 0x04, 0x00, 0x00, 0xf4, 0x03, 0x00, 0x00,
  0xcc, 0x03, 0x00, 0x00, 0x9c, 0x03, 0x00, 0x00, 0x0c, 0x03, 0x00, 0x00,
  0xd4, 0x02, 0x00, 0x00, 0xb0, 0x02, 0x00, 0x00, 0x1c, 0x02, 0x00, 0x00,
  0xb4, 0x01, 0x00, 0x00, 0x28, 0x01, 0x00, 0x00, 0x04, 0x01, 0x00, 0x00,
  0xac, 0x00, 0x00, 0x00, 0x70, 0x00, 0x00, 0x00, 0x38, 0x00, 0x00, 0x00,
  0x04, 0x00, 0x00, 0x00, 0x06, 0xfc, 0xff, 0xff, 0x14, 0x00, 0x00, 0x00,
  0x00, 0x00, 0x00, 0x09, 0x14, 0x00, 0x00, 0x00, 0x18, 0x00, 0x00, 0x00,
  0x0c, 0x00, 0x00, 0x00, 0x42, 0xfc, 0xff, 0xff, 0x00, 0x00, 0x80, 0x3f,
  0x01, 0x00, 0x00, 0x00, 0x25, 0x00, 0x00, 0x00, 0x01, 0x00, 0x00, 0x00,
  0x24, 0x00, 0x00, 0x00, 0x36, 0xfc, 0xff, 0xff, 0x14, 0x00, 0x00, 0x00,
  0x00, 0x00, 0x00, 0x08, 0x10, 0x00, 0x00, 0x00, 0x14, 0x00, 0x00, 0x00,
  0x0b, 0x00, 0x00, 0x00, 0x3c, 0xee, 0xff, 0xff, 0x01, 0x00, 0x00, 0x00,
  0x24, 0x00, 0x00, 0x00, 0x03, 0x00, 0x00, 0x00, 0x23, 0x00, 0x00, 0x00,
  0x0f, 0x00, 0x00, 0x00, 0x10, 0x00, 0x00, 0x00, 0x6a, 0xfc, 0xff, 0xff,
  0x14, 0x00, 0x00, 0x00, 0x00, 0x00, 0x00, 0x08, 0x14, 0x00, 0x00, 0x00,
  0x18, 0x00, 0x00, 0x00, 0x0b, 0x00, 0x00, 0x00, 0x02, 0xfc, 0xff, 0xff,
  0x00, 0x00, 0x00, 0x01, 0x01, 0x00, 0x00, 0x00, 0x23, 0x00, 0x00, 0x00,
  0x03, 0x00, 0x00, 0x00, 0x22, 0x00, 0x00, 0x00, 0x0d, 0x00, 0x00, 0x00,
  0x0e, 0x00, 0x00, 0x00, 0xa2, 0xfc, 0xff, 0xff, 0x24, 0x00, 0x00, 0x00,
  0x00, 0x00, 0x00, 0x20, 0x2c, 0x00, 0x00, 0x00, 0x30, 0x00, 0x00, 0x00,
  0x01, 0x00, 0x00, 0x00, 0x00, 0x00, 0x0e, 0x00, 0x10, 0x00, 0x0c, 0x00,
  0x08, 0x00, 0x00, 0x00, 0x00, 0x00, 0x04, 0x00, 0x0e, 0x00, 0x00, 0x00,
  0x01, 0x00, 0x00, 0x00, 0x06, 0x00, 0x00, 0x00, 0x06, 0x00, 0x00, 0x00,
  0x01, 0x00, 0x00, 0x00, 0x22, 0x00, 0x00, 0x00, 0x04, 0x00, 0x00, 0x00,
  0x21, 0x00, 0x00, 0x00, 0x09, 0x00, 0x00, 0x00, 0x0a, 0x00, 0x00, 0x00,
  0x0b, 0x00, 0x00, 0x00, 0x62, 0xfd, 0xff, 0xff, 0x0c, 0x00, 0x00, 0x00,
  0x10, 0x00, 0x00, 0x00, 0x0a, 0x00, 0x00, 0x00, 0x01, 0x00, 0x00, 0x00,
  0x21, 0x00, 0x00, 0x00, 0x01, 0x00, 0x00, 0x00, 0x20, 0x00, 0x00, 0x00,
  0x40, 0xfe, 0xff, 0xff, 0x10, 0x00, 0x00, 0x00, 0x6c, 0x00, 0x00, 0x00,
  0x70, 0x00, 0x00, 0x00, 0x09, 0x00, 0x00, 0x00, 0x5b, 0x00, 0x00, 0x00,
  0x0f, 0x54, 0x65, 0x6e, 0x73, 0x6f, 0x72, 0x4c, 0x69, 0x73, 0x74, 0x53,
  0x74, 0x61, 0x63, 0x6b, 0x00, 0x40, 0x12, 0x0f, 0x54, 0x65, 0x6e, 0x73,
  0x6f, 0x72, 0x4c, 0x69, 0x73, 0x74, 0x53, 0x74, 0x61, 0x63, 0x6b, 0x1a,
  0x00, 0x1a, 0x00, 0x2a, 0x12, 0x0a, 0x0c, 0x6e, 0x75, 0x6d, 0x5f, 0x65,
  0x6c, 0x65, 0x6d, 0x65, 0x6e, 0x74, 0x73, 0x12, 0x02, 0x18, 0x01, 0x2a,
  0x13, 0x0a, 0x0d, 0x65, 0x6c, 0x65, 0x6d, 0x65, 0x6e, 0x74, 0x5f, 0x64,
  0x74, 0x79, 0x70, 0x65, 0x12, 0x02, 0x30, 0x01, 0x32, 0x00, 0x00, 0x02,
  0x53, 0x43, 0x14, 0x14, 0x04, 0x28, 0x01, 0x00, 0x01, 0x00, 0x00, 0x00,
  0x20, 0x00, 0x00, 0x00, 0x02, 0x00, 0x00, 0x00, 0x1c, 0x00, 0x00, 0x00,
  0x04, 0x00, 0x00, 0x00, 0x9e, 0xfd, 0xff, 0xff, 0x1c, 0x00, 0x00, 0x00,
  0x00, 0x00, 0x00, 0x5d, 0x20, 0x00, 0x00, 0x00, 0x38, 0x00, 0x00, 0x00,
  0x08, 0x00, 0x00, 0x00, 0x08, 0x00, 0x0c, 0x00, 0x08, 0x00, 0x04, 0x00,
  0x08, 0x00, 0x00, 0x00, 0x02, 0x00, 0x00, 0x00, 0x01, 0x00, 0x00, 0x00,
  0x06, 0x00, 0x00, 0x00, 0x1a, 0x00, 0x00, 0x00, 0x1b, 0x00, 0x00, 0x00,
  0x1c, 0x00, 0x00, 0x00, 0x1d, 0x00, 0x00, 0x00, 0x1e, 0x00, 0x00, 0x00,
  0x1f, 0x00, 0x00, 0x00, 0x06, 0x00, 0x00, 0x00, 0x08, 0x00, 0x00, 0x00,
  0x08, 0x00, 0x00, 0x00, 0x16, 0x00, 0x00, 0x00, 0x15, 0x00, 0x00, 0x00,
  0x15, 0x00, 0x00, 0x00, 0x19, 0x00, 0x00, 0x00, 0x2c, 0xff, 0xff, 0xff,
  0x10, 0x00, 0x00, 0x00, 0x74, 0x00, 0x00, 0x00, 0x78, 0x00, 0x00, 0x00,
  0x07, 0x00, 0x00, 0x00, 0x63, 0x00, 0x00, 0x00, 0x14, 0x54, 0x65, 0x6e,
  0x73, 0x6f, 0x72, 0x4c, 0x69, 0x73, 0x74, 0x46, 0x72, 0x6f, 0x6d, 0x54,
  0x65, 0x6e, 0x73, 0x6f, 0x72, 0x00, 0x43, 0x12, 0x14, 0x54, 0x65, 0x6e,
  0x73, 0x6f, 0x72, 0x4c, 0x69, 0x73, 0x74, 0x46, 0x72, 0x6f, 0x6d, 0x54,
  0x65, 0x6e, 0x73, 0x6f, 0x72, 0x1a, 0x00, 0x1a, 0x00, 0x2a, 0x10, 0x0a,
  0x0a, 0x73, 0x68, 0x61, 0x70, 0x65, 0x5f, 0x74, 0x79, 0x70, 0x65, 0x12,
  0x02, 0x30, 0x03, 0x2a, 0x13, 0x0a, 0x0d, 0x65, 0x6c, 0x65, 0x6d, 0x65,
  0x6e, 0x74, 0x5f, 0x64, 0x74, 0x79, 0x70, 0x65, 0x12, 0x02, 0x30, 0x01,
  0x32, 0x00, 0x00, 0x02, 0x5b, 0x46, 0x14, 0x14, 0x04, 0x28, 0x01, 0x00,
  0x01, 0x00, 0x00, 0x00, 0x19, 0x00, 0x00, 0x00, 0x02, 0x00, 0x00, 0x00,
  0x18, 0x00, 0x00, 0x00, 0x07, 0x00, 0x00, 0x00, 0xfe, 0xfe, 0xff, 0xff,
  0x0c, 0x00, 0x00, 0x00, 0x10, 0x00, 0x00, 0x00, 0x04, 0x00, 0x00, 0x00,
  0x01, 0x00, 0x00, 0x00, 0x18, 0x00, 0x00, 0x00, 0x01, 0x00, 0x00, 0x00,
  0x17, 0x00, 0x00, 0x00, 0x1e, 0xff, 0xff, 0xff, 0x0c, 0x00, 0x00, 0x00,
  0x10, 0x00, 0x00, 0x00, 0x06, 0x00, 0x00, 0x00, 0x01, 0x00, 0x00, 0x00,
  0x17, 0x00, 0x00, 0x00, 0x02, 0x00, 0x00, 0x00, 0x00, 0x00, 0x00, 0x00,
  0x06, 0x00, 0x00, 0x00, 0x10, 0x00, 0x14, 0x00, 0x10, 0x00, 0x0c, 0x00,
  0x08, 0x00, 0x00, 0x00, 0x00, 0x00, 0x04, 0x00, 0x10, 0x00, 0x00, 0x00,
  0x10, 0x00, 0x00, 0x00, 0x70, 0x00, 0x00, 0x00, 0x74, 0x00, 0x00, 0x00,
  0x05, 0x00, 0x00, 0x00, 0x5d, 0x00, 0x00, 0x00, 0x11, 0x54, 0x65, 0x6e,
  0x73, 0x6f, 0x72, 0x4c, 0x69, 0x73, 0x74, 0x52, 0x65, 0x73, 0x65, 0x72,
  0x76, 0x65, 0x00, 0x40, 0x12, 0x11, 0x54, 0x65, 0x6e, 0x73, 0x6f, 0x72,
  0x4c, 0x69, 0x73, 0x74, 0x52, 0x65, 0x73, 0x65, 0x72, 0x76, 0x65, 0x1a,
  0x00, 0x1a, 0x00, 0x2a, 0x10, 0x0a, 0x0a, 0x73, 0x68, 0x61, 0x70, 0x65,
  0x5f, 0x74, 0x79, 0x70, 0x65, 0x12, 0x02, 0x30, 0x03, 0x2a, 0x13, 0x0a,
  0x0d, 0x65, 0x6c, 0x65, 0x6d, 0x65, 0x6e, 0x74, 0x5f, 0x64, 0x74, 0x79,
  0x70, 0x65, 0x12, 0x02, 0x30, 0x01, 0x32, 0x00, 0x00, 0x02, 0x55, 0x43,
  0x14, 0x14, 0x04, 0x28, 0x01, 0x00, 0x00, 0x00, 0x01, 0x00, 0x00, 0x00,
  0x16, 0x00, 0x00, 0x00, 0x02, 0x00, 0x00, 0x00, 0x04, 0x00, 0x00, 0x00,
  0x05, 0x00, 0x00, 0x00, 0xde, 0xff, 0xff, 0xff, 0x0c, 0x00, 0x00, 0x00,
  0x10, 0x00, 0x00, 0x00, 0x04, 0x00, 0x00, 0x00, 0x01, 0x00, 0x00, 0x00,
  0x15, 0x00, 0x00, 0x00, 0x01, 0x00, 0x00, 0x00, 0x14, 0x00, 0x00, 0x00,
  0x00, 0x00, 0x0a, 0x00, 0x10, 0x00, 0x0c, 0x00, 0x08, 0x00, 0x04, 0x00,
  0x0a, 0x00, 0x00, 0x00, 0x0c, 0x00, 0x00, 0x00, 0x10, 0x00, 0x00, 0x00,
  0x03, 0x00, 0x00, 0x00, 0x01, 0x00, 0x00, 0x00, 0x14, 0x00, 0x00, 0x00,
  0x02, 0x00, 0x00, 0x00, 0x13, 0x00, 0x00, 0x00, 0x0c, 0x00, 0x00, 0x00,
  0xc2, 0xff, 0xff, 0xff, 0x1c, 0x00, 0x00, 0x00, 0x00, 0x00, 0x00, 0x3b,
  0x1c, 0x00, 0x00, 0x00, 0x20, 0x00, 0x00, 0x00, 0x02, 0x00, 0x00, 0x00,
  0x00, 0x00, 0x06, 0x00, 0x08, 0x00, 0x04, 0x00, 0x06, 0x00, 0x00, 0x00,
  0x02, 0x00, 0x00, 0x00, 0x01, 0x00, 0x00, 0x00, 0x13, 0x00, 0x00, 0x00,
  0x02, 0x00, 0x00, 0x00, 0x12, 0x00, 0x00, 0x00, 0x03, 0x00, 0x00, 0x00,
  0x00, 0x00, 0x0e, 0x00, 0x1a, 0x00, 0x14, 0x00, 0x10, 0x00, 0x0c, 0x00,
  0x0b, 0x00, 0x04, 0x00, 0x0e, 0x00, 0x00, 0x00, 0x24, 0x00, 0x00, 0x00,
  0x00, 0x00, 0x00, 0x20, 0x24, 0x00, 0x00, 0x00, 0x28, 0x00, 0x00, 0x00,
  0x01, 0x00, 0x00, 0x00, 0x00, 0x00, 0x0e, 0x00, 0x08, 0x00, 0x00, 0x00,
  0x00, 0x00, 0x00, 0x00, 0x00, 0x00, 0x04, 0x00, 0x0e, 0x00, 0x00, 0x00,
  0x01, 0x00, 0x00, 0x00, 0x01, 0x00, 0x00, 0x00, 0x12, 0x00, 0x00, 0x00,
  0x04, 0x00, 0x00, 0x00, 0x11, 0x00, 0x00, 0x00, 0x01, 0x00, 0x00, 0x00,
  0x02, 0x00, 0x00, 0x00, 0x02, 0x00, 0x00, 0x00, 0x00, 0x00, 0x0e, 0x00,
  0x16, 0x00, 0x00, 0x00, 0x10, 0x00, 0x0c, 0x00, 0x0b, 0x00, 0x04, 0x00,
  0x0e, 0x00, 0x00, 0x00, 0x18, 0x00, 0x00, 0x00, 0x00, 0x00, 0x00, 0x37,
  0x18, 0x00, 0x00, 0x00, 0x1c, 0x00, 0x00, 0x00, 0x00, 0x00, 0x06, 0x00,
  0x08, 0x00, 0x07, 0x00, 0x06, 0x00, 0x00, 0x00, 0x00, 0x00, 0x00, 0x02,
  0x01, 0x00, 0x00, 0x00, 0x11, 0x00, 0x00, 0x00, 0x01, 0x00, 0x00, 0x00,
  0x00, 0x00, 0x00, 0x00, 0x01, 0x00, 0x00, 0x00, 0x25, 0x00, 0x00, 0x00,
  0x01, 0x00, 0x00, 0x00, 0x00, 0x00, 0x00, 0x00, 0x26, 0x00, 0x00, 0x00,
  0xb0, 0x0d, 0x00, 0x00, 0x44, 0x0d, 0x00, 0x00, 0xe0, 0x0c, 0x00, 0x00,
  0x94, 0x0c, 0x00, 0x00, 0x34, 0x0c, 0x00, 0x00, 0xec, 0x0b, 0x00, 0x00,
  0xb0, 0x0b, 0x00, 0x00, 0x4c, 0x0b, 0x00, 0x00, 0x1c, 0x0b, 0x00, 0x00,
  0xe0, 0x0a, 0x00, 0x00, 0xa0, 0x0a, 0x00, 0x00, 0x60, 0x0a, 0x00, 0x00,
  0xf8, 0x09, 0x00, 0x00, 0x8c, 0x09, 0x00, 0x00, 0x18, 0x09, 0x00, 0x00,
  0xac, 0x08, 0x00, 0x00, 0x38, 0x08, 0x00, 0x00, 0xf4, 0x07, 0x00, 0x00,
  0xac, 0x07, 0x00, 0x00, 0x60, 0x07, 0x00, 0x00, 0xe8, 0x06, 0x00, 0x00,
  0x9c, 0x06, 0x00, 0x00, 0x50, 0x06, 0x00, 0x00, 0xe0, 0x05, 0x00, 0x00,
  0x90, 0x05, 0x00, 0x00, 0x40, 0x05, 0x00, 0x00, 0xec, 0x04, 0x00, 0x00,
  0x98, 0x04, 0x00, 0x00, 0x44, 0x04, 0x00, 0x00, 0xdc, 0x03, 0x00, 0x00,
  0x74, 0x03, 0x00, 0x00, 0x20, 0x03, 0x00, 0x00, 0xb8, 0x02, 0x00, 0x00,
  0x40, 0x02, 0x00, 0x00, 0xd0, 0x01, 0x00, 0x00, 0x1c, 0x01, 0x00, 0x00,
  0x80, 0x00, 0x00, 0x00, 0x04, 0x00, 0x00, 0x00, 0xfc, 0xf2, 0xff, 0xff,
  0x18, 0x00, 0x00, 0x00, 0x20, 0x00, 0x00, 0x00, 0x40, 0x00, 0x00, 0x00,
  0x26, 0x00, 0x00, 0x00, 0x00, 0x00, 0x00, 0x09, 0x54, 0x00, 0x00, 0x00,
  0x02, 0x00, 0x00, 0x00, 0xff, 0xff, 0xff, 0xff, 0x04, 0x00, 0x00, 0x00,
  0xe4, 0xf2, 0xff, 0xff, 0x08, 0x00, 0x00, 0x00, 0x14, 0x00, 0x00, 0x00,
  0x01, 0x00, 0x00, 0x00, 0x80, 0xff, 0xff, 0xff, 0xff, 0xff, 0xff, 0xff,
  0x00, 0x00, 0x00, 0x00, 0x01, 0x00, 0x00, 0x00, 0x00, 0x00, 0x80, 0x3b,
  0x19, 0x00, 0x00, 0x00, 0x53, 0x74, 0x61, 0x74, 0x65, 0x66, 0x75, 0x6c,
  0x50, 0x61, 0x72, 0x74, 0x69, 0x74, 0x69, 0x6f, 0x6e, 0x65, 0x64, 0x43,
  0x61, 0x6c, 0x6c, 0x3a, 0x30, 0x00, 0x00, 0x00, 0x02, 0x00, 0x00, 0x00,
  0x01, 0x00, 0x00, 0x00, 0x04, 0x00, 0x00, 0x00, 0x74, 0xf3, 0xff, 0xff,
  0x18, 0x00, 0x00, 0x00, 0x20, 0x00, 0x00, 0x00, 0x40, 0x00, 0x00, 0x00,
  0x25, 0x00, 0x00, 0x00, 0x00, 0x00, 0x00, 0x09, 0x74, 0x00, 0x00, 0x00,
  0x02, 0x00, 0x00, 0x00, 0xff, 0xff, 0xff, 0xff, 0x04, 0x00, 0x00, 0x00,
  0x5c, 0xf3, 0xff, 0xff, 0x08, 0x00, 0x00, 0x00, 0x14, 0x00, 0x00, 0x00,
  0x01, 0x00, 0x00, 0x00, 0x78, 0x00, 0x00, 0x00, 0x00, 0x00, 0x00, 0x00,
  0x00, 0x00, 0x00, 0x00, 0x01, 0x00, 0x00, 0x00, 0xff, 0xb5, 0xf9, 0x3c,
  0x38, 0x00, 0x00, 0x00, 0x73, 0x65, 0x71, 0x75, 0x65, 0x6e, 0x74, 0x69,
  0x61, 0x6c, 0x5f, 0x32, 0x2f, 0x64, 0x65, 0x6e, 0x73, 0x65, 0x5f, 0x32,
  0x2f, 0x4d, 0x61, 0x74, 0x4d, 0x75, 0x6c, 0x3b, 0x73, 0x65, 0x71, 0x75,
  0x65, 0x6e, 0x74, 0x69, 0x61, 0x6c, 0x5f, 0x32, 0x2f, 0x64, 0x65, 0x6e,
  0x73, 0x65, 0x5f, 0x32, 0x2f, 0x42, 0x69, 0x61, 0x73, 0x41, 0x64, 0x64,
  0x00, 0x00, 0x00, 0x00, 0x02, 0x00, 0x00, 0x00, 0x01, 0x00, 0x00, 0x00,
  0x04, 0x00, 0x00, 0x00, 0x0c, 0xf4, 0xff, 0xff, 0x18, 0x00, 0x00, 0x00,
  0x20, 0x00, 0x00, 0x00, 0x40, 0x00, 0x00, 0x00, 0x24, 0x00, 0x00, 0x00,
  0x00, 0x00, 0x00, 0x09, 0x8c, 0x00, 0x00, 0x00, 0x02, 0x00, 0x00, 0x00,
  0xff, 0xff, 0xff, 0xff, 0x64, 0x00, 0x00, 0x00, 0xf4, 0xf3, 0xff, 0xff,
  0x08, 0x00, 0x00, 0x00, 0x14, 0x00, 0x00, 0x00, 0x01, 0x00, 0x00, 0x00,
  0x80, 0xff, 0xff, 0xff, 0xff, 0xff, 0xff, 0xff, 0x00, 0x00, 0x00, 0x00,
  0x01, 0x00, 0x00, 0x00, 0xf1, 0xb4, 0x3e, 0x3b, 0x52, 0x00, 0x00, 0x00,
  0x73, 0x65, 0x71, 0x75, 0x65, 0x6e, 0x74, 0x69, 0x61, 0x6c, 0x5f, 0x32,
  0x2f, 0x64, 0x65, 0x6e, 0x73, 0x65, 0x5f, 0x31, 0x2f, 0x4d, 0x61, 0x74,
  0x4d, 0x75, 0x6c, 0x3b, 0x73, 0x65, 0x71, 0x75, 0x65, 0x6e, 0x74, 0x69,
  0x61, 0x6c, 0x5f, 0x32, 0x2f, 0x64, 0x65, 0x6e, 0x73, 0x65, 0x5f, 0x31,
  0x2f, 0x52, 0x65, 0x6c, 0x75, 0x3b, 0x73, 0x65, 0x71, 0x75, 0x65, 0x6e,
  0x74, 0x69, 0x61, 0x6c, 0x5f, 0x32, 0x2f, 0x64, 0x65, 0x6e, 0x73, 0x65,
  0x5f, 0x31, 0x2f, 0x42, 0x69, 0x61, 0x73, 0x41, 0x64, 0x64, 0x00, 0x00,
  0x02, 0x00, 0x00, 0x00, 0x01, 0x00, 0x00, 0x00, 0x64, 0x00, 0x00, 0x00,
  0xbc, 0xf4, 0xff, 0xff, 0x18, 0x00, 0x00, 0x00, 0x20, 0x00, 0x00, 0x00,
  0x3c, 0x00, 0x00, 0x00, 0x23, 0x00, 0x00, 0x00, 0x00, 0x00, 0x00, 0x09,
  0x48, 0x00, 0x00, 0x00, 0x02, 0x00, 0x00, 0x00, 0xff, 0xff, 0xff, 0xff,
  0x0a, 0x00, 0x00, 0x00, 0xa4, 0xf4, 0xff, 0xff, 0x08, 0x00, 0x00, 0x00,
  0x10, 0x00, 0x00, 0x00, 0x01, 0x00, 0x00, 0x00, 0xcb, 0xff, 0xff, 0xff,
  0xff, 0xff, 0xff, 0xff, 0x01, 0x00, 0x00, 0x00, 0xa4, 0xb5, 0x95, 0x3a,
  0x10, 0x00, 0x00, 0x00, 0x73, 0x74, 0x72, 0x69, 0x64, 0x65, 0x64, 0x5f,
  0x73, 0x6c, 0x69, 0x63, 0x65, 0x5f, 0x32, 0x33, 0x00, 0x00, 0x00, 0x00,
  0x02, 0x00, 0x00, 0x00, 0x01, 0x00, 0x00, 0x00, 0x0a, 0x00, 0x00, 0x00,
  0x28, 0xf5, 0xff, 0xff, 0x18, 0x00, 0x00, 0x00, 0x24, 0x00, 0x00, 0x00,
  0x44, 0x00, 0x00, 0x00, 0x22, 0x00, 0x00, 0x00, 0x00, 0x00, 0x00, 0x09,
  0x4c, 0x00, 0x00, 0x00, 0x03, 0x00, 0x00, 0x00, 0x01, 0x00, 0x00, 0x00,
  0xff, 0xff, 0xff, 0xff, 0x0a, 0x00, 0x00, 0x00, 0x14, 0xf5, 0xff, 0xff,
  0x08, 0x00, 0x00, 0x00, 0x14, 0x00, 0x00, 0x00, 0x01, 0x00, 0x00, 0x00,
  0xcb, 0xff, 0xff, 0xff, 0xff, 0xff, 0xff, 0xff, 0x00, 0x00, 0x00, 0x00,
  0x01, 0x00, 0x00, 0x00, 0xa4, 0xb5, 0x95, 0x3a, 0x0c, 0x00, 0x00, 0x00,
  0x74, 0x66, 0x6c, 0x2e, 0x71, 0x75, 0x61, 0x6e, 0x74, 0x69, 0x7a, 0x65,
  0x00, 0x00, 0x00, 0x00, 0x03, 0x00, 0x00, 0x00, 0x01, 0x00, 0x00, 0x00,
  0x01, 0x00, 0x00, 0x00, 0x0a, 0x00, 0x00, 0x00, 0x5c, 0xfc, 0xff, 0xff,
  0x14, 0x00, 0x00, 0x00, 0x20, 0x00, 0x00, 0x00, 0x20, 0x00, 0x00, 0x00,
  0x21, 0x00, 0x00, 0x00, 0x40, 0x00, 0x00, 0x00, 0x03, 0x00, 0x00, 0x00,
  0x01, 0x00, 0x00, 0x00, 0xff, 0xff, 0xff, 0xff, 0x0a, 0x00, 0x00, 0x00,
  0x00, 0xf6, 0xff, 0xff, 0x22, 0x00, 0x00, 0x00, 0x54, 0x65, 0x6e, 0x73,
  0x6f, 0x72, 0x41, 0x72, 0x72, 0x61, 0x79, 0x56, 0x32, 0x53, 0x74, 0x61,
  0x63, 0x6b, 0x2f, 0x54, 0x65, 0x6e, 0x73, 0x6f, 0x72, 0x4c, 0x69, 0x73,
  0x74, 0x53, 0x74, 0x61, 0x63, 0x6b, 0x00, 0x00, 0x03, 0x00, 0x00, 0x00,
  0x01, 0x00, 0x00, 0x00, 0x01, 0x00, 0x00, 0x00, 0x0a, 0x00, 0x00, 0x00,
  0x62, 0xf6, 0xff, 0xff, 0x14, 0x00, 0x00, 0x00, 0x14, 0x00, 0x00, 0x00,
  0x20, 0x00, 0x00, 0x00, 0x00, 0x00, 0x00, 0x0e, 0x38, 0x00, 0x00, 0x00,
  0x54, 0xf6, 0xff, 0xff, 0x29, 0x00, 0x00, 0x00, 0x77, 0x68, 0x69, 0x6c,
  0x65, 0x3b, 0x77, 0x68, 0x69, 0x6c, 0x65, 0x31, 0x3b, 0x77, 0x68, 0x69,
  0x6c, 0x65, 0x32, 0x3b, 0x77, 0x68, 0x69, 0x6c, 0x65, 0x33, 0x3b, 0x77,
  0x68, 0x69, 0x6c, 0x65, 0x34, 0x3b, 0x77, 0x68, 0x69, 0x6c, 0x65, 0x35,
  0x35, 0x00, 0x00, 0x00, 0x00, 0x00, 0x00, 0x00, 0x10, 0xfd, 0xff, 0xff,
  0x14, 0x00, 0x00, 0x00, 0x1c, 0x00, 0x00, 0x00, 0x1c, 0x00, 0x00, 0x00,
  0x1f, 0x00, 0x00, 0x00, 0x44, 0x00, 0x00, 0x00, 0x02, 0x00, 0x00, 0x00,
  0xff, 0xff, 0xff, 0xff, 0x0a, 0x00, 0x00, 0x00, 0xb0, 0xf6, 0xff, 0xff,
  0x29, 0x00, 0x00, 0x00, 0x77, 0x68, 0x69, 0x6c, 0x65, 0x3b, 0x77, 0x68,
  0x69, 0x6c, 0x65, 0x31, 0x3b, 0x77, 0x68, 0x69, 0x6c, 0x65, 0x32, 0x3b,
  0x77, 0x68, 0x69, 0x6c, 0x65, 0x33, 0x3b, 0x77, 0x68, 0x69, 0x6c, 0x65,
  0x34, 0x3b, 0x77, 0x68, 0x69, 0x6c, 0x65, 0x35, 0x34, 0x00, 0x00, 0x00,
  0x02, 0x00, 0x00, 0x00, 0x01, 0x00, 0x00, 0x00, 0x0a, 0x00, 0x00, 0x00,
  0x74, 0xfd, 0xff, 0xff, 0x14, 0x00, 0x00, 0x00, 0x1c, 0x00, 0x00, 0x00,
  0x1c, 0x00, 0x00, 0x00, 0x1e, 0x00, 0x00, 0x00, 0x44, 0x00, 0x00, 0x00,
  0x02, 0x00, 0x00, 0x00, 0xff, 0xff, 0xff, 0xff, 0x0a, 0x00, 0x00, 0x00,
  0x14, 0xf7, 0xff, 0xff, 0x29, 0x00, 0x00, 0x00, 0x77, 0x68, 0x69, 0x6c,
  0x65, 0x3b, 0x77, 0x68, 0x69, 0x6c, 0x65, 0x31, 0x3b, 0x77, 0x68, 0x69,
  0x6c, 0x65, 0x32, 0x3b, 0x77, 0x68, 0x69, 0x6c, 0x65, 0x33, 0x3b, 0x77,
  0x68, 0x69, 0x6c, 0x65, 0x34, 0x3b, 0x77, 0x68, 0x69, 0x6c, 0x65, 0x35,
  0x33, 0x00, 0x00, 0x00, 0x02, 0x00, 0x00, 0x00, 0x01, 0x00, 0x00, 0x00,
  0x0a, 0x00, 0x00, 0x00, 0x7a, 0xf7, 0xff, 0xff, 0x14, 0x00, 0x00, 0x00,
  0x14, 0x00, 0x00, 0x00, 0x1d, 0x00, 0x00, 0x00, 0x00, 0x00, 0x00, 0x0e,
  0x38, 0x00, 0x00, 0x00, 0x6c, 0xf7, 0xff, 0xff, 0x29, 0x00, 0x00, 0x00,
  0x77, 0x68, 0x69, 0x6c, 0x65, 0x3b, 0x77, 0x68, 0x69, 0x6c, 0x65, 0x31,
  0x3b, 0x77, 0x68, 0x69, 0x6c, 0x65, 0x32, 0x3b, 0x77, 0x68, 0x69, 0x6c,
  0x65, 0x33, 0x3b, 0x77, 0x68, 0x69, 0x6c, 0x65, 0x34, 0x3b, 0x77, 0x68,
  0x69, 0x6c, 0x65, 0x35, 0x32, 0x00, 0x00, 0x00, 0x00, 0x00, 0x00, 0x00,
  0xca, 0xf7, 0xff, 0xff, 0x14, 0x00, 0x00, 0x00, 0x14, 0x00, 0x00, 0x00,
  0x1c, 0x00, 0x00, 0x00, 0x00, 0x00, 0x00, 0x02, 0x38, 0x00, 0x00, 0x00,
  0xbc, 0xf7, 0xff, 0xff, 0x29, 0x00, 0x00, 0x00, 0x77, 0x68, 0x69, 0x6c,
  0x65, 0x3b, 0x77, 0x68, 0x69, 0x6c, 0x65, 0x31, 0x3b, 0x77, 0x68, 0x69,
  0x6c, 0x65, 0x32, 0x3b, 0x77, 0x68, 0x69, 0x6c, 0x65, 0x33, 0x3b, 0x77,
  0x68, 0x69, 0x6c, 0x65, 0x34, 0x3b, 0x77, 0x68, 0x69, 0x6c, 0x65, 0x35,
  0x31, 0x00, 0x00, 0x00, 0x00, 0x00, 0x00, 0x00, 0x1a, 0xf8, 0xff, 0xff,
  0x14, 0x00, 0x00, 0x00, 0x14, 0x00, 0x00, 0x00, 0x1b, 0x00, 0x00, 0x00,
  0x00, 0x00, 0x00, 0x02, 0x38, 0x00, 0x00, 0x00, 0x0c, 0xf8, 0xff, 0xff,
  0x28, 0x00, 0x00, 0x00, 0x77, 0x68, 0x69, 0x6c, 0x65, 0x3b, 0x77, 0x68,
  0x69, 0x6c, 0x65, 0x31, 0x3b, 0x77, 0x68, 0x69, 0x6c, 0x65, 0x32, 0x3b,
  0x77, 0x68, 0x69, 0x6c, 0x65, 0x33, 0x3b, 0x77, 0x68, 0x69, 0x6c, 0x65,
  0x34, 0x3b, 0x77, 0x68, 0x69, 0x6c, 0x65, 0x35, 0x00, 0x00, 0x00, 0x00,
  0x00, 0x00, 0x00, 0x00, 0x6a, 0xf8, 0xff, 0xff, 0x14, 0x00, 0x00, 0x00,
  0x14, 0x00, 0x00, 0x00, 0x1a, 0x00, 0x00, 0x00, 0x00, 0x00, 0x00, 0x0e,
  0x34, 0x00, 0x00, 0x00, 0x5c, 0xf8, 0xff, 0xff, 0x27, 0x00, 0x00, 0x00,
  0x54, 0x65, 0x6e, 0x73, 0x6f, 0x72, 0x41, 0x72, 0x72, 0x61, 0x79, 0x55,
  0x6e, 0x73, 0x74, 0x61, 0x63, 0x6b, 0x2f, 0x54, 0x65, 0x6e, 0x73, 0x6f,
  0x72, 0x4c, 0x69, 0x73, 0x74, 0x46, 0x72, 0x6f, 0x6d, 0x54, 0x65, 0x6e,
  0x73, 0x6f, 0x72, 0x00, 0x00, 0x00, 0x00, 0x00, 0x14, 0xff, 0xff, 0xff,
  0x14, 0x00, 0x00, 0x00, 0x20, 0x00, 0x00, 0x00, 0x20, 0x00, 0x00, 0x00,
  0x19, 0x00, 0x00, 0x00, 0x28, 0x00, 0x00, 0x00, 0x03, 0x00, 0x00, 0x00,
  0x05, 0x00, 0x00, 0x00, 0xff, 0xff, 0xff, 0xff, 0x09, 0x00, 0x00, 0x00,
  0xb8, 0xf8, 0xff, 0xff, 0x0a, 0x00, 0x00, 0x00, 0x74, 0x72, 0x61, 0x6e,
  0x73, 0x70, 0x6f, 0x73, 0x65, 0x31, 0x00, 0x00, 0x03, 0x00, 0x00, 0x00,
  0x05, 0x00, 0x00, 0x00, 0x01, 0x00, 0x00, 0x00, 0x09, 0x00, 0x00, 0x00,
  0xa0, 0xf8, 0xff, 0xff, 0x18, 0x00, 0x00, 0x00, 0x24, 0x00, 0x00, 0x00,
  0x40, 0x00, 0x00, 0x00, 0x18, 0x00, 0x00, 0x00, 0x00, 0x00, 0x00, 0x09,
  0x44, 0x00, 0x00, 0x00, 0x03, 0x00, 0x00, 0x00, 0x05, 0x00, 0x00, 0x00,
  0xff, 0xff, 0xff, 0xff, 0x09, 0x00, 0x00, 0x00, 0x8c, 0xf8, 0xff, 0xff,
  0x08, 0x00, 0x00, 0x00, 0x10, 0x00, 0x00, 0x00, 0x01, 0x00, 0x00, 0x00,
  0x80, 0xff, 0xff, 0xff, 0xff, 0xff, 0xff, 0xff, 0x01, 0x00, 0x00, 0x00,
  0x81, 0x80, 0x80, 0x3b, 0x09, 0x00, 0x00, 0x00, 0x74, 0x72, 0x61, 0x6e,
  0x73, 0x70, 0x6f, 0x73, 0x65, 0x00, 0x00, 0x00, 0x03, 0x00, 0x00, 0x00,
  0x05, 0x00, 0x00, 0x00, 0x01, 0x00, 0x00, 0x00, 0x09, 0x00, 0x00, 0x00,
  0x6e, 0xf9, 0xff, 0xff, 0x14, 0x00, 0x00, 0x00, 0x14, 0x00, 0x00, 0x00,
  0x17, 0x00, 0x00, 0x00, 0x00, 0x00, 0x00, 0x0e, 0x1c, 0x00, 0x00, 0x00,
  0x60, 0xf9, 0xff, 0xff, 0x0f, 0x00, 0x00, 0x00, 0x54, 0x65, 0x6e, 0x73,
  0x6f, 0x72, 0x41, 0x72, 0x72, 0x61, 0x79, 0x56, 0x32, 0x5f, 0x31, 0x00,
  0x00, 0x00, 0x00, 0x00, 0x14, 0x00, 0x18, 0x00, 0x14, 0x00, 0x00, 0x00,
  0x10, 0x00, 0x0c, 0x00, 0x08, 0x00, 0x00, 0x00, 0x00, 0x00, 0x04, 0x00,
  0x14, 0x00, 0x00, 0x00, 0x14, 0x00, 0x00, 0x00, 0x1c, 0x00, 0x00, 0x00,
  0x1c, 0x00, 0x00, 0x00, 0x16, 0x00, 0x00, 0x00, 0x28, 0x00, 0x00, 0x00,
  0x02, 0x00, 0x00, 0x00, 0xff, 0xff, 0xff, 0xff, 0x0a, 0x00, 0x00, 0x00,
  0xb4, 0xf9, 0xff, 0xff, 0x0e, 0x00, 0x00, 0x00, 0x74, 0x66, 0x6c, 0x2e,
  0x64, 0x65, 0x71, 0x75, 0x61, 0x6e, 0x74, 0x69, 0x7a, 0x65, 0x00, 0x00,
  0x02, 0x00, 0x00, 0x00, 0x01, 0x00, 0x00, 0x00, 0x0a, 0x00, 0x00, 0x00,
  0x9c, 0xf9, 0xff, 0xff, 0x18, 0x00, 0x00, 0x00, 0x20, 0x00, 0x00, 0x00,
  0x40, 0x00, 0x00, 0x00, 0x15, 0x00, 0x00, 0x00, 0x00, 0x00, 0x00, 0x09,
  0x50, 0x00, 0x00, 0x00, 0x02, 0x00, 0x00, 0x00, 0xff, 0xff, 0xff, 0xff,
  0x0a, 0x00, 0x00, 0x00, 0x84, 0xf9, 0xff, 0xff, 0x08, 0x00, 0x00, 0x00,
  0x14, 0x00, 0x00, 0x00, 0x01, 0x00, 0x00, 0x00, 0x00, 0x00, 0x00, 0x00,
  0x00, 0x00, 0x00, 0x00, 0x00, 0x00, 0x00, 0x00, 0x01, 0x00, 0x00, 0x00,
  0x7b, 0xbe, 0x06, 0x32, 0x17, 0x00, 0x00, 0x00, 0x73, 0x65, 0x71, 0x75,
  0x65, 0x6e, 0x74, 0x69, 0x61, 0x6c, 0x5f, 0x32, 0x2f, 0x6c, 0x73, 0x74,
  0x6d, 0x2f, 0x7a, 0x65, 0x72, 0x6f, 0x73, 0x00, 0x02, 0x00, 0x00, 0x00,
  0x01, 0x00, 0x00, 0x00, 0x0a, 0x00, 0x00, 0x00, 0x72, 0xfa, 0xff, 0xff,
  0x14, 0x00, 0x00, 0x00, 0x14, 0x00, 0x00, 0x00, 0x14, 0x00, 0x00, 0x00,
  0x00, 0x00, 0x00, 0x02, 0x2c, 0x00, 0x00, 0x00, 0x64, 0xfa, 0xff, 0xff,
  0x1e, 0x00, 0x00, 0x00, 0x73, 0x65, 0x71, 0x75, 0x65, 0x6e, 0x74, 0x69,
  0x61, 0x6c, 0x5f, 0x32, 0x2f, 0x6c, 0x73, 0x74, 0x6d, 0x2f, 0x7a, 0x65,
  0x72, 0x6f, 0x73, 0x2f, 0x70, 0x61, 0x63, 0x6b, 0x65, 0x64, 0x00, 0x00,
  0x01, 0x00, 0x00, 0x00, 0x02, 0x00, 0x00, 0x00, 0xba, 0xfa, 0xff, 0xff,
  0x14, 0x00, 0x00, 0x00, 0x14, 0x00, 0x00, 0x00, 0x13, 0x00, 0x00, 0x00,
  0x00, 0x00, 0x00, 0x02, 0x2c, 0x00, 0x00, 0x00, 0xac, 0xfa, 0xff, 0xff,
  0x1f, 0x00, 0x00, 0x00, 0x73, 0x65, 0x71, 0x75, 0x65, 0x6e, 0x74, 0x69,
  0x61, 0x6c, 0x5f, 0x32, 0x2f, 0x6c, 0x73, 0x74, 0x6d, 0x2f, 0x73, 0x74,
  0x72, 0x69, 0x64, 0x65, 0x64, 0x5f, 0x73, 0x6c, 0x69, 0x63, 0x65, 0x00,
  0x00, 0x00, 0x00, 0x00, 0xfe, 0xfa, 0xff, 0xff, 0x14, 0x00, 0x00, 0x00,
  0x14, 0x00, 0x00, 0x00, 0x12, 0x00, 0x00, 0x00, 0x00, 0x00, 0x00, 0x02,
  0x24, 0x00, 0x00, 0x00, 0xf0, 0xfa, 0xff, 0xff, 0x17, 0x00, 0x00, 0x00,
  0x73, 0x65, 0x71, 0x75, 0x65, 0x6e, 0x74, 0x69, 0x61, 0x6c, 0x5f, 0x32,
  0x2f, 0x6c, 0x73, 0x74, 0x6d, 0x2f, 0x53, 0x68, 0x61, 0x70, 0x65, 0x00,
  0x01, 0x00, 0x00, 0x00, 0x03, 0x00, 0x00, 0x00, 0x3e, 0xfb, 0xff, 0xff,
  0x14, 0x00, 0x00, 0x00, 0x30, 0x00, 0x00, 0x00, 0x11, 0x00, 0x00, 0x00,
  0x00, 0x00, 0x00, 0x02, 0x54, 0x00, 0x00, 0x00, 0xb4, 0xfa, 0xff, 0xff,
  0x08, 0x00, 0x00, 0x00, 0x10, 0x00, 0x00, 0x00, 0x01, 0x00, 0x00, 0x00,
  0x00, 0x00, 0x00, 0x00, 0x00, 0x00, 0x00, 0x00, 0x01, 0x00, 0x00, 0x00,
  0x40, 0x6f, 0xa8, 0x38, 0x2b, 0x00, 0x00, 0x00, 0x73, 0x65, 0x71, 0x75,
  0x65, 0x6e, 0x74, 0x69, 0x61, 0x6c, 0x5f, 0x32, 0x2f, 0x64, 0x65, 0x6e,
  0x73, 0x65, 0x5f, 0x32, 0x2f, 0x42, 0x69, 0x61, 0x73, 0x41, 0x64, 0x64,
  0x2f, 0x52, 0x65, 0x61, 0x64, 0x56, 0x61, 0x72, 0x69, 0x61, 0x62, 0x6c,
  0x65, 0x4f, 0x70, 0x00, 0x01, 0x00, 0x00, 0x00, 0x04, 0x00, 0x00, 0x00,
  0xae, 0xfb, 0xff, 0xff, 0x14, 0x00, 0x00, 0x00, 0x34, 0x00, 0x00, 0x00,
  0x10, 0x00, 0x00, 0x00, 0x00, 0x00, 0x00, 0x09, 0x48, 0x00, 0x00, 0x00,
  0x24, 0xfb, 0xff, 0xff, 0x08, 0x00, 0x00, 0x00, 0x14, 0x00, 0x00, 0x00,
  0x01, 0x00, 0x00, 0x00, 0x00, 0x00, 0x00, 0x00, 0x00, 0x00, 0x00, 0x00,
  0x00, 0x00, 0x00, 0x00, 0x01, 0x00, 0x00, 0x00, 0x32, 0x1a, 0xe2, 0x3c,
  0x1b, 0x00, 0x00, 0x00, 0x73, 0x65, 0x71, 0x75, 0x65, 0x6e, 0x74, 0x69,
  0x61, 0x6c, 0x5f, 0x32, 0x2f, 0x64, 0x65, 0x6e, 0x73, 0x65, 0x5f, 0x32,
  0x2f, 0x4d, 0x61, 0x74, 0x4d, 0x75, 0x6c, 0x00, 0x02, 0x00, 0x00, 0x00,
  0x04, 0x00, 0x00, 0x00, 0x64, 0x00, 0x00, 0x00, 0x16, 0xfc, 0xff, 0xff,
  0x14, 0x00, 0x00, 0x00, 0x30, 0x00, 0x00, 0x00, 0x0f, 0x00, 0x00, 0x00,
  0x00, 0x00, 0x00, 0x02, 0x54, 0x00, 0x00, 0x00, 0x8c, 0xfb, 0xff, 0xff,
  0x08, 0x00, 0x00, 0x00, 0x10, 0x00, 0x00, 0x00, 0x01, 0x00, 0x00, 0x00,
  0x00, 0x00, 0x00, 0x00, 0x00, 0x00, 0x00, 0x00, 0x01, 0x00, 0x00, 0x00,
  0x8e, 0xd8, 0xed, 0x37, 0x2b, 0x00, 0x00, 0x00, 0x73, 0x65, 0x71, 0x75,
  0x65, 0x6e, 0x74, 0x69, 0x61, 0x6c, 0x5f, 0x32, 0x2f, 0x64, 0x65, 0x6e,
  0x73, 0x65, 0x5f, 0x31, 0x2f, 0x42, 0x69, 0x61, 0x73, 0x41, 0x64, 0x64,
  0x2f, 0x52, 0x65, 0x61, 0x64, 0x56, 0x61, 0x72, 0x69, 0x61, 0x62, 0x6c,
  0x65, 0x4f, 0x70, 0x00, 0x01, 0x00, 0x00, 0x00, 0x64, 0x00, 0x00, 0x00,
  0x86, 0xfc, 0xff, 0xff, 0x14, 0x00, 0x00, 0x00, 0x34, 0x00, 0x00, 0x00,
  0x0e, 0x00, 0x00, 0x00, 0x00, 0x00, 0x00, 0x09, 0x48, 0x00, 0x00, 0x00,
  0xfc, 0xfb, 0xff, 0xff, 0x08, 0x00, 0x00, 0x00, 0x14, 0x00, 0x00, 0x00,
  0x01, 0x00, 0x00, 0x00, 0x00, 0x00, 0x00, 0x00, 0x00, 0x00, 0x00, 0x00,
  0x00, 0x00, 0x00, 0x00, 0x01, 0x00, 0x00, 0x00, 0x0b, 0x5b, 0xcb, 0x3c,
  0x1b, 0x00, 0x00, 0x00, 0x73, 0x65, 0x71, 0x75, 0x65, 0x6e, 0x74, 0x69,
  0x61, 0x6c, 0x5f, 0x32, 0x2f, 0x64, 0x65, 0x6e, 0x73, 0x65, 0x5f, 0x31,
  0x2f, 0x4d, 0x61, 0x74, 0x4d, 0x75, 0x6c, 0x00, 0x02, 0x00, 0x00, 0x00,
  0x64, 0x00, 0x00, 0x00, 0x0a, 0x00, 0x00, 0x00, 0xee, 0xfc, 0xff, 0xff,
  0x14, 0x00, 0x00, 0x00, 0x34, 0x00, 0x00, 0x00, 0x0d, 0x00, 0x00, 0x00,
  0x00, 0x00, 0x00, 0x09, 0x4c, 0x00, 0x00, 0x00, 0x64, 0xfc, 0xff, 0xff,
  0x08, 0x00, 0x00, 0x00, 0x14, 0x00, 0x00, 0x00, 0x01, 0x00, 0x00, 0x00,
  0x00, 0x00, 0x00, 0x00, 0x00, 0x00, 0x00, 0x00, 0x00, 0x00, 0x00, 0x00,
  0x01, 0x00, 0x00, 0x00, 0x7b, 0xbe, 0x06, 0x32, 0x1d, 0x00, 0x00, 0x00,
  0x73, 0x65, 0x71, 0x75, 0x65, 0x6e, 0x74, 0x69, 0x61, 0x6c, 0x5f, 0x32,
  0x2f, 0x6c, 0x73, 0x74, 0x6d, 0x2f, 0x7a, 0x65, 0x72, 0x6f, 0x73, 0x2f,
  0x43, 0x6f, 0x6e, 0x73, 0x74, 0x00, 0x00, 0x00, 0x00, 0x00, 0x00, 0x00,
  0x52, 0xfd, 0xff, 0xff, 0x14, 0x00, 0x00, 0x00, 0x14, 0x00, 0x00, 0x00,
  0x0c, 0x00, 0x00, 0x00, 0x00, 0x00, 0x00, 0x02, 0x20, 0x00, 0x00, 0x00,
  0x44, 0xfd, 0xff, 0xff, 0x10, 0x00, 0x00, 0x00, 0x73, 0x74, 0x72, 0x69,
  0x64, 0x65, 0x64, 0x5f, 0x73, 0x6c, 0x69, 0x63, 0x65, 0x5f, 0x32, 0x32,
  0x00, 0x00, 0x00, 0x00, 0x01, 0x00, 0x00, 0x00, 0x03, 0x00, 0x00, 0x00,
  0x8e, 0xfd, 0xff, 0xff, 0x14, 0x00, 0x00, 0x00, 0x14, 0x00, 0x00, 0x00,
  0x0b, 0x00, 0x00, 0x00, 0x00, 0x00, 0x00, 0x02, 0x20, 0x00, 0x00, 0x00,
  0x80, 0xfd, 0xff, 0xff, 0x10, 0x00, 0x00, 0x00, 0x73, 0x74, 0x72, 0x69,
  0x64, 0x65, 0x64, 0x5f, 0x73, 0x6c, 0x69, 0x63, 0x65, 0x5f, 0x32, 0x31,
  0x00, 0x00, 0x00, 0x00, 0x01, 0x00, 0x00, 0x00, 0x03, 0x00, 0x00, 0x00,
  0xca, 0xfd, 0xff, 0xff, 0x14, 0x00, 0x00, 0x00, 0x14, 0x00, 0x00, 0x00,
  0x0a, 0x00, 0x00, 0x00, 0x00, 0x00, 0x00, 0x02, 0x1c, 0x00, 0x00, 0x00,
  0xbc, 0xfd, 0xff, 0xff, 0x0f, 0x00, 0x00, 0x00, 0x73, 0x74, 0x72, 0x69,
  0x64, 0x65, 0x64, 0x5f, 0x73, 0x6c, 0x69, 0x63, 0x65, 0x5f, 0x32, 0x00,
  0x01, 0x00, 0x00, 0x00, 0x03, 0x00, 0x00, 0x00, 0x02, 0xfe, 0xff, 0xff,
  0x14, 0x00, 0x00, 0x00, 0x14, 0x00, 0x00, 0x00, 0x09, 0x00, 0x00, 0x00,
  0x00, 0x00, 0x00, 0x02, 0x14, 0x00, 0x00, 0x00, 0xf4, 0xfd, 0xff, 0xff,
  0x04, 0x00, 0x00, 0x00, 0x74, 0x69, 0x6d, 0x65, 0x00, 0x00, 0x00, 0x00,
  0x00, 0x00, 0x00, 0x00, 0x2e, 0xfe, 0xff, 0xff, 0x14, 0x00, 0x00, 0x00,
  0x14, 0x00, 0x00, 0x00, 0x08, 0x00, 0x00, 0x00, 0x00, 0x00, 0x00, 0x02,
  0x44, 0x00, 0x00, 0x00, 0x20, 0xfe, 0xff, 0xff, 0x35, 0x00, 0x00, 0x00,
  0x54, 0x65, 0x6e, 0x73, 0x6f, 0x72, 0x41, 0x72, 0x72, 0x61, 0x79, 0x55,
  0x6e, 0x73, 0x74, 0x61, 0x63, 0x6b, 0x2f, 0x54, 0x65, 0x6e, 0x73, 0x6f,
  0x72, 0x4c, 0x69, 0x73, 0x74, 0x46, 0x72, 0x6f, 0x6d, 0x54, 0x65, 0x6e,
  0x73, 0x6f, 0x72, 0x2f, 0x65, 0x6c, 0x65, 0x6d, 0x65, 0x6e, 0x74, 0x5f,
  0x73, 0x68, 0x61, 0x70, 0x65, 0x00, 0x00, 0x00, 0x01, 0x00, 0x00, 0x00,
  0x02, 0x00, 0x00, 0x00, 0x8e, 0xfe, 0xff, 0xff, 0x14, 0x00, 0x00, 0x00,
  0x14, 0x00, 0x00, 0x00, 0x07, 0x00, 0x00, 0x00, 0x00, 0x00, 0x00, 0x02,
  0x1c, 0x00, 0x00, 0x00, 0x80, 0xfe, 0xff, 0xff, 0x0e, 0x00, 0x00, 0x00,
  0x74, 0x72, 0x61, 0x6e, 0x73, 0x70, 0x6f, 0x73, 0x65, 0x2f, 0x70, 0x65,
  0x72, 0x6d, 0x00, 0x00, 0x01, 0x00, 0x00, 0x00, 0x03, 0x00, 0x00, 0x00,
  0xc6, 0xfe, 0xff, 0xff, 0x14, 0x00, 0x00, 0x00, 0x14, 0x00, 0x00, 0x00,
  0x06, 0x00, 0x00, 0x00, 0x00, 0x00, 0x00, 0x02, 0x2c, 0x00, 0x00, 0x00,
  0xb8, 0xfe, 0xff, 0xff, 0x1c, 0x00, 0x00, 0x00, 0x54, 0x65, 0x6e, 0x73,
  0x6f, 0x72, 0x41, 0x72, 0x72, 0x61, 0x79, 0x56, 0x32, 0x5f, 0x31, 0x2f,
  0x6e, 0x75, 0x6d, 0x5f, 0x65, 0x6c, 0x65, 0x6d, 0x65, 0x6e, 0x74, 0x73,
  0x00, 0x00, 0x00, 0x00, 0x00, 0x00, 0x00, 0x00, 0x0a, 0xff, 0xff, 0xff,
  0x14, 0x00, 0x00, 0x00, 0x14, 0x00, 0x00, 0x00, 0x05, 0x00, 0x00, 0x00,
  0x00, 0x00, 0x00, 0x02, 0x40, 0x00, 0x00, 0x00, 0xfc, 0xfe, 0xff, 0xff,
  0x30, 0x00, 0x00, 0x00, 0x54, 0x65, 0x6e, 0x73, 0x6f, 0x72, 0x41, 0x72,
  0x72, 0x61, 0x79, 0x56, 0x32, 0x53, 0x74, 0x61, 0x63, 0x6b, 0x2f, 0x54,
  0x65, 0x6e, 0x73, 0x6f, 0x72, 0x4c, 0x69, 0x73, 0x74, 0x53, 0x74, 0x61,
  0x63, 0x6b, 0x2f, 0x65, 0x6c, 0x65, 0x6d, 0x65, 0x6e, 0x74, 0x5f, 0x73,
  0x68, 0x61, 0x70, 0x65, 0x00, 0x00, 0x00, 0x00, 0x01, 0x00, 0x00, 0x00,
  0x02, 0x00, 0x00, 0x00, 0x66, 0xff, 0xff, 0xff, 0x14, 0x00, 0x00, 0x00,
  0x14, 0x00, 0x00, 0x00, 0x04, 0x00, 0x00, 0x00, 0x00, 0x00, 0x00, 0x02,
  0x30, 0x00, 0x00, 0x00, 0x58, 0xff, 0xff, 0xff, 0x20, 0x00, 0x00, 0x00,
  0x73, 0x65, 0x71, 0x75, 0x65, 0x6e, 0x74, 0x69, 0x61, 0x6c, 0x5f, 0x32,
  0x2f, 0x6c, 0x73, 0x74, 0x6d, 0x2f, 0x7a, 0x65, 0x72, 0x6f, 0x73, 0x2f,
  0x70, 0x61, 0x63, 0x6b, 0x65, 0x64, 0x2f, 0x31, 0x00, 0x00, 0x00, 0x00,
  0x00, 0x00, 0x00, 0x00, 0xae, 0xff, 0xff, 0xff, 0x14, 0x00, 0x00, 0x00,
  0x14, 0x00, 0x00, 0x00, 0x03, 0x00, 0x00, 0x00, 0x00, 0x00, 0x00, 0x02,
  0x34, 0x00, 0x00, 0x00, 0xa0, 0xff, 0xff, 0xff, 0x27, 0x00, 0x00, 0x00,
  0x73, 0x65, 0x71, 0x75, 0x65, 0x6e, 0x74, 0x69, 0x61, 0x6c, 0x5f, 0x32,
  0x2f, 0x6c, 0x73, 0x74, 0x6d, 0x2f, 0x73, 0x74, 0x72, 0x69, 0x64, 0x65,
  0x64, 0x5f, 0x73, 0x6c, 0x69, 0x63, 0x65, 0x2f, 0x73, 0x74, 0x61, 0x63,
  0x6b, 0x5f, 0x31, 0x00, 0x01, 0x00, 0x00, 0x00, 0x01, 0x00, 0x00, 0x00,
  0x00, 0x00, 0x0e, 0x00, 0x18, 0x00, 0x14, 0x00, 0x13, 0x00, 0x0c, 0x00,
  0x08, 0x00, 0x04, 0x00, 0x0e, 0x00, 0x00, 0x00, 0x18, 0x00, 0x00, 0x00,
  0x18, 0x00, 0x00, 0x00, 0x02, 0x00, 0x00, 0x00, 0x00, 0x00, 0x00, 0x02,
  0x38, 0x00, 0x00, 0x00, 0x04, 0x00, 0x04, 0x00, 0x04, 0x00, 0x00, 0x00,
  0x25, 0x00, 0x00, 0x00, 0x73, 0x65, 0x71, 0x75, 0x65, 0x6e, 0x74, 0x69,
  0x61, 0x6c, 0x5f, 0x32, 0x2f, 0x6c, 0x73, 0x74, 0x6d, 0x2f, 0x73, 0x74,
  0x72, 0x69, 0x64, 0x65, 0x64, 0x5f, 0x73, 0x6c, 0x69, 0x63, 0x65, 0x2f,
  0x73, 0x74, 0x61, 0x63, 0x6b, 0x00, 0x00, 0x00, 0x01, 0x00, 0x00, 0x00,
  0x01, 0x00, 0x00, 0x00, 0x14, 0x00, 0x1c, 0x00, 0x18, 0x00, 0x17, 0x00,
  0x10, 0x00, 0x0c, 0x00, 0x08, 0x00, 0x00, 0x00, 0x00, 0x00, 0x04, 0x00,
  0x14, 0x00, 0x00, 0x00, 0x18, 0x00, 0x00, 0x00, 0x30, 0x00, 0x00, 0x00,
  0x4c, 0x00, 0x00, 0x00, 0x01, 0x00, 0x00, 0x00, 0x00, 0x00, 0x00, 0x09,
  0x64, 0x00, 0x00, 0x00, 0x03, 0x00, 0x00, 0x00, 0xff, 0xff, 0xff, 0xff,
  0x05, 0x00, 0x00, 0x00, 0x09, 0x00, 0x00, 0x00, 0x0c, 0x00, 0x0c, 0x00,
  0x00, 0x00, 0x00, 0x00, 0x08, 0x00, 0x04, 0x00, 0x0c, 0x00, 0x00, 0x00,
  0x08, 0x00, 0x00, 0x00, 0x10, 0x00, 0x00, 0x00, 0x01, 0x00, 0x00, 0x00,
  0x80, 0xff, 0xff, 0xff, 0xff, 0xff, 0xff, 0xff, 0x01, 0x00, 0x00, 0x00,
  0x81, 0x80, 0x80, 0x3b, 0x1c, 0x00, 0x00, 0x00, 0x73, 0x65, 0x72, 0x76,
  0x69, 0x6e, 0x67, 0x5f, 0x64, 0x65, 0x66, 0x61, 0x75, 0x6c, 0x74, 0x5f,
  0x6c, 0x73, 0x74, 0x6d, 0x5f, 0x69, 0x6e, 0x70, 0x75, 0x74, 0x3a, 0x30,
  0x00, 0x00, 0x00, 0x00, 0x03, 0x00, 0x00, 0x00, 0x01, 0x00, 0x00, 0x00,
  0x05, 0x00, 0x00, 0x00, 0x09, 0x00, 0x00, 0x00, 0x15, 0x00, 0x00, 0x00,
  0x34, 0x02, 0x00, 0x00, 0x14, 0x02, 0x00, 0x00, 0xf8, 0x01, 0x00, 0x00,
  0xe4, 0x01, 0x00, 0x00, 0xd0, 0x01, 0x00, 0x00, 0xa0, 0x01, 0x00, 0x00,
  0x80, 0x01, 0x00, 0x00, 0x4c, 0x01, 0x00, 0x00, 0x3c, 0x01, 0x00, 0x00,
  0x10, 0x01, 0x00, 0x00, 0x00, 0x01, 0x00, 0x00, 0xec, 0x00, 0x00, 0x00,
  0xd8, 0x00, 0x00, 0x00, 0xc8, 0x00, 0x00, 0x00, 0xbc, 0x00, 0x00, 0x00,
  0x84, 0x00, 0x00, 0x00, 0x70, 0x00, 0x00, 0x00, 0x5c, 0x00, 0x00, 0x00,
  0x48, 0x00, 0x00, 0x00, 0x34, 0x00, 0x00, 0x00, 0x04, 0x00, 0x00, 0x00,
  0xac, 0xfe, 0xff, 0xff, 0x20, 0x00, 0x00, 0x00, 0x08, 0x00, 0x00, 0x00,
  0x00, 0x00, 0x00, 0x20, 0x15, 0x00, 0x00, 0x00, 0x46, 0x6c, 0x65, 0x78,
  0x54, 0x65, 0x6e, 0x73, 0x6f, 0x72, 0x4c, 0x69, 0x73, 0x74, 0x53, 0x65,
  0x74, 0x49, 0x74, 0x65, 0x6d, 0x00, 0x00, 0x00, 0x74, 0xfe, 0xff, 0xff,
  0x1c, 0x00, 0x00, 0x00, 0x02, 0x00, 0x00, 0x00, 0x00, 0x00, 0x00, 0x1c,
  0x84, 0xfe, 0xff, 0xff, 0x12, 0x00, 0x00, 0x00, 0x02, 0x00, 0x00, 0x00,
  0x00, 0x00, 0x00, 0x12, 0x94, 0xfe, 0xff, 0xff, 0x0e, 0x00, 0x00, 0x00,
  0x02, 0x00, 0x00, 0x00, 0x00, 0x00, 0x00, 0x0e, 0xa4, 0xfe, 0xff, 0xff,
  0x31, 0x00, 0x00, 0x00, 0x02, 0x00, 0x00, 0x00, 0x00, 0x00, 0x00, 0x31,
  0x18, 0xff, 0xff, 0xff, 0x20, 0x00, 0x00, 0x00, 0x08, 0x00, 0x00, 0x00,
  0x00, 0x00, 0x00, 0x20, 0x15, 0x00, 0x00, 0x00, 0x46, 0x6c, 0x65, 0x78,
  0x54, 0x65, 0x6e, 0x73, 0x6f, 0x72, 0x4c, 0x69, 0x73, 0x74, 0x47, 0x65,
  0x74, 0x49, 0x74, 0x65, 0x6d, 0x00, 0x0a, 0x00, 0x08, 0x00, 0x00, 0x00,
  0x00, 0x00, 0x04, 0x00, 0x0a, 0x00, 0x00, 0x00, 0x02, 0x00, 0x00, 0x00,
  0xd4, 0xfe, 0xff, 0xff, 0x3a, 0x00, 0x00, 0x00, 0x00, 0x00, 0x00, 0x3a,
  0xfc, 0xfe, 0xff, 0xff, 0x19, 0x00, 0x00, 0x00, 0x02, 0x00, 0x00, 0x00,
  0x00, 0x00, 0x00, 0x19, 0x0c, 0xff, 0xff, 0xff, 0x09, 0x00, 0x00, 0x00,
  0x04, 0x00, 0x00, 0x00, 0x00, 0x00, 0x00, 0x09, 0x00, 0xff, 0xff, 0xff,
  0x72, 0x00, 0x00, 0x00, 0x00, 0x00, 0x00, 0x72, 0x8c, 0xff, 0xff, 0xff,
  0x20, 0x00, 0x00, 0x00, 0x08, 0x00, 0x00, 0x00, 0x00, 0x00, 0x00, 0x20,
  0x13, 0x00, 0x00, 0x00, 0x46, 0x6c, 0x65, 0x78, 0x54, 0x65, 0x6e, 0x73,
  0x6f, 0x72, 0x4c, 0x69, 0x73, 0x74, 0x53, 0x74, 0x61, 0x63, 0x6b, 0x00,
  0x34, 0xff, 0xff, 0xff, 0x77, 0x00, 0x00, 0x00, 0x00, 0x00, 0x00, 0x77,
  0xc0, 0xff, 0xff, 0xff, 0x20, 0x00, 0x00, 0x00, 0x08, 0x00, 0x00, 0x00,
  0x00, 0x00, 0x00, 0x20, 0x18, 0x00, 0x00, 0x00, 0x46, 0x6c, 0x65, 0x78,
  0x54, 0x65, 0x6e, 0x73, 0x6f, 0x72, 0x4c, 0x69, 0x73, 0x74, 0x46, 0x72,
  0x6f, 0x6d, 0x54, 0x65, 0x6e, 0x73, 0x6f, 0x72, 0x00, 0x00, 0x00, 0x00,
  0x8c, 0xff, 0xff, 0xff, 0x27, 0x00, 0x00, 0x00, 0x02, 0x00, 0x00, 0x00,
  0x00, 0x00, 0x00, 0x27, 0x0c, 0x00, 0x10, 0x00, 0x0f, 0x00, 0x08, 0x00,
  0x00, 0x00, 0x04, 0x00, 0x0c, 0x00, 0x00, 0x00, 0x20, 0x00, 0x00, 0x00,
  0x08, 0x00, 0x00, 0x00, 0x00, 0x00, 0x00, 0x20, 0x15, 0x00, 0x00, 0x00,
  0x46, 0x6c, 0x65, 0x78, 0x54, 0x65, 0x6e, 0x73, 0x6f, 0x72, 0x4c, 0x69,
  0x73, 0x74, 0x52, 0x65, 0x73, 0x65, 0x72, 0x76, 0x65, 0x00, 0x00, 0x00,
  0xd4, 0xff, 0xff, 0xff, 0x06, 0x00, 0x00, 0x00, 0x02, 0x00, 0x00, 0x00,
  0x00, 0x00, 0x00, 0x06, 0xe4, 0xff, 0xff, 0xff, 0x5e, 0x00, 0x00, 0x00,
  0x03, 0x00, 0x00, 0x00, 0x00, 0x00, 0x00, 0x5e, 0xd8, 0xff, 0xff, 0xff,
  0x53, 0x00, 0x00, 0x00, 0x00, 0x00, 0x00, 0x53, 0x0c, 0x00, 0x10, 0x00,
  0x0f, 0x00, 0x00, 0x00, 0x08, 0x00, 0x04, 0x00, 0x0c, 0x00, 0x00, 0x00,
  0x2d, 0x00, 0x00, 0x00, 0x02, 0x00, 0x00, 0x00, 0x00, 0x00, 0x00, 0x2d,
  0x0c, 0x00, 0x0c, 0x00, 0x0b, 0x00, 0x00, 0x00, 0x00, 0x00, 0x04, 0x00,
  0x0c, 0x00, 0x00, 0x00, 0x4d, 0x00, 0x00, 0x00, 0x00, 0x00, 0x00, 0x4d
};
unsigned int model_len = 15192;
