unsigned char model[] = {
  0x20, 0x00, 0x00, 0x00, 0x54, 0x46, 0x4c, 0x33, 0x00, 0x00, 0x00, 0x00,
  0x14, 0x00, 0x20, 0x00, 0x1c, 0x00, 0x18, 0x00, 0x14, 0x00, 0x10, 0x00,
  0x0c, 0x00, 0x00, 0x00, 0x08, 0x00, 0x04, 0x00, 0x14, 0x00, 0x00, 0x00,
  0x1c, 0x00, 0x00, 0x00, 0x84, 0x00, 0x00, 0x00, 0xd4, 0x00, 0x00, 0x00,
  0x68, 0x0f, 0x00, 0x00, 0x78, 0x0f, 0x00, 0x00, 0xdc, 0x38, 0x00, 0x00,
  0x03, 0x00, 0x00, 0x00, 0x01, 0x00, 0x00, 0x00, 0x04, 0x00, 0x00, 0x00,
  0x8e, 0xd6, 0xff, 0xff, 0x0c, 0x00, 0x00, 0x00, 0x1c, 0x00, 0x00, 0x00,
  0x38, 0x00, 0x00, 0x00, 0x0f, 0x00, 0x00, 0x00, 0x73, 0x65, 0x72, 0x76,
  0x69, 0x6e, 0x67, 0x5f, 0x64, 0x65, 0x66, 0x61, 0x75, 0x6c, 0x74, 0x00,
  0x01, 0x00, 0x00, 0x00, 0x04, 0x00, 0x00, 0x00, 0x98, 0xd8, 0xff, 0xff,
  0x25, 0x00, 0x00, 0x00, 0x04, 0x00, 0x00, 0x00, 0x07, 0x00, 0x00, 0x00,
  0x64, 0x65, 0x6e, 0x73, 0x65, 0x5f, 0x32, 0x00, 0x01, 0x00, 0x00, 0x00,
  0x04, 0x00, 0x00, 0x00, 0x92, 0xd6, 0xff, 0xff, 0x04, 0x00, 0x00, 0x00,
  0x0a, 0x00, 0x00, 0x00, 0x6c, 0x73, 0x74, 0x6d, 0x5f, 0x69, 0x6e, 0x70,
  0x75, 0x74, 0x00, 0x00, 0x02, 0x00, 0x00, 0x00, 0x2c, 0x00, 0x00, 0x00,
  0x04, 0x00, 0x00, 0x00, 0xdc, 0xd8, 0xff, 0xff, 0x56, 0x00, 0x00, 0x00,
  0x04, 0x00, 0x00, 0x00, 0x13, 0x00, 0x00, 0x00, 0x43, 0x4f, 0x4e, 0x56,
  0x45, 0x52, 0x53, 0x49, 0x4f, 0x4e, 0x5f, 0x4d, 0x45, 0x54, 0x41, 0x44,
  0x41, 0x54, 0x41, 0x00, 0x00, 0xd9, 0xff, 0xff, 0x55, 0x00, 0x00, 0x00,
  0x04, 0x00, 0x00, 0x00, 0x13, 0x00, 0x00, 0x00, 0x6d, 0x69, 0x6e, 0x5f,
  0x72, 0x75, 0x6e, 0x74, 0x69, 0x6d, 0x65, 0x5f, 0x76, 0x65, 0x72, 0x73,
  0x69, 0x6f, 0x6e, 0x00, 0x57, 0x00, 0x00, 0x00, 0x90, 0x0e, 0x00, 0x00,
  0x88, 0x0e, 0x00, 0x00, 0x74, 0x0e, 0x00, 0x00, 0x60, 0x0e, 0x00, 0x00,
  0x4c, 0x0e, 0x00, 0x00, 0x34, 0x0e, 0x00, 0x00, 0x20, 0x0e, 0x00, 0x00,
  0x04, 0x0e, 0x00, 0x00, 0xec, 0x0d, 0x00, 0x00, 0xd8, 0x0d, 0x00, 0x00,
  0xbc, 0x0d, 0x00, 0x00, 0xa0, 0x0d, 0x00, 0x00, 0x84, 0x0d, 0x00, 0x00,
  0x70, 0x0d, 0x00, 0x00, 0x78, 0x09, 0x00, 0x00, 0xd8, 0x07, 0x00, 0x00,
  0x38, 0x06, 0x00, 0x00, 0x18, 0x06, 0x00, 0x00, 0x10, 0x06, 0x00, 0x00,
  0x08, 0x06, 0x00, 0x00, 0x00, 0x06, 0x00, 0x00, 0xf8, 0x05, 0x00, 0x00,
  0xf0, 0x05, 0x00, 0x00, 0xe8, 0x05, 0x00, 0x00, 0xe0, 0x05, 0x00, 0x00,
  0xd8, 0x05, 0x00, 0x00, 0xd0, 0x05, 0x00, 0x00, 0xc8, 0x05, 0x00, 0x00,
  0xc0, 0x05, 0x00, 0x00, 0xb8, 0x05, 0x00, 0x00, 0xb0, 0x05, 0x00, 0x00,
  0xa8, 0x05, 0x00, 0x00, 0xa0, 0x05, 0x00, 0x00, 0x98, 0x05, 0x00, 0x00,
  0x90, 0x05, 0x00, 0x00, 0x88, 0x05, 0x00, 0x00, 0x80, 0x05, 0x00, 0x00,
  0x78, 0x05, 0x00, 0x00, 0x70, 0x05, 0x00, 0x00, 0x68, 0x05, 0x00, 0x00,
  0x60, 0x05, 0x00, 0x00, 0x58, 0x05, 0x00, 0x00, 0x50, 0x05, 0x00, 0x00,
  0x48, 0x05, 0x00, 0x00, 0x40, 0x05, 0x00, 0x00, 0x2c, 0x05, 0x00, 0x00,
  0x24, 0x05, 0x00, 0x00, 0x1c, 0x05, 0x00, 0x00, 0x14, 0x05, 0x00, 0x00,
  0x0c, 0x05, 0x00, 0x00, 0x04, 0x05, 0x00, 0x00, 0xfc, 0x04, 0x00, 0x00,
  0xf4, 0x04, 0x00, 0x00, 0xe0, 0x04, 0x00, 0x00, 0xc8, 0x04, 0x00, 0x00,
  0xb4, 0x04, 0x00, 0x00, 0x14, 0x03, 0x00, 0x00, 0x9c, 0x01, 0x00, 0x00,
  0x64, 0x01, 0x00, 0x00, 0x5c, 0x01, 0x00, 0x00, 0x54, 0x01, 0x00, 0x00,
  0x4c, 0x01, 0x00, 0x00, 0x44, 0x01, 0x00, 0x00, 0x3c, 0x01, 0x00, 0x00,
  0x34, 0x01, 0x00, 0x00, 0x2c, 0x01, 0x00, 0x00, 0x24, 0x01, 0x00, 0x00,
  0x1c, 0x01, 0x00, 0x00, 0x14, 0x01, 0x00, 0x00, 0x0c, 0x01, 0x00, 0x00,
  0x04, 0x01, 0x00, 0x00, 0xfc, 0x00, 0x00, 0x00, 0xf4, 0x00, 0x00, 0x00,
  0xec, 0x00, 0x00, 0x00, 0xe4, 0x00, 0x00, 0x00, 0xdc, 0x00, 0x00, 0x00,
  0xd4, 0x00, 0x00, 0x00, 0xcc, 0x00, 0x00, 0x00, 0xc4, 0x00, 0x00, 0x00,
  0xbc, 0x00, 0x00, 0x00, 0xb4, 0x00, 0x00, 0x00, 0xac, 0x00, 0x00, 0x00,
  0xa4, 0x00, 0x00, 0x00, 0x9c, 0x00, 0x00, 0x00, 0x94, 0x00, 0x00, 0x00,
  0x74, 0x00, 0x00, 0x00, 0x04, 0x00, 0x00, 0x00, 0x5e, 0xd8, 0xff, 0xff,
  0x04, 0x00, 0x00, 0x00, 0x60, 0x00, 0x00, 0x00, 0x0c, 0x00, 0x00, 0x00,
  0x08, 0x00, 0x0e, 0x00, 0x08, 0x00, 0x04, 0x00, 0x08, 0x00, 0x00, 0x00,
  0x14, 0x00, 0x00, 0x00, 0x30, 0x00, 0x00, 0x00, 0x00, 0x00, 0x0a, 0x00,
  0x0c, 0x00, 0x08, 0x00, 0x00, 0x00, 0x07, 0x00, 0x0a, 0x00, 0x00, 0x00,
  0x00, 0x00, 0x00, 0x01, 0x04, 0x00, 0x00, 0x00, 0x01, 0x00, 0x00, 0x00,
  0xeb, 0x03, 0x00, 0x00, 0x00, 0x00, 0x0a, 0x00, 0x10, 0x00, 0x0c, 0x00,
  0x08, 0x00, 0x04, 0x00, 0x0a, 0x00, 0x00, 0x00, 0x01, 0x00, 0x00, 0x00,
  0x02, 0x00, 0x00, 0x00, 0x04, 0x00, 0x00, 0x00, 0x05, 0x00, 0x00, 0x00,
  0x32, 0x2e, 0x39, 0x2e, 0x30, 0x00, 0x00, 0x00, 0xca, 0xd8, 0xff, 0xff,
  0x04, 0x00, 0x00, 0x00, 0x10, 0x00, 0x00, 0x00, 0x32, 0x2e, 0x35, 0x2e,
  0x30, 0x00, 0x00, 0x00, 0x00, 0x00, 0x00, 0x00, 0x00, 0x00, 0x00, 0x00,
  0xb0, 0xca, 0xff, 0xff, 0xb4, 0xca, 0xff, 0xff, 0xb8, 0xca, 0xff, 0xff,
  0xbc, 0xca, 0xff, 0xff, 0xc0, 0xca, 0xff, 0xff, 0xc4, 0xca, 0xff, 0xff,
  0xc8, 0xca, 0xff, 0xff, 0xcc, 0xca, 0xff, 0xff, 0xd0, 0xca, 0xff, 0xff,
  0xd4, 0xca, 0xff, 0xff, 0xd8, 0xca, 0xff, 0xff, 0xdc, 0xca, 0xff, 0xff,
  0xe0, 0xca, 0xff, 0xff, 0xe4, 0xca, 0xff, 0xff, 0xe8, 0xca, 0xff, 0xff,
  0xec, 0xca, 0xff, 0xff, 0xf0, 0xca, 0xff, 0xff, 0xf4, 0xca, 0xff, 0xff,
  0xf8, 0xca, 0xff, 0xff, 0xfc, 0xca, 0xff, 0xff, 0x00, 0xcb, 0xff, 0xff,
  0x04, 0xcb, 0xff, 0xff, 0x08, 0xcb, 0xff, 0xff, 0x0c, 0xcb, 0xff, 0xff,
  0x10, 0xcb, 0xff, 0xff, 0x14, 0xcb, 0xff, 0xff, 0x4e, 0xd9, 0xff, 0xff,
  0x04, 0x00, 0x00, 0x00, 0x28, 0x00, 0x00, 0x00, 0xf3, 0xa0, 0xb0, 0xbc,
  0xa4, 0xbd, 0xce, 0xa6, 0x1b, 0xc2, 0x3f, 0x2f, 0x2b, 0x43, 0x1b, 0x36,
  0x35, 0x2e, 0x50, 0x7f, 0xb8, 0xaa, 0xa3, 0xce, 0x9f, 0xb1, 0xba, 0x99,
  0x80, 0xb5, 0xed, 0x85, 0xf5, 0xac, 0xb9, 0xd8, 0xd0, 0xd9, 0xab, 0xa5,
  0x82, 0xd9, 0xff, 0xff, 0x04, 0x00, 0x00, 0x00, 0x68, 0x01, 0x00, 0x00,
  0x24, 0x2b, 0x21, 0x31, 0x21, 0x22, 0x02, 0xe4, 0x3c, 0x03, 0xd9, 0xe2,
  0xf6, 0x1f, 0xe9, 0xf2, 0x2b, 0xcb, 0xf0, 0x28, 0xe7, 0x0f, 0xf3, 0x0b,
  0xda, 0x37, 0x31, 0xef, 0x17, 0xf4, 0xf7, 0x0b, 0x10, 0xf3, 0xbd, 0x03,
  0xec, 0x0a, 0xf8, 0xf8, 0x0b, 0x0c, 0xf0, 0x42, 0xe8, 0xe2, 0x31, 0xf1,
  0x06, 0x12, 0xe8, 0xed, 0x37, 0xf1, 0xee, 0x12, 0x28, 0x1a, 0xfd, 0x19,
  0xfc, 0x54, 0x08, 0x03, 0xef, 0x19, 0xe6, 0xdd, 0x08, 0x06, 0x23, 0xca,
  0x43, 0x2b, 0x1f, 0x1b, 0x33, 0x53, 0x2a, 0x1c, 0x38, 0x00, 0x22, 0xff,
  0x22, 0xfb, 0x10, 0xee, 0x1a, 0x0d, 0xe1, 0x08, 0x0e, 0xff, 0x08, 0xd9,
  0xf3, 0xc4, 0x00, 0xe2, 0x00, 0xf2, 0xf5, 0x05, 0xf9, 0x12, 0x23, 0xe9,
  0xfa, 0x0a, 0x08, 0xcd, 0xdc, 0xf9, 0xb3, 0x0a, 0x11, 0xed, 0xfd, 0xfa,
  0xdd, 0x03, 0xeb, 0x08, 0xc0, 0x3e, 0xe9, 0xf3, 0x01, 0xe6, 0x09, 0xf1,
  0xd3, 0x12, 0xd7, 0xd7, 0xfe, 0xde, 0xde, 0x0b, 0xf3, 0xd2, 0x27, 0xde,
  0xc2, 0x03, 0x0b, 0xd9, 0xcf, 0xee, 0xc3, 0x42, 0xf5, 0xf2, 0xe5, 0x12,
  0xe7, 0xd4, 0xed, 0xfa, 0x39, 0xc0, 0x0c, 0xda, 0x19, 0x15, 0x01, 0x17,
  0x05, 0xe8, 0x0a, 0x3b, 0x1f, 0x1f, 0x15, 0x18, 0x25, 0x3d, 0x06, 0xfe,
  0x28, 0xdb, 0xff, 0x14, 0x0a, 0x0b, 0x47, 0xe3, 0xd3, 0xf6, 0xeb, 0xf7,
  0x01, 0x1a, 0xf2, 0x1a, 0xd9, 0xe1, 0xe2, 0x04, 0xfc, 0xfb, 0x16, 0x0f,
  0xf3, 0x97, 0x3d, 0xee, 0xf8, 0x25, 0x1f, 0xf8, 0x13, 0x03, 0xc9, 0x31,
  0x00, 0x0f, 0x04, 0xf0, 0x1c, 0x16, 0xdd, 0xaf, 0x0c, 0xd6, 0x13, 0x11,
  0xe7, 0x16, 0x08, 0xe2, 0xc0, 0x36, 0x10, 0x10, 0xf0, 0x1c, 0xf0, 0xda,
  0x32, 0x4d, 0xaa, 0xf8, 0x0d, 0xf9, 0xd7, 0x0c, 0x06, 0x09, 0x36, 0xcd,
  0xd7, 0xec, 0xc0, 0xde, 0x00, 0x03, 0xf6, 0x31, 0xd4, 0xe3, 0x1f, 0xfd,
  0x11, 0xfe, 0xf2, 0xdd, 0xe4, 0x0c, 0x27, 0x32, 0x21, 0x14, 0x12, 0x34,
  0x03, 0xf9, 0x2b, 0xe3, 0xe1, 0xf1, 0xcc, 0xd1, 0xfa, 0x25, 0x29, 0xb7,
  0x26, 0x39, 0x42, 0x3c, 0x23, 0x13, 0xf8, 0x5d, 0x21, 0x07, 0x01, 0xf3,
  0xdf, 0xfa, 0xde, 0x29, 0x81, 0xfd, 0xfc, 0x1b, 0x15, 0xf0, 0x17, 0x0a,
  0xf6, 0x6c, 0xf0, 0xf3, 0x2c, 0x01, 0x15, 0x0d, 0x1a, 0xf4, 0x27, 0x08,
  0xde, 0x27, 0x2c, 0xf1, 0x01, 0x29, 0xcb, 0x46, 0x0a, 0x01, 0xfa, 0x15,
  0xfa, 0x27, 0x20, 0x11, 0x5a, 0xed, 0x05, 0xf9, 0x0a, 0xf0, 0xea, 0xe9,
  0xfb, 0x9f, 0x59, 0x05, 0xea, 0xe2, 0xfd, 0xf2, 0x10, 0xe0, 0xb2, 0x2b,
  0xf6, 0xda, 0xff, 0xff, 0x04, 0x00, 0x00, 0x00, 0x90, 0x01, 0x00, 0x00,
  0x04, 0x76, 0x31, 0xb4, 0x64, 0x4b, 0xc3, 0xd4, 0xf1, 0x36, 0xfd, 0x1f,
  0xb6, 0xf3, 0x1b, 0xba, 0xf8, 0x1f, 0x35, 0x1e, 0xc9, 0xe4, 0xce, 0xf8,
  0xf5, 0xe3, 0xfb, 0x1a, 0xdf, 0x07, 0x1d, 0x37, 0xe4, 0x18, 0xf1, 0xa7,
  0x14, 0x14, 0xee, 0xc1, 0x98, 0xcd, 0xd4, 0x0b, 0xf6, 0x00, 0xf7, 0x10,
  0x44, 0x15, 0xb3, 0x10, 0xfc, 0x21, 0xfd, 0x17, 0x03, 0x1c, 0xee, 0xf9,
  0xe9, 0x2e, 0xfc, 0xfd, 0xf3, 0x03, 0x0a, 0xe2, 0xef, 0x2c, 0xfb, 0xe9,
  0xb0, 0xac, 0xb9, 0x9a, 0x34, 0xdc, 0x52, 0x1c, 0xe8, 0xff, 0x24, 0x13,
  0xe6, 0x15, 0x05, 0x16, 0xe8, 0xf8, 0xc4, 0xd4, 0xfd, 0xf0, 0x04, 0xd8,
  0x0c, 0x47, 0x15, 0x0e, 0x2b, 0x35, 0x0f, 0xa7, 0x0b, 0xf5, 0xea, 0xf6,
  0xf4, 0xfc, 0xea, 0x2f, 0x95, 0xdf, 0xfb, 0xaf, 0x32, 0xfa, 0x2a, 0x5f,
  0xbb, 0xe8, 0xd9, 0x0a, 0xfd, 0x16, 0x12, 0x3e, 0x09, 0x07, 0x1d, 0x52,
  0x14, 0x12, 0x60, 0xb3, 0x02, 0xd3, 0xf6, 0xfe, 0xb1, 0xd4, 0xda, 0xf7,
  0xec, 0xfd, 0x10, 0x1f, 0x42, 0x07, 0xcf, 0xd0, 0x01, 0xfb, 0xfc, 0xfc,
  0x15, 0x0c, 0xe6, 0x1b, 0x03, 0x1d, 0xe7, 0xfc, 0xe9, 0xe5, 0x00, 0xed,
  0x14, 0x17, 0x22, 0x05, 0xbf, 0xd3, 0xd8, 0xa9, 0x4e, 0xf7, 0x51, 0x15,
  0x17, 0xe5, 0x1d, 0x66, 0xf8, 0xd6, 0xfd, 0x0a, 0xc7, 0xea, 0x18, 0x3c,
  0x2e, 0xc9, 0x13, 0xf6, 0xf2, 0x26, 0xe4, 0x2b, 0xf4, 0x06, 0xf9, 0xfe,
  0x25, 0x0a, 0x16, 0x24, 0x3d, 0xf4, 0x04, 0xf3, 0x1a, 0xe5, 0x1f, 0x01,
  0xe2, 0x05, 0x27, 0x20, 0xe5, 0xe1, 0xd6, 0x06, 0xf3, 0x00, 0xf8, 0x00,
  0xd5, 0xf0, 0x04, 0x18, 0x10, 0xd8, 0xf9, 0xca, 0xf5, 0x01, 0xe3, 0xc4,
  0xc9, 0xfd, 0x1c, 0x36, 0xe3, 0x17, 0xe5, 0x18, 0xc8, 0xf4, 0xe3, 0xee,
  0x38, 0x42, 0xfd, 0xf1, 0xee, 0x04, 0xe3, 0xfb, 0x02, 0x29, 0xed, 0xe8,
  0x0e, 0xe3, 0xf9, 0x0f, 0x1e, 0x08, 0xa9, 0xc7, 0xf9, 0xc9, 0xe9, 0x23,
  0x07, 0xc0, 0x26, 0xf2, 0xb1, 0xd8, 0x0c, 0xea, 0xe8, 0x2c, 0x05, 0x38,
  0x0d, 0xf4, 0xd5, 0x15, 0x27, 0x1e, 0x35, 0x30, 0xc9, 0xf9, 0xf8, 0x36,
  0xfe, 0x5d, 0x16, 0xe1, 0x51, 0x2f, 0xbc, 0xa3, 0xff, 0x3e, 0x34, 0x1f,
  0x88, 0xec, 0xbc, 0x81, 0x6e, 0x0c, 0x0c, 0x17, 0xd3, 0xef, 0xf8, 0x2e,
  0xea, 0xfb, 0x15, 0x15, 0xee, 0x0b, 0x58, 0xf6, 0xf3, 0x0d, 0xcd, 0xda,
  0x12, 0x32, 0x07, 0xb2, 0x9e, 0xb5, 0xe0, 0x07, 0xec, 0x06, 0x0b, 0x31,
  0x3b, 0x19, 0xb4, 0xed, 0xe6, 0x48, 0xed, 0xf7, 0xf3, 0x2e, 0xea, 0x00,
  0xd5, 0xe5, 0xd1, 0x04, 0x0e, 0xfd, 0x22, 0x03, 0x0e, 0x09, 0x4c, 0xf9,
  0xb6, 0xd7, 0xf7, 0xb9, 0x2d, 0xfa, 0x23, 0x15, 0xe6, 0x42, 0x4e, 0xf5,
  0x2b, 0x4b, 0xbc, 0xf1, 0x1b, 0xe3, 0xed, 0x32, 0x0a, 0xfd, 0x32, 0xd9,
  0x03, 0xf8, 0x03, 0xe2, 0x92, 0xdc, 0xff, 0xff, 0x04, 0x00, 0x00, 0x00,
  0x04, 0x00, 0x00, 0x00, 0x00, 0x00, 0x00, 0x00, 0xa2, 0xdc, 0xff, 0xff,
  0x04, 0x00, 0x00, 0x00, 0x08, 0x00, 0x00, 0x00, 0xff, 0xff, 0xff, 0xff,
  0x09, 0x00, 0x00, 0x00, 0xb6, 0xdc, 0xff, 0xff, 0x04, 0x00, 0x00, 0x00,
  0x04, 0x00, 0x00, 0x00, 0x01, 0x00, 0x00, 0x00, 0x90, 0xce, 0xff, 0xff,
  0x94, 0xce, 0xff, 0xff, 0x98, 0xce, 0xff, 0xff, 0x9c, 0xce, 0xff, 0xff,
  0xa0, 0xce, 0xff, 0xff, 0xa4, 0xce, 0xff, 0xff, 0xa8, 0xce, 0xff, 0xff,
  0xe2, 0xdc, 0xff, 0xff, 0x04, 0x00, 0x00, 0x00, 0x04, 0x00, 0x00, 0x00,
  0x14, 0x00, 0x00, 0x00, 0xbc, 0xce, 0xff, 0xff, 0xc0, 0xce, 0xff, 0xff,
  0xc4, 0xce, 0xff, 0xff, 0xc8, 0xce, 0xff, 0xff, 0xcc, 0xce, 0xff, 0xff,
  0xd0, 0xce, 0xff, 0xff, 0xd4, 0xce, 0xff, 0xff, 0xd8, 0xce, 0xff, 0xff,
  0xdc, 0xce, 0xff, 0xff, 0xe0, 0xce, 0xff, 0xff, 0xe4, 0xce, 0xff, 0xff,
  0xe8, 0xce, 0xff, 0xff, 0xec, 0xce, 0xff, 0xff, 0xf0, 0xce, 0xff, 0xff,
  0xf4, 0xce, 0xff, 0xff, 0xf8, 0xce, 0xff, 0xff, 0xfc, 0xce, 0xff, 0xff,
  0x00, 0xcf, 0xff, 0xff, 0x04, 0xcf, 0xff, 0xff, 0x08, 0xcf, 0xff, 0xff,
  0x0c, 0xcf, 0xff, 0xff, 0x10, 0xcf, 0xff, 0xff, 0x14, 0xcf, 0xff, 0xff,
  0x18, 0xcf, 0xff, 0xff, 0x1c, 0xcf, 0xff, 0xff, 0x20, 0xcf, 0xff, 0xff,
  0x24, 0xcf, 0xff, 0xff, 0x5e, 0xdd, 0xff, 0xff, 0x04, 0x00, 0x00, 0x00,
  0x10, 0x00, 0x00, 0x00, 0x43, 0x01, 0x00, 0x00, 0x6e, 0x06, 0x00, 0x00,
  0x16, 0xf3, 0xff, 0xff, 0xbe, 0xfc, 0xff, 0xff, 0x7a, 0xdd, 0xff, 0xff,
  0x04, 0x00, 0x00, 0x00, 0x90, 0x01, 0x00, 0x00, 0x26, 0x1e, 0x0c, 0x05,
  0x03, 0xf3, 0xf6, 0xe6, 0xe1, 0xed, 0x0b, 0xfd, 0x09, 0x03, 0xe3, 0xfc,
  0xf5, 0xd3, 0x26, 0x14, 0x20, 0x06, 0x8c, 0xec, 0x05, 0x05, 0x13, 0x1a,
  0xe5, 0xc7, 0x05, 0x00, 0x11, 0x0b, 0xd8, 0xe3, 0xf7, 0xec, 0xef, 0x1b,
  0xca, 0xf1, 0xfa, 0x10, 0xfb, 0xdd, 0x22, 0xdb, 0xa2, 0xfd, 0xf1, 0xf7,
  0xaf, 0x06, 0xed, 0xff, 0xea, 0xfa, 0xe9, 0xe6, 0x06, 0x08, 0x36, 0x15,
  0xf0, 0x08, 0x08, 0xef, 0x02, 0xff, 0x01, 0xf8, 0x17, 0x0a, 0xd9, 0xfe,
  0xd6, 0x1a, 0x19, 0xff, 0x17, 0xde, 0x14, 0xe9, 0xf3, 0xff, 0x08, 0x06,
  0xd9, 0x1f, 0xdc, 0xfe, 0xef, 0xc9, 0x17, 0xb5, 0x17, 0xed, 0xed, 0xe0,
  0x20, 0x15, 0xb7, 0xd6, 0xd7, 0xd4, 0xef, 0x07, 0xf9, 0xda, 0xcb, 0xcf,
  0xa4, 0xda, 0xf1, 0xfd, 0xf8, 0xf4, 0xeb, 0xda, 0xe4, 0xdb, 0x04, 0x02,
  0xf7, 0xfd, 0xc2, 0xc3, 0xf1, 0x07, 0x03, 0x0c, 0xfa, 0xe0, 0xe1, 0xe2,
  0xe9, 0x05, 0xf1, 0xde, 0xf8, 0x01, 0x11, 0xce, 0x00, 0xec, 0x9d, 0x0a,
  0x0c, 0x0d, 0xf3, 0xd5, 0x2f, 0xdd, 0xd6, 0xce, 0xe0, 0x01, 0xeb, 0xff,
  0xe7, 0xb4, 0x97, 0xe9, 0xd0, 0x12, 0x18, 0x03, 0xfa, 0xfa, 0xc5, 0x08,
  0xe5, 0x04, 0xfc, 0xcd, 0xfb, 0xff, 0xee, 0x01, 0xe3, 0xfb, 0x11, 0xd6,
  0xe8, 0xd0, 0xda, 0x03, 0xf3, 0xef, 0xec, 0xee, 0xf4, 0x06, 0x16, 0x1e,
  0x17, 0xc0, 0xde, 0xe0, 0xbd, 0xb3, 0x1e, 0x15, 0x1f, 0xad, 0x29, 0x0a,
  0x22, 0x2b, 0x11, 0x08, 0x1c, 0xea, 0x35, 0x13, 0x2f, 0x08, 0xed, 0x15,
  0xfb, 0x29, 0xfc, 0x1b, 0xfc, 0xdd, 0xce, 0xbb, 0xe9, 0xef, 0xe1, 0xad,
  0xed, 0x26, 0x1c, 0x14, 0x31, 0xf2, 0xe4, 0xea, 0xc4, 0x0c, 0xff, 0x10,
  0x1f, 0x0e, 0x15, 0x14, 0xcf, 0xf1, 0x1a, 0xd9, 0xef, 0x11, 0x2d, 0xe5,
  0x26, 0xf9, 0x14, 0x0c, 0xf8, 0xea, 0x16, 0xe9, 0xcb, 0xe0, 0xc5, 0xf0,
  0xd7, 0xf8, 0xdc, 0x07, 0xe9, 0x04, 0x1b, 0xef, 0x28, 0xe1, 0xec, 0x0a,
  0xf8, 0x19, 0xf1, 0x4b, 0x01, 0xf4, 0xe8, 0x19, 0x08, 0xf1, 0x2b, 0x2e,
  0x1a, 0x11, 0xef, 0xf8, 0xe8, 0x24, 0x08, 0x20, 0xcb, 0xed, 0xd0, 0xe1,
  0xe5, 0x03, 0xdf, 0xff, 0xed, 0xfd, 0xd9, 0x1a, 0x07, 0x00, 0x08, 0x03,
  0xe9, 0xe5, 0xf5, 0xd4, 0x0c, 0xe2, 0x16, 0xfc, 0xb1, 0xf9, 0x12, 0x17,
  0x27, 0x21, 0x02, 0xf0, 0xf3, 0xcf, 0x01, 0xdf, 0xf2, 0x16, 0x22, 0x13,
  0x26, 0xf2, 0xfb, 0xd7, 0xd8, 0xe9, 0x01, 0xe9, 0x24, 0xec, 0xf6, 0x2a,
  0x26, 0xe9, 0xd8, 0x21, 0xe9, 0xd3, 0xfb, 0xbd, 0x09, 0x01, 0xd8, 0x09,
  0x25, 0xde, 0xea, 0xfa, 0x07, 0xf7, 0x01, 0x07, 0x13, 0x81, 0xfc, 0x09,
  0xf4, 0xf9, 0x10, 0x02, 0x1a, 0xdf, 0xc6, 0xf6, 0xfe, 0x17, 0xff, 0xe5,
  0xde, 0x10, 0x06, 0xeb, 0x08, 0xe5, 0xc8, 0x0a, 0xf0, 0xf3, 0x21, 0xe9,
  0x16, 0xdf, 0xff, 0xff, 0x04, 0x00, 0x00, 0x00, 0x90, 0x01, 0x00, 0x00,
  0x59, 0xfe, 0xff, 0xff, 0xc4, 0x0f, 0x00, 0x00, 0x4d, 0xff, 0xff, 0xff,
  0x2e, 0x03, 0x00, 0x00, 0xd5, 0xf0, 0xff, 0xff, 0xa7, 0x06, 0x00, 0x00,
  0x9b, 0xef, 0xff, 0xff, 0x62, 0xe5, 0xff, 0xff, 0x75, 0xee, 0xff, 0xff,
  0xb8, 0xf9, 0xff, 0xff, 0xad, 0xe4, 0xff, 0xff, 0x2d, 0xf3, 0xff, 0xff,
  0x68, 0x11, 0x00, 0x00, 0xa0, 0xec, 0xff, 0xff, 0x69, 0xf0, 0xff, 0xff,
  0xc3, 0xf3, 0xff, 0xff, 0x85, 0xf1, 0xff, 0xff, 0xe3, 0xe8, 0xff, 0xff,
  0x10, 0xe6, 0xff, 0xff, 0x2d, 0x08, 0x00, 0x00, 0xfc, 0xf1, 0xff, 0xff,
  0x0f, 0xf4, 0xff, 0xff, 0xf5, 0x19, 0x00, 0x00, 0x64, 0xf4, 0xff, 0xff,
  0x0a, 0x0f, 0x00, 0x00, 0xa1, 0xe9, 0xff, 0xff, 0x76, 0xfd, 0xff, 0xff,
  0x8b, 0xf7, 0xff, 0xff, 0x5b, 0xf5, 0xff, 0xff, 0x58, 0x0e, 0x00, 0x00,
  0x7f, 0xf8, 0xff, 0xff, 0x63, 0x07, 0x00, 0x00, 0xa3, 0xe8, 0xff, 0xff,
  0x8f, 0xf1, 0xff, 0xff, 0x66, 0xea, 0xff, 0xff, 0x28, 0xf0, 0xff, 0xff,
  0x9d, 0xe9, 0xff, 0xff, 0x1b, 0x04, 0x00, 0x00, 0xae, 0xf6, 0xff, 0xff,
  0xaf, 0xfd, 0xff, 0xff, 0x9f, 0xf8, 0xff, 0xff, 0x92, 0xe8, 0xff, 0xff,
  0x94, 0xf7, 0xff, 0xff, 0x72, 0xed, 0xff, 0xff, 0xca, 0xf2, 0xff, 0xff,
  0xe0, 0xf1, 0xff, 0xff, 0x98, 0x07, 0x00, 0x00, 0x84, 0xe7, 0xff, 0xff,
  0x34, 0x14, 0x00, 0x00, 0x89, 0xf8, 0xff, 0xff, 0xbb, 0xe3, 0xff, 0xff,
  0x8c, 0xf4, 0xff, 0xff, 0x9c, 0x12, 0x00, 0x00, 0x64, 0xf0, 0xff, 0xff,
  0xb7, 0xf0, 0xff, 0xff, 0xed, 0xf5, 0xff, 0xff, 0xe1, 0xf0, 0xff, 0xff,
  0xf9, 0xf8, 0xff, 0xff, 0x80, 0xf2, 0xff, 0xff, 0xdd, 0x02, 0x00, 0x00,
  0x65, 0xe9, 0xff, 0xff, 0x83, 0x09, 0x00, 0x00, 0xb5, 0x13, 0x00, 0x00,
  0x4b, 0xf5, 0xff, 0xff, 0xca, 0xf6, 0xff, 0xff, 0x9f, 0x0c, 0x00, 0x00,
  0xc8, 0x09, 0x00, 0x00, 0x0f, 0xf5, 0xff, 0xff, 0x22, 0xf8, 0xff, 0xff,
  0x0e, 0xf6, 0xff, 0xff, 0x87, 0xf1, 0xff, 0xff, 0xe0, 0xfc, 0xff, 0xff,
  0xa4, 0xf7, 0xff, 0xff, 0x0c, 0x23, 0x00, 0x00, 0xff, 0xf7, 0xff, 0xff,
  0x1b, 0xf0, 0xff, 0xff, 0xc5, 0xf0, 0xff, 0xff, 0xa6, 0xec, 0xff, 0xff,
  0x7b, 0xef, 0xff, 0xff, 0x18, 0xf3, 0xff, 0xff, 0x75, 0xf7, 0xff, 0xff,
  0x10, 0xec, 0xff, 0xff, 0x94, 0x0a, 0x00, 0x00, 0x7b, 0xe8, 0xff, 0xff,
  0x04, 0xed, 0xff, 0xff, 0x85, 0xf2, 0xff, 0xff, 0x6e, 0xf3, 0xff, 0xff,
  0x6c, 0xeb, 0xff, 0xff, 0x31, 0xed, 0xff, 0xff, 0x1e, 0xec, 0xff, 0xff,
  0xc2, 0xf4, 0xff, 0xff, 0xb0, 0xed, 0xff, 0xff, 0xa0, 0xf5, 0xff, 0xff,
  0xcb, 0xf3, 0xff, 0xff, 0x8e, 0x0a, 0x00, 0x00, 0xeb, 0x0f, 0x00, 0x00,
  0xd4, 0x06, 0x00, 0x00, 0xf8, 0xf0, 0xff, 0xff, 0x5e, 0xe8, 0xff, 0xff,
  0xd8, 0xed, 0xff, 0xff, 0xb2, 0xe0, 0xff, 0xff, 0x04, 0x00, 0x00, 0x00,
  0xe8, 0x03, 0x00, 0x00, 0x4b, 0x04, 0xef, 0x3e, 0x00, 0x00, 0x04, 0xb1,
  0x01, 0xf0, 0x3d, 0xf5, 0xfc, 0x46, 0x09, 0xff, 0x07, 0xb9, 0xde, 0xee,
  0xf5, 0xbb, 0xc4, 0xfa, 0xcb, 0xc8, 0x14, 0xe3, 0x03, 0xfe, 0xf9, 0xdb,
  0xdf, 0xf7, 0xda, 0xd4, 0x16, 0x13, 0x07, 0x01, 0x06, 0x27, 0xde, 0xe3,
  0xe9, 0xd9, 0x1a, 0xf9, 0x09, 0x0f, 0xbc, 0x07, 0x0a, 0xe8, 0x2a, 0x10,
  0xdd, 0xe2, 0x09, 0x24, 0x04, 0x1f, 0xdf, 0xeb, 0x14, 0xd0, 0x06, 0x1e,
  0xfb, 0x00, 0xf1, 0x0e, 0x08, 0xf7, 0xf2, 0xf7, 0xff, 0xfa, 0x0b, 0xf7,
  0x00, 0xec, 0xde, 0xff, 0x13, 0x11, 0xe0, 0x12, 0x0f, 0x12, 0xd0, 0x33,
  0xe6, 0xf6, 0xe4, 0xdd, 0x1e, 0x23, 0x18, 0x02, 0x14, 0x36, 0xda, 0xde,
  0xfd, 0xe5, 0x10, 0xe4, 0x01, 0x19, 0xe1, 0xf3, 0x22, 0xf6, 0x1c, 0x18,
  0xcd, 0x0b, 0x00, 0x14, 0xf1, 0xe1, 0xc3, 0x01, 0xe6, 0xaa, 0x35, 0x03,
  0xfc, 0x08, 0xeb, 0xf9, 0x05, 0xfe, 0xfd, 0x29, 0xe2, 0xfc, 0x1a, 0x0e,
  0xfd, 0xc6, 0x0e, 0xf7, 0x0d, 0x22, 0x1d, 0x13, 0x19, 0x09, 0xfc, 0xdb,
  0x09, 0x06, 0x01, 0x0d, 0xf6, 0xf7, 0x06, 0x04, 0xdd, 0xe2, 0xed, 0xe6,
  0xd9, 0xdc, 0x0f, 0x38, 0x13, 0xfc, 0xe8, 0x00, 0xdb, 0xf1, 0x0c, 0xf5,
  0x1d, 0x30, 0x1c, 0xfd, 0x1c, 0x2b, 0xfc, 0xdb, 0x06, 0xfb, 0xfd, 0xde,
  0x03, 0x06, 0x0b, 0x05, 0xbd, 0xf8, 0xd3, 0xb7, 0x30, 0xf0, 0x01, 0xfe,
  0xee, 0x09, 0xfc, 0xf6, 0x1a, 0x34, 0xea, 0x0a, 0x12, 0x07, 0xfb, 0x2d,
  0xcc, 0xfe, 0x07, 0xdb, 0x03, 0xdf, 0x10, 0x09, 0xf8, 0x0d, 0x5c, 0x03,
  0x45, 0x61, 0x9f, 0x15, 0xf5, 0x05, 0xf6, 0x1c, 0xe8, 0xea, 0xed, 0x14,
  0x00, 0x07, 0x0c, 0xf9, 0x08, 0xc8, 0xf6, 0x1b, 0xeb, 0x09, 0x0b, 0xe6,
  0x01, 0xe0, 0xeb, 0x04, 0x00, 0x0f, 0x16, 0x01, 0xeb, 0xee, 0x11, 0xfe,
  0xda, 0x1d, 0x06, 0xd6, 0x2e, 0x08, 0x03, 0xe3, 0xfb, 0x51, 0xef, 0x31,
  0xfc, 0xce, 0x38, 0x0a, 0xd4, 0xee, 0xf4, 0x4b, 0xc0, 0x1c, 0x27, 0x05,
  0x18, 0x1d, 0xe7, 0x0a, 0xf3, 0x2d, 0xd5, 0x27, 0x3a, 0x02, 0x1b, 0x42,
  0xcd, 0xff, 0xff, 0x10, 0x1a, 0xfe, 0x05, 0xdb, 0xff, 0x05, 0x00, 0xe7,
  0xf5, 0x0c, 0x26, 0x06, 0xfd, 0xb6, 0x0d, 0x04, 0xf8, 0xc8, 0xe8, 0xed,
  0x1d, 0x18, 0xf9, 0xf2, 0x08, 0xf1, 0xfb, 0x07, 0xfc, 0x10, 0x11, 0x2c,
  0xd1, 0xe4, 0xdf, 0xcf, 0x15, 0x23, 0xfe, 0x0b, 0xe2, 0xe3, 0xf7, 0xf0,
  0xe2, 0xfc, 0x22, 0x08, 0x28, 0x07, 0xd8, 0x02, 0xe4, 0xec, 0xe2, 0xe7,
  0x1c, 0x2f, 0x1d, 0x01, 0xec, 0x09, 0x02, 0xf2, 0x20, 0xdf, 0x2c, 0x36,
  0x09, 0x10, 0xd3, 0x0c, 0xf8, 0xf9, 0x08, 0x2c, 0xf4, 0x0b, 0xfa, 0x1b,
  0xc2, 0x22, 0x23, 0x01, 0x1b, 0x22, 0xe3, 0x04, 0xfa, 0x25, 0xe5, 0x12,
  0x18, 0xe7, 0x3f, 0x1d, 0xff, 0x0c, 0x11, 0x1c, 0xc3, 0x29, 0x1f, 0x15,
  0x17, 0x18, 0xdc, 0x05, 0xf4, 0x33, 0xf0, 0x00, 0xfd, 0x09, 0x0b, 0x02,
  0x00, 0x0a, 0x03, 0xf1, 0x07, 0x02, 0x05, 0x16, 0x09, 0x0f, 0xeb, 0xfd,
  0x10, 0xdf, 0x12, 0x25, 0xe5, 0xdf, 0xf6, 0xf1, 0x0f, 0xf4, 0x05, 0x12,
  0xee, 0xdb, 0x0b, 0xf3, 0xe0, 0x03, 0x18, 0x4d, 0x19, 0xf0, 0xe4, 0x0f,
  0xf8, 0xf2, 0xf1, 0xdf, 0x20, 0x34, 0x23, 0xfb, 0x0a, 0xab, 0x81, 0x09,
  0xbf, 0x9e, 0x6d, 0xd8, 0xf3, 0x0f, 0xf9, 0xf7, 0xcf, 0x0d, 0x0d, 0xfd,
  0xfc, 0x0f, 0x08, 0xfe, 0xf8, 0x29, 0x55, 0x0f, 0x47, 0x64, 0x98, 0xfd,
  0xf3, 0x07, 0x0d, 0x03, 0xf5, 0x25, 0x10, 0x05, 0xfa, 0x07, 0x09, 0xe3,
  0xfe, 0xdb, 0xff, 0x00, 0xe2, 0xfe, 0x1f, 0xeb, 0x07, 0x09, 0xbe, 0x17,
  0x21, 0xf6, 0x24, 0x22, 0xca, 0x09, 0x04, 0x12, 0x0a, 0x27, 0x63, 0x03,
  0x46, 0x5b, 0x91, 0xfa, 0xe8, 0xf4, 0x0c, 0x2a, 0xe5, 0xee, 0xfd, 0xeb,
  0x05, 0xf1, 0x09, 0x0e, 0xf1, 0xc9, 0xf7, 0xe1, 0xdf, 0xe2, 0xfa, 0x01,
  0x13, 0x0a, 0xbd, 0x10, 0x19, 0xf2, 0x1b, 0x37, 0xef, 0x07, 0x07, 0x14,
  0xd3, 0xfa, 0xe5, 0xeb, 0xed, 0xdc, 0x1b, 0x2c, 0x24, 0xfd, 0x06, 0xfa,
  0x02, 0x18, 0xf9, 0xfe, 0xff, 0xfc, 0x04, 0xea, 0xcf, 0x03, 0xed, 0xf5,
  0xdf, 0xe7, 0x16, 0x21, 0x26, 0x01, 0x07, 0xcb, 0xfd, 0x12, 0xeb, 0x09,
  0xe2, 0x09, 0x1a, 0xe9, 0xf7, 0xfd, 0x02, 0x00, 0x07, 0x24, 0xe4, 0x00,
  0x11, 0x04, 0xdf, 0xd2, 0xec, 0x05, 0xf0, 0xcc, 0x4a, 0xe5, 0x06, 0x20,
  0x03, 0x0b, 0x98, 0xf6, 0xb7, 0x88, 0x6b, 0xe6, 0xfb, 0x07, 0xe4, 0x16,
  0x02, 0xf2, 0x21, 0xfe, 0xdd, 0x07, 0x13, 0x0e, 0xc2, 0x12, 0x22, 0xf4,
  0x26, 0x1b, 0xca, 0x0a, 0x04, 0x1f, 0x1b, 0xf5, 0x02, 0x31, 0x05, 0x0b,
  0x05, 0xd7, 0xfe, 0xd2, 0x35, 0xfe, 0x09, 0x2b, 0x02, 0x03, 0xfb, 0xdb,
  0xf1, 0xdb, 0x06, 0x00, 0x0f, 0x19, 0x18, 0x11, 0xeb, 0x03, 0x0a, 0xef,
  0x0c, 0x10, 0xff, 0xe7, 0x0d, 0xff, 0xfb, 0xeb, 0xf1, 0x25, 0xfe, 0x03,
  0x03, 0x01, 0x0c, 0x05, 0xf8, 0x04, 0x0f, 0xfa, 0xe2, 0x0c, 0x01, 0xfe,
  0x12, 0x02, 0xbd, 0x05, 0x04, 0x0f, 0x08, 0xf5, 0x10, 0x08, 0x20, 0x0c,
  0xf7, 0x03, 0xfd, 0xe2, 0xee, 0x02, 0x1c, 0xe6, 0x1e, 0x07, 0xe6, 0x0b,
  0x19, 0x1e, 0x22, 0x94, 0x05, 0x25, 0xe0, 0xfc, 0x19, 0xe5, 0x05, 0xb0,
  0xe3, 0x1e, 0xf1, 0xf6, 0xeb, 0xe0, 0xf4, 0x27, 0x1f, 0xfb, 0xe0, 0x0a,
  0x13, 0xf7, 0x00, 0x1d, 0xd2, 0x0a, 0x22, 0x06, 0xf6, 0xfb, 0x07, 0xf1,
  0xc8, 0x05, 0xf8, 0x03, 0x04, 0x0c, 0x11, 0x24, 0xf9, 0xee, 0xff, 0xf2,
  0xff, 0xeb, 0xfc, 0x1c, 0x10, 0x30, 0xfb, 0xe1, 0x16, 0x06, 0x02, 0xfa,
  0x12, 0x2e, 0xfd, 0x0a, 0x03, 0xf6, 0x03, 0xff, 0x01, 0x13, 0xfc, 0x01,
  0xe0, 0x0a, 0x1e, 0xfd, 0x27, 0x29, 0xd8, 0x15, 0x0b, 0x12, 0xe9, 0xdf,
  0xeb, 0xea, 0xe0, 0x02, 0x17, 0x2c, 0x13, 0xff, 0x31, 0x01, 0xfc, 0x19,
  0xe5, 0xf7, 0x12, 0xd8, 0xfa, 0xe1, 0xf1, 0xc0, 0x09, 0xed, 0x13, 0x01,
  0xfe, 0x09, 0x07, 0x0d, 0xf2, 0x1b, 0xe9, 0xe9, 0x02, 0xe7, 0x04, 0xfd,
  0xed, 0x0e, 0xcc, 0x05, 0x1b, 0xf8, 0x01, 0x1c, 0xe1, 0x11, 0x23, 0x0c,
  0xec, 0xfd, 0x15, 0xf6, 0x1a, 0x0d, 0xd6, 0x0a, 0x17, 0x08, 0x1c, 0x1c,
  0xd9, 0x00, 0xfc, 0xe2, 0x03, 0x14, 0xfb, 0x0c, 0xda, 0x03, 0xe7, 0xeb,
  0x09, 0xde, 0x17, 0x26, 0x16, 0xfa, 0x1e, 0x18, 0xf9, 0xf4, 0x01, 0xf2,
  0x04, 0xf2, 0x00, 0x1e, 0xd2, 0x0c, 0xf1, 0xec, 0xdf, 0xd9, 0xf5, 0x2b,
  0x26, 0xfe, 0xfa, 0xdf, 0xe5, 0xeb, 0x22, 0xe4, 0x1f, 0xeb, 0x05, 0x16,
  0xd1, 0x11, 0xf9, 0xf7, 0xde, 0xe0, 0x0f, 0x1e, 0x28, 0x03, 0xf9, 0xe5,
  0xe2, 0xf9, 0x1a, 0x0c, 0x03, 0x12, 0x20, 0xf8, 0x26, 0xf0, 0x01, 0x1e,
  0xed, 0xfb, 0x0d, 0xc0, 0xfc, 0xd3, 0x0f, 0x37, 0x50, 0x0f, 0x20, 0x4e,
  0xde, 0x0c, 0xfe, 0xf4, 0x31, 0xf3, 0xff, 0x33, 0xfe, 0xff, 0x05, 0xdb,
  0xfa, 0xed, 0xf5, 0x09, 0xd6, 0xec, 0xf9, 0x25, 0x1d, 0xd0, 0xf8, 0x17,
  0xf1, 0x16, 0x01, 0xff, 0x12, 0x38, 0x07, 0x14, 0x04, 0x05, 0xf1, 0xd0,
  0xec, 0xe8, 0xec, 0x0b, 0xf5, 0x26, 0x09, 0x10, 0xa6, 0xe4, 0xff, 0xff,
  0x04, 0x00, 0x00, 0x00, 0x01, 0x00, 0x00, 0x00, 0x00, 0x00, 0x00, 0x00,
  0xb6, 0xe4, 0xff, 0xff, 0x04, 0x00, 0x00, 0x00, 0x0c, 0x00, 0x00, 0x00,
  0x01, 0x00, 0x00, 0x00, 0x01, 0x00, 0x00, 0x00, 0x01, 0x00, 0x00, 0x00,
  0xce, 0xe4, 0xff, 0xff, 0x04, 0x00, 0x00, 0x00, 0x0c, 0x00, 0x00, 0x00,
  0x00, 0x00, 0x00, 0x00, 0xff, 0xff, 0xff, 0xff, 0x0a, 0x00, 0x00, 0x00,
  0xe6, 0xe4, 0xff, 0xff, 0x04, 0x00, 0x00, 0x00, 0x0c, 0x00, 0x00, 0x00,
  0xff, 0xff, 0xff, 0xff, 0x00, 0x00, 0x00, 0x00, 0x00, 0x00, 0x00, 0x00,
  0xfe, 0xe4, 0xff, 0xff, 0x04, 0x00, 0x00, 0x00, 0x04, 0x00, 0x00, 0x00,
  0x00, 0x00, 0x00, 0x00, 0x0e, 0xe5, 0xff, 0xff, 0x04, 0x00, 0x00, 0x00,
  0x08, 0x00, 0x00, 0x00, 0xff, 0xff, 0xff, 0xff, 0x09, 0x00, 0x00, 0x00,
  0x22, 0xe5, 0xff, 0xff, 0x04, 0x00, 0x00, 0x00, 0x0c, 0x00, 0x00, 0x00,
  0x01, 0x00, 0x00, 0x00, 0x00, 0x00, 0x00, 0x00, 0x02, 0x00, 0x00, 0x00,
  0x3a, 0xe5, 0xff, 0xff, 0x04, 0x00, 0x00, 0x00, 0x04, 0x00, 0x00, 0x00,
  0x01, 0x00, 0x00, 0x00, 0x4a, 0xe5, 0xff, 0xff, 0x04, 0x00, 0x00, 0x00,
  0x08, 0x00, 0x00, 0x00, 0xff, 0xff, 0xff, 0xff, 0x0a, 0x00, 0x00, 0x00,
  0x5e, 0xe5, 0xff, 0xff, 0x04, 0x00, 0x00, 0x00, 0x04, 0x00, 0x00, 0x00,
  0x0a, 0x00, 0x00, 0x00, 0x6e, 0xe5, 0xff, 0xff, 0x04, 0x00, 0x00, 0x00,
  0x04, 0x00, 0x00, 0x00, 0x01, 0x00, 0x00, 0x00, 0x7e, 0xe5, 0xff, 0xff,
  0x04, 0x00, 0x00, 0x00, 0x04, 0x00, 0x00, 0x00, 0x00, 0x00, 0x00, 0x00,
  0x58, 0xd7, 0xff, 0xff, 0x5c, 0xd7, 0xff, 0xff, 0x0f, 0x00, 0x00, 0x00,
  0x4d, 0x4c, 0x49, 0x52, 0x20, 0x43, 0x6f, 0x6e, 0x76, 0x65, 0x72, 0x74,
  0x65, 0x64, 0x2e, 0x00, 0x03, 0x00, 0x00, 0x00, 0x14, 0x16, 0x00, 0x00,
  0xd0, 0x13, 0x00, 0x00, 0x04, 0x00, 0x00, 0x00, 0x06, 0xea, 0xff, 0xff,
  0x14, 0x00, 0x00, 0x00, 0x20, 0x00, 0x00, 0x00, 0x5c, 0x05, 0x00, 0x00,
  0x74, 0x05, 0x00, 0x00, 0x8c, 0x05, 0x00, 0x00, 0x0a, 0x00, 0x00, 0x00,
  0x77, 0x68, 0x69, 0x6c, 0x65, 0x5f, 0x62, 0x6f, 0x64, 0x79, 0x00, 0x00,
  0x17, 0x00, 0x00, 0x00, 0x1c, 0x05, 0x00, 0x00, 0xf8, 0x04, 0x00, 0x00,
  0xc4, 0x04, 0x00, 0x00, 0x8c, 0x04, 0x00, 0x00, 0xcc, 0x03, 0x00, 0x00,
  0xa8, 0x03, 0x00, 0x00, 0x70, 0x03, 0x00, 0x00, 0x3c, 0x03, 0x00, 0x00,
  0x08, 0x03, 0x00, 0x00, 0xc4, 0x02, 0x00, 0x00, 0xa0, 0x02, 0x00, 0x00,
  0x7c, 0x02, 0x00, 0x00, 0x48, 0x02, 0x00, 0x00, 0x24, 0x02, 0x00, 0x00,
  0x00, 0x02, 0x00, 0x00, 0xcc, 0x01, 0x00, 0x00, 0x98, 0x01, 0x00, 0x00,
  0x74, 0x01, 0x00, 0x00, 0x50, 0x01, 0x00, 0x00, 0x1c, 0x01, 0x00, 0x00,
  0xf8, 0x00, 0x00, 0x00, 0x38, 0x00, 0x00, 0x00, 0x04, 0x00, 0x00, 0x00,
  0x1e, 0xe6, 0xff, 0xff, 0x14, 0x00, 0x00, 0x00, 0x00, 0x00, 0x00, 0x0b,
  0x10, 0x00, 0x00, 0x00, 0x14, 0x00, 0x00, 0x00, 0x0e, 0x00, 0x00, 0x00,
  0x24, 0xd8, 0xff, 0xff, 0x01, 0x00, 0x00, 0x00, 0x25, 0x00, 0x00, 0x00,
  0x02, 0x00, 0x00, 0x00, 0x00, 0x00, 0x00, 0x00, 0x06, 0x00, 0x00, 0x00,
  0x78, 0xe7, 0xff, 0xff, 0x10, 0x00, 0x00, 0x00, 0x9c, 0x00, 0x00, 0x00,
  0xa0, 0x00, 0x00, 0x00, 0x14, 0x00, 0x00, 0x00, 0x8b, 0x00, 0x00, 0x00,
  0x11, 0x54, 0x65, 0x6e, 0x73, 0x6f, 0x72, 0x4c, 0x69, 0x73, 0x74, 0x53,
  0x65, 0x74, 0x49, 0x74, 0x65, 0x6d, 0x00, 0x6e, 0x12, 0x11, 0x54, 0x65,
  0x6e, 0x73, 0x6f, 0x72, 0x4c, 0x69, 0x73, 0x74, 0x53, 0x65, 0x74, 0x49,
  0x74, 0x65, 0x6d, 0x1a, 0x00, 0x1a, 0x00, 0x1a, 0x00, 0x2a, 0x13, 0x0a,
  0x0d, 0x65, 0x6c, 0x65, 0x6d, 0x65, 0x6e, 0x74, 0x5f, 0x64, 0x74, 0x79,
  0x70, 0x65, 0x12, 0x02, 0x30, 0x01, 0x32, 0x3e, 0x0a, 0x2a, 0x77, 0x68,
  0x69, 0x6c, 0x65, 0x2f, 0x54, 0x65, 0x6e, 0x73, 0x6f, 0x72, 0x41, 0x72,
  0x72, 0x61, 0x79, 0x56, 0x32, 0x57, 0x72, 0x69, 0x74, 0x65, 0x2f, 0x54,
  0x65, 0x6e, 0x73, 0x6f, 0x72, 0x4c, 0x69, 0x73, 0x74, 0x53, 0x65, 0x74,
  0x49, 0x74, 0x65, 0x6d, 0x12, 0x10, 0x77, 0x68, 0x69, 0x6c, 0x65, 0x5f,
  0x62, 0x6f, 0x64, 0x79, 0x5f, 0x36, 0x30, 0x39, 0x33, 0x36, 0x00, 0x02,
  0x83, 0x71, 0x14, 0x14, 0x04, 0x28, 0x01, 0x00, 0x01, 0x00, 0x00, 0x00,
  0x24, 0x00, 0x00, 0x00, 0x03, 0x00, 0x00, 0x00, 0x02, 0x00, 0x00, 0x00,
  0x08, 0x00, 0x00, 0x00, 0x23, 0x00, 0x00, 0x00, 0x76, 0xe7, 0xff, 0xff,
  0x0c, 0x00, 0x00, 0x00, 0x10, 0x00, 0x00, 0x00, 0x04, 0x00, 0x00, 0x00,
  0x01, 0x00, 0x00, 0x00, 0x23, 0x00, 0x00, 0x00, 0x01, 0x00, 0x00, 0x00,
  0x22, 0x00, 0x00, 0x00, 0x2a, 0xe7, 0xff, 0xff, 0x14, 0x00, 0x00, 0x00,
  0x00, 0x00, 0x00, 0x15, 0x10, 0x00, 0x00, 0x00, 0x14, 0x00, 0x00, 0x00,
  0x12, 0x00, 0x00, 0x00, 0x30, 0xd9, 0xff, 0xff, 0x01, 0x00, 0x00, 0x00,
  0x22, 0x00, 0x00, 0x00, 0x02, 0x00, 0x00, 0x00, 0x1c, 0x00, 0x00, 0x00,
  0x21, 0x00, 0x00, 0x00, 0xc6, 0xe7, 0xff, 0xff, 0x0c, 0x00, 0x00, 0x00,
  0x10, 0x00, 0x00, 0x00, 0x13, 0x00, 0x00, 0x00, 0x01, 0x00, 0x00, 0x00,
  0x21, 0x00, 0x00, 0x00, 0x01, 0x00, 0x00, 0x00, 0x1f, 0x00, 0x00, 0x00,
  0xe6, 0xe7, 0xff, 0xff, 0x0c, 0x00, 0x00, 0x00, 0x10, 0x00, 0x00, 0x00,
  0x04, 0x00, 0x00, 0x00, 0x01, 0x00, 0x00, 0x00, 0x20, 0x00, 0x00, 0x00,
  0x01, 0x00, 0x00, 0x00, 0x1f, 0x00, 0x00, 0x00, 0x9a, 0xe7, 0xff, 0xff,
  0x14, 0x00, 0x00, 0x00, 0x00, 0x00, 0x00, 0x0b, 0x10, 0x00, 0x00, 0x00,
  0x14, 0x00, 0x00, 0x00, 0x0e, 0x00, 0x00, 0x00, 0xa0, 0xd9, 0xff, 0xff,
  0x01, 0x00, 0x00, 0x00, 0x1f, 0x00, 0x00, 0x00, 0x02, 0x00, 0x00, 0x00,
  0x1b, 0x00, 0x00, 0x00, 0x1e, 0x00, 0x00, 0x00, 0xca, 0xe7, 0xff, 0xff,
  0x14, 0x00, 0x00, 0x00, 0x00, 0x00, 0x00, 0x15, 0x10, 0x00, 0x00, 0x00,
  0x14, 0x00, 0x00, 0x00, 0x12, 0x00, 0x00, 0x00, 0xd0, 0xd9, 0xff, 0xff,
  0x01, 0x00, 0x00, 0x00, 0x1e, 0x00, 0x00, 0x00, 0x02, 0x00, 0x00, 0x00,
  0x19, 0x00, 0x00, 0x00, 0x1d, 0x00, 0x00, 0x00, 0x66, 0xe8, 0xff, 0xff,
  0x0c, 0x00, 0x00, 0x00, 0x10, 0x00, 0x00, 0x00, 0x13, 0x00, 0x00, 0x00,
  0x01, 0x00, 0x00, 0x00, 0x1d, 0x00, 0x00, 0x00, 0x01, 0x00, 0x00, 0x00,
  0x17, 0x00, 0x00, 0x00, 0x86, 0xe8, 0xff, 0xff, 0x0c, 0x00, 0x00, 0x00,
  0x10, 0x00, 0x00, 0x00, 0x11, 0x00, 0x00, 0x00, 0x01, 0x00, 0x00, 0x00,
  0x1c, 0x00, 0x00, 0x00, 0x01, 0x00, 0x00, 0x00, 0x18, 0x00, 0x00, 0x00,
  0x3a, 0xe8, 0xff, 0xff, 0x14, 0x00, 0x00, 0x00, 0x00, 0x00, 0x00, 0x15,
  0x10, 0x00, 0x00, 0x00, 0x14, 0x00, 0x00, 0x00, 0x12, 0x00, 0x00, 0x00,
  0x40, 0xda, 0xff, 0xff, 0x01, 0x00, 0x00, 0x00, 0x1b, 0x00, 0x00, 0x00,
  0x02, 0x00, 0x00, 0x00, 0x1a, 0x00, 0x00, 0x00, 0x0d, 0x00, 0x00, 0x00,
  0xd6, 0xe8, 0xff, 0xff, 0x0c, 0x00, 0x00, 0x00, 0x10, 0x00, 0x00, 0x00,
  0x11, 0x00, 0x00, 0x00, 0x01, 0x00, 0x00, 0x00, 0x1a, 0x00, 0x00, 0x00,
  0x01, 0x00, 0x00, 0x00, 0x16, 0x00, 0x00, 0x00, 0xf6, 0xe8, 0xff, 0xff,
  0x0c, 0x00, 0x00, 0x00, 0x10, 0x00, 0x00, 0x00, 0x11, 0x00, 0x00, 0x00,
  0x01, 0x00, 0x00, 0x00, 0x19, 0x00, 0x00, 0x00, 0x01, 0x00, 0x00, 0x00,
  0x15, 0x00, 0x00, 0x00, 0xaa, 0xe8, 0xff, 0xff, 0x14, 0x00, 0x00, 0x00,
  0x00, 0x00, 0x00, 0x23, 0x14, 0x00, 0x00, 0x00, 0x24, 0x00, 0x00, 0x00,
  0x10, 0x00, 0x00, 0x00, 0xe6, 0xe8, 0xff, 0xff, 0x04, 0x00, 0x00, 0x00,
  0x04, 0x00, 0x00, 0x00, 0x15, 0x00, 0x00, 0x00, 0x16, 0x00, 0x00, 0x00,
  0x17, 0x00, 0x00, 0x00, 0x18, 0x00, 0x00, 0x00, 0x02, 0x00, 0x00, 0x00,
  0x06, 0x00, 0x00, 0x00, 0x14, 0x00, 0x00, 0x00, 0xea, 0xe8, 0xff, 0xff,
  0x14, 0x00, 0x00, 0x00, 0x00, 0x00, 0x00, 0x0b, 0x10, 0x00, 0x00, 0x00,
  0x14, 0x00, 0x00, 0x00, 0x0e, 0x00, 0x00, 0x00, 0xf0, 0xda, 0xff, 0xff,
  0x01, 0x00, 0x00, 0x00, 0x14, 0x00, 0x00, 0x00, 0x02, 0x00, 0x00, 0x00,
  0x13, 0x00, 0x00, 0x00, 0x0b, 0x00, 0x00, 0x00, 0x1a, 0xe9, 0xff, 0xff,
  0x14, 0x00, 0x00, 0x00, 0x00, 0x00, 0x00, 0x0b, 0x10, 0x00, 0x00, 0x00,
  0x14, 0x00, 0x00, 0x00, 0x0e, 0x00, 0x00, 0x00, 0x20, 0xdb, 0xff, 0xff,
  0x01, 0x00, 0x00, 0x00, 0x13, 0x00, 0x00, 0x00, 0x02, 0x00, 0x00, 0x00,
  0x12, 0x00, 0x00, 0x00, 0x0f, 0x00, 0x00, 0x00, 0x4a, 0xe9, 0xff, 0xff,
  0x14, 0x00, 0x00, 0x00, 0x00, 0x00, 0x00, 0x08, 0x10, 0x00, 0x00, 0x00,
  0x14, 0x00, 0x00, 0x00, 0x0b, 0x00, 0x00, 0x00, 0x50, 0xdb, 0xff, 0xff,
  0x01, 0x00, 0x00, 0x00, 0x12, 0x00, 0x00, 0x00, 0x03, 0x00, 0x00, 0x00,
  0x11, 0x00, 0x00, 0x00, 0x0a, 0x00, 0x00, 0x00, 0xff, 0xff, 0xff, 0xff,
  0xea, 0xe9, 0xff, 0xff, 0x0c, 0x00, 0x00, 0x00, 0x10, 0x00, 0x00, 0x00,
  0x0a, 0x00, 0x00, 0x00, 0x01, 0x00, 0x00, 0x00, 0x11, 0x00, 0x00, 0x00,
  0x01, 0x00, 0x00, 0x00, 0x10, 0x00, 0x00, 0x00, 0xc8, 0xea, 0xff, 0xff,
  0x10, 0x00, 0x00, 0x00, 0x9c, 0x00, 0x00, 0x00, 0xa0, 0x00, 0x00, 0x00,
  0x0f, 0x00, 0x00, 0x00, 0x8a, 0x00, 0x00, 0x00, 0x11, 0x54, 0x65, 0x6e,
  0x73, 0x6f, 0x72, 0x4c, 0x69, 0x73, 0x74, 0x47, 0x65, 0x74, 0x49, 0x74,
  0x65, 0x6d, 0x00, 0x6d, 0x12, 0x11, 0x54, 0x65, 0x6e, 0x73, 0x6f, 0x72,
  0x4c, 0x69, 0x73, 0x74, 0x47, 0x65, 0x74, 0x49, 0x74, 0x65, 0x6d, 0x1a,
  0x00, 0x1a, 0x00, 0x1a, 0x00, 0x2a, 0x13, 0x0a, 0x0d, 0x65, 0x6c, 0x65,
  0x6d, 0x65, 0x6e, 0x74, 0x5f, 0x64, 0x74, 0x79, 0x70, 0x65, 0x12, 0x02,
  0x30, 0x01, 0x32, 0x3d, 0x0a, 0x29, 0x77, 0x68, 0x69, 0x6c, 0x65, 0x2f,
  0x54, 0x65, 0x6e, 0x73, 0x6f, 0x72, 0x41, 0x72, 0x72, 0x61, 0x79, 0x56,
  0x32, 0x52, 0x65, 0x61, 0x64, 0x2f, 0x54, 0x65, 0x6e, 0x73, 0x6f, 0x72,
  0x4c, 0x69, 0x73, 0x74, 0x47, 0x65, 0x74, 0x49, 0x74, 0x65, 0x6d, 0x12,
  0x10, 0x77, 0x68, 0x69, 0x6c, 0x65, 0x5f, 0x62, 0x6f, 0x64, 0x79, 0x5f,
  0x36, 0x30, 0x39, 0x33, 0x36, 0x00, 0x02, 0x82, 0x70, 0x14, 0x14, 0x04,
  0x28, 0x01, 0x00, 0x00, 0x01, 0x00, 0x00, 0x00, 0x10, 0x00, 0x00, 0x00,
  0x03, 0x00, 0x00, 0x00, 0x05, 0x00, 0x00, 0x00, 0x01, 0x00, 0x00, 0x00,
  0x07, 0x00, 0x00, 0x00, 0x5a, 0xea, 0xff, 0xff, 0x14, 0x00, 0x00, 0x00,
  0x00, 0x00, 0x00, 0x08, 0x10, 0x00, 0x00, 0x00, 0x14, 0x00, 0x00, 0x00,
  0x0b, 0x00, 0x00, 0x00, 0x60, 0xdc, 0xff, 0xff, 0x01, 0x00, 0x00, 0x00,
  0x0f, 0x00, 0x00, 0x00, 0x03, 0x00, 0x00, 0x00, 0x0c, 0x00, 0x00, 0x00,
  0x09, 0x00, 0x00, 0x00, 0xff, 0xff, 0xff, 0xff, 0x8e, 0xea, 0xff, 0xff,
  0x14, 0x00, 0x00, 0x00, 0x00, 0x00, 0x00, 0x0b, 0x10, 0x00, 0x00, 0x00,
  0x14, 0x00, 0x00, 0x00, 0x0e, 0x00, 0x00, 0x00, 0x94, 0xdc, 0xff, 0xff,
  0x01, 0x00, 0x00, 0x00, 0x0e, 0x00, 0x00, 0x00, 0x02, 0x00, 0x00, 0x00,
  0x01, 0x00, 0x00, 0x00, 0x06, 0x00, 0x00, 0x00, 0x2a, 0xeb, 0xff, 0xff,
  0x0c, 0x00, 0x00, 0x00, 0x10, 0x00, 0x00, 0x00, 0x0a, 0x00, 0x00, 0x00,
  0x01, 0x00, 0x00, 0x00, 0x0d, 0x00, 0x00, 0x00, 0x01, 0x00, 0x00, 0x00,
  0x04, 0x00, 0x00, 0x00, 0x4a, 0xeb, 0xff, 0xff, 0x0c, 0x00, 0x00, 0x00,
  0x10, 0x00, 0x00, 0x00, 0x0a, 0x00, 0x00, 0x00, 0x01, 0x00, 0x00, 0x00,
  0x0c, 0x00, 0x00, 0x00, 0x01, 0x00, 0x00, 0x00, 0x03, 0x00, 0x00, 0x00,
  0x06, 0x00, 0x00, 0x00, 0x25, 0x00, 0x00, 0x00, 0x0e, 0x00, 0x00, 0x00,
  0x24, 0x00, 0x00, 0x00, 0x23, 0x00, 0x00, 0x00, 0x20, 0x00, 0x00, 0x00,
  0x05, 0x00, 0x00, 0x00, 0x06, 0x00, 0x00, 0x00, 0x00, 0x00, 0x00, 0x00,
  0x01, 0x00, 0x00, 0x00, 0x02, 0x00, 0x00, 0x00, 0x03, 0x00, 0x00, 0x00,
  0x04, 0x00, 0x00, 0x00, 0x05, 0x00, 0x00, 0x00, 0x26, 0x00, 0x00, 0x00,
  0xf8, 0x0d, 0x00, 0x00, 0xc8, 0x0d, 0x00, 0x00, 0x98, 0x0d, 0x00, 0x00,
  0x54, 0x0d, 0x00, 0x00, 0x10, 0x0d, 0x00, 0x00, 0xe0, 0x0c, 0x00, 0x00,
  0x98, 0x0c, 0x00, 0x00, 0x34, 0x0c, 0x00, 0x00, 0x04, 0x0c, 0x00, 0x00,
  0xa4, 0x0b, 0x00, 0x00, 0x48, 0x0b, 0x00, 0x00, 0xd4, 0x0a, 0x00, 0x00,
  0x68, 0x0a, 0x00, 0x00, 0xfc, 0x09, 0x00, 0x00, 0xc8, 0x09, 0x00, 0x00,
  0x5c, 0x09, 0x00, 0x00, 0xf4, 0x08, 0x00, 0x00, 0x84, 0x08, 0x00, 0x00,
  0x18, 0x08, 0x00, 0x00, 0xac, 0x07, 0x00, 0x00, 0x40, 0x07, 0x00, 0x00,
  0xac, 0x06, 0x00, 0x00, 0x18, 0x06, 0x00, 0x00, 0x84, 0x05, 0x00, 0x00,
  0xf0, 0x04, 0x00, 0x00, 0x84, 0x04, 0x00, 0x00, 0x18, 0x04, 0x00, 0x00,
  0xac, 0x03, 0x00, 0x00, 0x40, 0x03, 0x00, 0x00, 0xd4, 0x02, 0x00, 0x00,
  0x68, 0x02, 0x00, 0x00, 0xfc, 0x01, 0x00, 0x00, 0xb0, 0x01, 0x00, 0x00,
  0x44, 0x01, 0x00, 0x00, 0xd8, 0x00, 0x00, 0x00, 0x8c, 0x00, 0x00, 0x00,
  0x38, 0x00, 0x00, 0x00, 0x04, 0x00, 0x00, 0x00, 0xe6, 0xdd, 0xff, 0xff,
  0x14, 0x00, 0x00, 0x00, 0x14, 0x00, 0x00, 0x00, 0x54, 0x00, 0x00, 0x00,
  0x00, 0x00, 0x00, 0x02, 0x18, 0x00, 0x00, 0x00, 0xd8, 0xdd, 0xff, 0xff,
  0x0b, 0x00, 0x00, 0x00, 0x77, 0x68, 0x69, 0x6c, 0x65, 0x2f, 0x61, 0x64,
  0x64, 0x5f, 0x33, 0x00, 0x00, 0x00, 0x00, 0x00, 0x16, 0xde, 0xff, 0xff,
  0x14, 0x00, 0x00, 0x00, 0x14, 0x00, 0x00, 0x00, 0x53, 0x00, 0x00, 0x00,
  0x00, 0x00, 0x00, 0x0e, 0x38, 0x00, 0x00, 0x00, 0x08, 0xde, 0xff, 0xff,
  0x2a, 0x00, 0x00, 0x00, 0x77, 0x68, 0x69, 0x6c, 0x65, 0x2f, 0x54, 0x65,
  0x6e, 0x73, 0x6f, 0x72, 0x41, 0x72, 0x72, 0x61, 0x79, 0x56, 0x32, 0x57,
  0x72, 0x69, 0x74, 0x65, 0x2f, 0x54, 0x65, 0x6e, 0x73, 0x6f, 0x72, 0x4c,
  0x69, 0x73, 0x74, 0x53, 0x65, 0x74, 0x49, 0x74, 0x65, 0x6d, 0x00, 0x00,
  0x00, 0x00, 0x00, 0x00, 0xc4, 0xe4, 0xff, 0xff, 0x14, 0x00, 0x00, 0x00,
  0x1c, 0x00, 0x00, 0x00, 0x1c, 0x00, 0x00, 0x00, 0x52, 0x00, 0x00, 0x00,
  0x28, 0x00, 0x00, 0x00, 0x02, 0x00, 0x00, 0x00, 0xff, 0xff, 0xff, 0xff,
  0x0a, 0x00, 0x00, 0x00, 0x64, 0xde, 0xff, 0xff, 0x0f, 0x00, 0x00, 0x00,
  0x74, 0x66, 0x6c, 0x2e, 0x64, 0x65, 0x71, 0x75, 0x61, 0x6e, 0x74, 0x69,
  0x7a, 0x65, 0x32, 0x00, 0x02, 0x00, 0x00, 0x00, 0x01, 0x00, 0x00, 0x00,
  0x0a, 0x00, 0x00, 0x00, 0x4c, 0xde, 0xff, 0xff, 0x18, 0x00, 0x00, 0x00,
  0x20, 0x00, 0x00, 0x00, 0x40, 0x00, 0x00, 0x00, 0x51, 0x00, 0x00, 0x00,
  0x00, 0x00, 0x00, 0x09, 0x44, 0x00, 0x00, 0x00, 0x02, 0x00, 0x00, 0x00,
  0xff, 0xff, 0xff, 0xff, 0x0a, 0x00, 0x00, 0x00, 0x34, 0xde, 0xff, 0xff,
  0x08, 0x00, 0x00, 0x00, 0x14, 0x00, 0x00, 0x00, 0x01, 0x00, 0x00, 0x00,
  0x09, 0x00, 0x00, 0x00, 0x00, 0x00, 0x00, 0x00, 0x00, 0x00, 0x00, 0x00,
  0x01, 0x00, 0x00, 0x00, 0x10, 0x0b, 0xbd, 0x3b, 0x0b, 0x00, 0x00, 0x00,
  0x77, 0x68, 0x69, 0x6c, 0x65, 0x2f, 0x6d, 0x75, 0x6c, 0x5f, 0x32, 0x00,
  0x02, 0x00, 0x00, 0x00, 0x01, 0x00, 0x00, 0x00, 0x0a, 0x00, 0x00, 0x00,
  0xb4, 0xde, 0xff, 0xff, 0x18, 0x00, 0x00, 0x00, 0x20, 0x00, 0x00, 0x00,
  0x3c, 0x00, 0x00, 0x00, 0x50, 0x00, 0x00, 0x00, 0x00, 0x00, 0x00, 0x09,
  0x44, 0x00, 0x00, 0x00, 0x02, 0x00, 0x00, 0x00, 0xff, 0xff, 0xff, 0xff,
  0x0a, 0x00, 0x00, 0x00, 0x9c, 0xde, 0xff, 0xff, 0x08, 0x00, 0x00, 0x00,
  0x10, 0x00, 0x00, 0x00, 0x01, 0x00, 0x00, 0x00, 0x00, 0x00, 0x00, 0x00,
  0x00, 0x00, 0x00, 0x00, 0x01, 0x00, 0x00, 0x00, 0x00, 0x00, 0x00, 0x3c,
  0x0c, 0x00, 0x00, 0x00, 0x77, 0x68, 0x69, 0x6c, 0x65, 0x2f, 0x54, 0x61,
  0x6e, 0x68, 0x5f, 0x31, 0x00, 0x00, 0x00, 0x00, 0x02, 0x00, 0x00, 0x00,
  0x01, 0x00, 0x00, 0x00, 0x0a, 0x00, 0x00, 0x00, 0xdc, 0xe5, 0xff, 0xff,
  0x14, 0x00, 0x00, 0x00, 0x1c, 0x00, 0x00, 0x00, 0x1c, 0x00, 0x00, 0x00,
  0x4f, 0x00, 0x00, 0x00, 0x28, 0x00, 0x00, 0x00, 0x02, 0x00, 0x00, 0x00,
  0xff, 0xff, 0xff, 0xff, 0x0a, 0x00, 0x00, 0x00, 0x7c, 0xdf, 0xff, 0xff,
  0x0f, 0x00, 0x00, 0x00, 0x74, 0x66, 0x6c, 0x2e, 0x64, 0x65, 0x71, 0x75,
  0x61, 0x6e, 0x74, 0x69, 0x7a, 0x65, 0x31, 0x00, 0x02, 0x00, 0x00, 0x00,
  0x01, 0x00, 0x00, 0x00, 0x0a, 0x00, 0x00, 0x00, 0x64, 0xdf, 0xff, 0xff,
  0x18, 0x00, 0x00, 0x00, 0x20, 0x00, 0x00, 0x00, 0x40, 0x00, 0x00, 0x00,
  0x4e, 0x00, 0x00, 0x00, 0x00, 0x00, 0x00, 0x09, 0x44, 0x00, 0x00, 0x00,
  0x02, 0x00, 0x00, 0x00, 0xff, 0xff, 0xff, 0xff, 0x0a, 0x00, 0x00, 0x00,
  0x4c, 0xdf, 0xff, 0xff, 0x08, 0x00, 0x00, 0x00, 0x14, 0x00, 0x00, 0x00,
  0x01, 0x00, 0x00, 0x00, 0x24, 0x00, 0x00, 0x00, 0x00, 0x00, 0x00, 0x00,
  0x00, 0x00, 0x00, 0x00, 0x01, 0x00, 0x00, 0x00, 0xc8, 0xb3, 0x55, 0x3d,
  0x0b, 0x00, 0x00, 0x00, 0x77, 0x68, 0x69, 0x6c, 0x65, 0x2f, 0x61, 0x64,
  0x64, 0x5f, 0x31, 0x00, 0x02, 0x00, 0x00, 0x00, 0x01, 0x00, 0x00, 0x00,
  0x0a, 0x00, 0x00, 0x00, 0xcc, 0xdf, 0xff, 0xff, 0x18, 0x00, 0x00, 0x00,
  0x20, 0x00, 0x00, 0x00, 0x40, 0x00, 0x00, 0x00, 0x4d, 0x00, 0x00, 0x00,
  0x00, 0x00, 0x00, 0x09, 0x44, 0x00, 0x00, 0x00, 0x02, 0x00, 0x00, 0x00,
  0xff, 0xff, 0xff, 0xff, 0x0a, 0x00, 0x00, 0x00, 0xb4, 0xdf, 0xff, 0xff,
  0x08, 0x00, 0x00, 0x00, 0x14, 0x00, 0x00, 0x00, 0x01, 0x00, 0x00, 0x00,
  0x1d, 0x00, 0x00, 0x00, 0x00, 0x00, 0x00, 0x00, 0x00, 0x00, 0x00, 0x00,
  0x01, 0x00, 0x00, 0x00, 0xfb, 0x64, 0xc5, 0x3b, 0x0b, 0x00, 0x00, 0x00,
  0x77, 0x68, 0x69, 0x6c, 0x65, 0x2f, 0x6d, 0x75, 0x6c, 0x5f, 0x31, 0x00,
  0x02, 0x00, 0x00, 0x00, 0x01, 0x00, 0x00, 0x00, 0x0a, 0x00, 0x00, 0x00,
  0x34, 0xe0, 0xff, 0xff, 0x18, 0x00, 0x00, 0x00, 0x20, 0x00, 0x00, 0x00,
  0x40, 0x00, 0x00, 0x00, 0x4c, 0x00, 0x00, 0x00, 0x00, 0x00, 0x00, 0x09,
  0x44, 0x00, 0x00, 0x00, 0x02, 0x00, 0x00, 0x00, 0xff, 0xff, 0xff, 0xff,
  0x0a, 0x00, 0x00, 0x00, 0x1c, 0xe0, 0xff, 0xff, 0x08, 0x00, 0x00, 0x00,
  0x14, 0x00, 0x00, 0x00, 0x01, 0x00, 0x00, 0x00, 0x00, 0x00, 0x00, 0x00,
  0x00, 0x00, 0x00, 0x00, 0x00, 0x00, 0x00, 0x00, 0x01, 0x00, 0x00, 0x00,
  0x00, 0x00, 0x00, 0x3c, 0x0a, 0x00, 0x00, 0x00, 0x77, 0x68, 0x69, 0x6c,
  0x65, 0x2f, 0x54, 0x61, 0x6e, 0x68, 0x00, 0x00, 0x02, 0x00, 0x00, 0x00,
  0x01, 0x00, 0x00, 0x00, 0x0a, 0x00, 0x00, 0x00, 0x9c, 0xe0, 0xff, 0xff,
  0x18, 0x00, 0x00, 0x00, 0x20, 0x00, 0x00, 0x00, 0x3c, 0x00, 0x00, 0x00,
  0x4b, 0x00, 0x00, 0x00, 0x00, 0x00, 0x00, 0x09, 0x44, 0x00, 0x00, 0x00,
  0x02, 0x00, 0x00, 0x00, 0xff, 0xff, 0xff, 0xff, 0x0a, 0x00, 0x00, 0x00,
  0x84, 0xe0, 0xff, 0xff, 0x08, 0x00, 0x00, 0x00, 0x10, 0x00, 0x00, 0x00,
  0x01, 0x00, 0x00, 0x00, 0x80, 0xff, 0xff, 0xff, 0xff, 0xff, 0xff, 0xff,
  0x01, 0x00, 0x00, 0x00, 0x00, 0x00, 0x80, 0x3b, 0x0f, 0x00, 0x00, 0x00,
  0x77, 0x68, 0x69, 0x6c, 0x65, 0x2f, 0x53, 0x69, 0x67, 0x6d, 0x6f, 0x69,
  0x64, 0x5f, 0x32, 0x00, 0x02, 0x00, 0x00, 0x00, 0x01, 0x00, 0x00, 0x00,
  0x0a, 0x00, 0x00, 0x00, 0x04, 0xe1, 0xff, 0xff, 0x18, 0x00, 0x00, 0x00,
  0x20, 0x00, 0x00, 0x00, 0x40, 0x00, 0x00, 0x00, 0x4a, 0x00, 0x00, 0x00,
  0x00, 0x00, 0x00, 0x09, 0x44, 0x00, 0x00, 0x00, 0x02, 0x00, 0x00, 0x00,
  0xff, 0xff, 0xff, 0xff, 0x0a, 0x00, 0x00, 0x00, 0xec, 0xe0, 0xff, 0xff,
  0x08, 0x00, 0x00, 0x00, 0x14, 0x00, 0x00, 0x00, 0x01, 0x00, 0x00, 0x00,
  0x20, 0x00, 0x00, 0x00, 0x00, 0x00, 0x00, 0x00, 0x00, 0x00, 0x00, 0x00,
  0x01, 0x00, 0x00, 0x00, 0xd3, 0xce, 0x43, 0x3d, 0x09, 0x00, 0x00, 0x00,
  0x77, 0x68, 0x69, 0x6c, 0x65, 0x2f, 0x6d, 0x75, 0x6c, 0x00, 0x00, 0x00,
  0x02, 0x00, 0x00, 0x00, 0x01, 0x00, 0x00, 0x00, 0x0a, 0x00, 0x00, 0x00,
  0x6c, 0xe1, 0xff, 0xff, 0x18, 0x00, 0x00, 0x00, 0x20, 0x00, 0x00, 0x00,
  0x3c, 0x00, 0x00, 0x00, 0x49, 0x00, 0x00, 0x00, 0x00, 0x00, 0x00, 0x09,
  0x44, 0x00, 0x00, 0x00, 0x02, 0x00, 0x00, 0x00, 0xff, 0xff, 0xff, 0xff,
  0x0a, 0x00, 0x00, 0x00, 0x54, 0xe1, 0xff, 0xff, 0x08, 0x00, 0x00, 0x00,
  0x10, 0x00, 0x00, 0x00, 0x01, 0x00, 0x00, 0x00, 0x80, 0xff, 0xff, 0xff,
  0xff, 0xff, 0xff, 0xff, 0x01, 0x00, 0x00, 0x00, 0x00, 0x00, 0x80, 0x3b,
  0x0f, 0x00, 0x00, 0x00, 0x77, 0x68, 0x69, 0x6c, 0x65, 0x2f, 0x53, 0x69,
  0x67, 0x6d, 0x6f, 0x69, 0x64, 0x5f, 0x31, 0x00, 0x02, 0x00, 0x00, 0x00,
  0x01, 0x00, 0x00, 0x00, 0x0a, 0x00, 0x00, 0x00, 0xd4, 0xe1, 0xff, 0xff,
  0x18, 0x00, 0x00, 0x00, 0x20, 0x00, 0x00, 0x00, 0x3c, 0x00, 0x00, 0x00,
  0x48, 0x00, 0x00, 0x00, 0x00, 0x00, 0x00, 0x09, 0x44, 0x00, 0x00, 0x00,
  0x02, 0x00, 0x00, 0x00, 0xff, 0xff, 0xff, 0xff, 0x0a, 0x00, 0x00, 0x00,
  0xbc, 0xe1, 0xff, 0xff, 0x08, 0x00, 0x00, 0x00, 0x10, 0x00, 0x00, 0x00,
  0x01, 0x00, 0x00, 0x00, 0x80, 0xff, 0xff, 0xff, 0xff, 0xff, 0xff, 0xff,
  0x01, 0x00, 0x00, 0x00, 0x00, 0x00, 0x80, 0x3b, 0x0d, 0x00, 0x00, 0x00,
  0x77, 0x68, 0x69, 0x6c, 0x65, 0x2f, 0x53, 0x69, 0x67, 0x6d, 0x6f, 0x69,
  0x64, 0x00, 0x00, 0x00, 0x02, 0x00, 0x00, 0x00, 0x01, 0x00, 0x00, 0x00,
  0x0a, 0x00, 0x00, 0x00, 0x3c, 0xe2, 0xff, 0xff, 0x18, 0x00, 0x00, 0x00,
  0x20, 0x00, 0x00, 0x00, 0x40, 0x00, 0x00, 0x00, 0x47, 0x00, 0x00, 0x00,
  0x00, 0x00, 0x00, 0x09, 0x6c, 0x00, 0x00, 0x00, 0x02, 0x00, 0x00, 0x00,
  0xff, 0xff, 0xff, 0xff, 0x0a, 0x00, 0x00, 0x00, 0x24, 0xe2, 0xff, 0xff,
  0x08, 0x00, 0x00, 0x00, 0x14, 0x00, 0x00, 0x00, 0x01, 0x00, 0x00, 0x00,
  0x01, 0x00, 0x00, 0x00, 0x00, 0x00, 0x00, 0x00, 0x00, 0x00, 0x00, 0x00,
  0x01, 0x00, 0x00, 0x00, 0x6c, 0x4c, 0x07, 0x3d, 0x33, 0x00, 0x00, 0x00,
  0x77, 0x68, 0x69, 0x6c, 0x65, 0x2f, 0x73, 0x70, 0x6c, 0x69, 0x74, 0x3b,
  0x77, 0x68, 0x69, 0x6c, 0x65, 0x2f, 0x73, 0x70, 0x6c, 0x69, 0x74, 0x31,
  0x3b, 0x77, 0x68, 0x69, 0x6c, 0x65, 0x2f, 0x73, 0x70, 0x6c, 0x69, 0x74,
  0x32, 0x3b, 0x77, 0x68, 0x69, 0x6c, 0x65, 0x2f, 0x73, 0x70, 0x6c, 0x69,
  0x74, 0x33, 0x33, 0x00, 0x02, 0x00, 0x00, 0x00, 0x01, 0x00, 0x00, 0x00,
  0x0a, 0x00, 0x00, 0x00, 0xcc, 0xe2, 0xff, 0xff, 0x18, 0x00, 0x00, 0x00,
  0x20, 0x00, 0x00, 0x00, 0x40, 0x00, 0x00, 0x00, 0x46, 0x00, 0x00, 0x00,
  0x00, 0x00, 0x00, 0x09, 0x6c, 0x00, 0x00, 0x00, 0x02, 0x00, 0x00, 0x00,
  0xff, 0xff, 0xff, 0xff, 0x0a, 0x00, 0x00, 0x00, 0xb4, 0xe2, 0xff, 0xff,
  0x08, 0x00, 0x00, 0x00, 0x14, 0x00, 0x00, 0x00, 0x01, 0x00, 0x00, 0x00,
  0x01, 0x00, 0x00, 0x00, 0x00, 0x00, 0x00, 0x00, 0x00, 0x00, 0x00, 0x00,
  0x01, 0x00, 0x00, 0x00, 0x6c, 0x4c, 0x07, 0x3d, 0x33, 0x00, 0x00, 0x00,
  0x77, 0x68, 0x69, 0x6c, 0x65, 0x2f, 0x73, 0x70, 0x6c, 0x69, 0x74, 0x3b,
  0x77, 0x68, 0x69, 0x6c, 0x65, 0x2f, 0x73, 0x70, 0x6c, 0x69, 0x74, 0x31,
  0x3b, 0x77, 0x68, 0x69, 0x6c, 0x65, 0x2f, 0x73, 0x70, 0x6c, 0x69, 0x74,
  0x32, 0x3b, 0x77, 0x68, 0x69, 0x6c, 0x65, 0x2f, 0x73, 0x70, 0x6c, 0x69,
  0x74, 0x33, 0x32, 0x00, 0x02, 0x00, 0x00, 0x00, 0x01, 0x00, 0x00, 0x00,
  0x0a, 0x00, 0x00, 0x00, 0x5c, 0xe3, 0xff, 0xff, 0x18, 0x00, 0x00, 0x00,
  0x20, 0x00, 0x00, 0x00, 0x40, 0x00, 0x00, 0x00, 0x45, 0x00, 0x00, 0x00,
  0x00, 0x00, 0x00, 0x09, 0x6c, 0x00, 0x00, 0x00, 0x02, 0x00, 0x00, 0x00,
  0xff, 0xff, 0xff, 0xff, 0x0a, 0x00, 0x00, 0x00, 0x44, 0xe3, 0xff, 0xff,
  0x08, 0x00, 0x00, 0x00, 0x14, 0x00, 0x00, 0x00, 0x01, 0x00, 0x00, 0x00,
  0x01, 0x00, 0x00, 0x00, 0x00, 0x00, 0x00, 0x00, 0x00, 0x00, 0x00, 0x00,
  0x01, 0x00, 0x00, 0x00, 0x6c, 0x4c, 0x07, 0x3d, 0x33, 0x00, 0x00, 0x00,
  0x77, 0x68, 0x69, 0x6c, 0x65, 0x2f, 0x73, 0x70, 0x6c, 0x69, 0x74, 0x3b,
  0x77, 0x68, 0x69, 0x6c, 0x65, 0x2f, 0x73, 0x70, 0x6c, 0x69, 0x74, 0x31,
  0x3b, 0x77, 0x68, 0x69, 0x6c, 0x65, 0x2f, 0x73, 0x70, 0x6c, 0x69, 0x74,
  0x32, 0x3b, 0x77, 0x68, 0x69, 0x6c, 0x65, 0x2f, 0x73, 0x70, 0x6c, 0x69,
  0x74, 0x33, 0x31, 0x00, 0x02, 0x00, 0x00, 0x00, 0x01, 0x00, 0x00, 0x00,
  0x0a, 0x00, 0x00, 0x00, 0xec, 0xe3, 0xff, 0xff, 0x18, 0x00, 0x00, 0x00,
  0x20, 0x00, 0x00, 0x00, 0x40, 0x00, 0x00, 0x00, 0x44, 0x00, 0x00, 0x00,
  0x00, 0x00, 0x00, 0x09, 0x6c, 0x00, 0x00, 0x00, 0x02, 0x00, 0x00, 0x00,
  0xff, 0xff, 0xff, 0xff, 0x0a, 0x00, 0x00, 0x00, 0xd4, 0xe3, 0xff, 0xff,
  0x08, 0x00, 0x00, 0x00, 0x14, 0x00, 0x00, 0x00, 0x01, 0x00, 0x00, 0x00,
  0x01, 0x00, 0x00, 0x00, 0x00, 0x00, 0x00, 0x00, 0x00, 0x00, 0x00, 0x00,
  0x01, 0x00, 0x00, 0x00, 0x6c, 0x4c, 0x07, 0x3d, 0x32, 0x00, 0x00, 0x00,
  0x77, 0x68, 0x69, 0x6c, 0x65, 0x2f, 0x73, 0x70, 0x6c, 0x69, 0x74, 0x3b,
  0x77, 0x68, 0x69, 0x6c, 0x65, 0x2f, 0x73, 0x70, 0x6c, 0x69, 0x74, 0x31,
  0x3b, 0x77, 0x68, 0x69, 0x6c, 0x65, 0x2f, 0x73, 0x70, 0x6c, 0x69, 0x74,
  0x32, 0x3b, 0x77, 0x68, 0x69, 0x6c, 0x65, 0x2f, 0x73, 0x70, 0x6c, 0x69,
  0x74, 0x33, 0x00, 0x00, 0x02, 0x00, 0x00, 0x00, 0x01, 0x00, 0x00, 0x00,
  0x0a, 0x00, 0x00, 0x00, 0x7c, 0xe4, 0xff, 0xff, 0x18, 0x00, 0x00, 0x00,
  0x20, 0x00, 0x00, 0x00, 0x3c, 0x00, 0x00, 0x00, 0x43, 0x00, 0x00, 0x00,
  0x00, 0x00, 0x00, 0x09, 0x44, 0x00, 0x00, 0x00, 0x02, 0x00, 0x00, 0x00,
  0xff, 0xff, 0xff, 0xff, 0x28, 0x00, 0x00, 0x00, 0x64, 0xe4, 0xff, 0xff,
  0x08, 0x00, 0x00, 0x00, 0x10, 0x00, 0x00, 0x00, 0x01, 0x00, 0x00, 0x00,
  0x01, 0x00, 0x00, 0x00, 0x00, 0x00, 0x00, 0x00, 0x01, 0x00, 0x00, 0x00,
  0x6c, 0x4c, 0x07, 0x3d, 0x0d, 0x00, 0x00, 0x00, 0x77, 0x68, 0x69, 0x6c,
  0x65, 0x2f, 0x42, 0x69, 0x61, 0x73, 0x41, 0x64, 0x64, 0x00, 0x00, 0x00,
  0x02, 0x00, 0x00, 0x00, 0x01, 0x00, 0x00, 0x00, 0x28, 0x00, 0x00, 0x00,
  0xe4, 0xe4, 0xff, 0xff, 0x18, 0x00, 0x00, 0x00, 0x20, 0x00, 0x00, 0x00,
  0x40, 0x00, 0x00, 0x00, 0x42, 0x00, 0x00, 0x00, 0x00, 0x00, 0x00, 0x09,
  0x44, 0x00, 0x00, 0x00, 0x02, 0x00, 0x00, 0x00, 0xff, 0xff, 0xff, 0xff,
  0x28, 0x00, 0x00, 0x00, 0xcc, 0xe4, 0xff, 0xff, 0x08, 0x00, 0x00, 0x00,
  0x14, 0x00, 0x00, 0x00, 0x01, 0x00, 0x00, 0x00, 0x05, 0x00, 0x00, 0x00,
  0x00, 0x00, 0x00, 0x00, 0x00, 0x00, 0x00, 0x00, 0x01, 0x00, 0x00, 0x00,
  0x1f, 0xfb, 0xf0, 0x3c, 0x09, 0x00, 0x00, 0x00, 0x77, 0x68, 0x69, 0x6c,
  0x65, 0x2f, 0x61, 0x64, 0x64, 0x00, 0x00, 0x00, 0x02, 0x00, 0x00, 0x00,
  0x01, 0x00, 0x00, 0x00, 0x28, 0x00, 0x00, 0x00, 0x4c, 0xe5, 0xff, 0xff,
  0x18, 0x00, 0x00, 0x00, 0x20, 0x00, 0x00, 0x00, 0x3c, 0x00, 0x00, 0x00,
  0x41, 0x00, 0x00, 0x00, 0x00, 0x00, 0x00, 0x09, 0x44, 0x00, 0x00, 0x00,
  0x02, 0x00, 0x00, 0x00, 0xff, 0xff, 0xff, 0xff, 0x28, 0x00, 0x00, 0x00,
  0x34, 0xe5, 0xff, 0xff, 0x08, 0x00, 0x00, 0x00, 0x10, 0x00, 0x00, 0x00,
  0x01, 0x00, 0x00, 0x00, 0xde, 0xff, 0xff, 0xff, 0xff, 0xff, 0xff, 0xff,
  0x01, 0x00, 0x00, 0x00, 0xbf, 0x1e, 0x9d, 0x3c, 0x0d, 0x00, 0x00, 0x00,
  0x77, 0x68, 0x69, 0x6c, 0x65, 0x2f, 0x4d, 0x61, 0x74, 0x4d, 0x75, 0x6c,
  0x32, 0x00, 0x00, 0x00, 0x02, 0x00, 0x00, 0x00, 0x01, 0x00, 0x00, 0x00,
  0x28, 0x00, 0x00, 0x00, 0xb4, 0xe5, 0xff, 0xff, 0x18, 0x00, 0x00, 0x00,
  0x20, 0x00, 0x00, 0x00, 0x40, 0x00, 0x00, 0x00, 0x40, 0x00, 0x00, 0x00,
  0x00, 0x00, 0x00, 0x09, 0x48, 0x00, 0x00, 0x00, 0x02, 0x00, 0x00, 0x00,
  0xff, 0xff, 0xff, 0xff, 0x09, 0x00, 0x00, 0x00, 0x9c, 0xe5, 0xff, 0xff,
  0x08, 0x00, 0x00, 0x00, 0x14, 0x00, 0x00, 0x00, 0x01, 0x00, 0x00, 0x00,
  0x80, 0xff, 0xff, 0xff, 0xff, 0xff, 0xff, 0xff, 0x00, 0x00, 0x00, 0x00,
  0x01, 0x00, 0x00, 0x00, 0x81, 0x80, 0x80, 0x3b, 0x0d, 0x00, 0x00, 0x00,
  0x74, 0x66, 0x6c, 0x2e, 0x71, 0x75, 0x61, 0x6e, 0x74, 0x69, 0x7a, 0x65,
  0x33, 0x00, 0x00, 0x00, 0x02, 0x00, 0x00, 0x00, 0x01, 0x00, 0x00, 0x00,
  0x09, 0x00, 0x00, 0x00, 0xe0, 0xec, 0xff, 0xff, 0x14, 0x00, 0x00, 0x00,
  0x1c, 0x00, 0x00, 0x00, 0x1c, 0x00, 0x00, 0x00, 0x3f, 0x00, 0x00, 0x00,
  0x44, 0x00, 0x00, 0x00, 0x02, 0x00, 0x00, 0x00, 0xff, 0xff, 0xff, 0xff,
  0x09, 0x00, 0x00, 0x00, 0x80, 0xe6, 0xff, 0xff, 0x29, 0x00, 0x00, 0x00,
  0x77, 0x68, 0x69, 0x6c, 0x65, 0x2f, 0x54, 0x65, 0x6e, 0x73, 0x6f, 0x72,
  0x41, 0x72, 0x72, 0x61, 0x79, 0x56, 0x32, 0x52, 0x65, 0x61, 0x64, 0x2f,
  0x54, 0x65, 0x6e, 0x73, 0x6f, 0x72, 0x4c, 0x69, 0x73, 0x74, 0x47, 0x65,
  0x74, 0x49, 0x74, 0x65, 0x6d, 0x00, 0x00, 0x00, 0x02, 0x00, 0x00, 0x00,
  0x01, 0x00, 0x00, 0x00, 0x09, 0x00, 0x00, 0x00, 0x84, 0xe6, 0xff, 0xff,
  0x18, 0x00, 0x00, 0x00, 0x20, 0x00, 0x00, 0x00, 0x3c, 0x00, 0x00, 0x00,
  0x3e, 0x00, 0x00, 0x00, 0x00, 0x00, 0x00, 0x09, 0x44, 0x00, 0x00, 0x00,
  0x02, 0x00, 0x00, 0x00, 0xff, 0xff, 0xff, 0xff, 0x28, 0x00, 0x00, 0x00,
  0x6c, 0xe6, 0xff, 0xff, 0x08, 0x00, 0x00, 0x00, 0x10, 0x00, 0x00, 0x00,
  0x01, 0x00, 0x00, 0x00, 0x1b, 0x00, 0x00, 0x00, 0x00, 0x00, 0x00, 0x00,
  0x01, 0x00, 0x00, 0x00, 0x43, 0x60, 0x84, 0x3c, 0x0f, 0x00, 0x00, 0x00,
  0x77, 0x68, 0x69, 0x6c, 0x65, 0x2f, 0x4d, 0x61, 0x74, 0x4d, 0x75, 0x6c,
  0x5f, 0x31, 0x31, 0x00, 0x02, 0x00, 0x00, 0x00, 0x01, 0x00, 0x00, 0x00,
  0x28, 0x00, 0x00, 0x00, 0x4e, 0xe7, 0xff, 0xff, 0x14, 0x00, 0x00, 0x00,
  0x14, 0x00, 0x00, 0x00, 0x3d, 0x00, 0x00, 0x00, 0x00, 0x00, 0x00, 0x02,
  0x18, 0x00, 0x00, 0x00, 0x40, 0xe7, 0xff, 0xff, 0x0b, 0x00, 0x00, 0x00,
  0x77, 0x68, 0x69, 0x6c, 0x65, 0x2f, 0x61, 0x64, 0x64, 0x5f, 0x32, 0x00,
  0x00, 0x00, 0x00, 0x00, 0x1c, 0xe7, 0xff, 0xff, 0x18, 0x00, 0x00, 0x00,
  0x20, 0x00, 0x00, 0x00, 0x3c, 0x00, 0x00, 0x00, 0x3c, 0x00, 0x00, 0x00,
  0x00, 0x00, 0x00, 0x09, 0x44, 0x00, 0x00, 0x00, 0x02, 0x00, 0x00, 0x00,
  0xff, 0xff, 0xff, 0xff, 0x0a, 0x00, 0x00, 0x00, 0x04, 0xe7, 0xff, 0xff,
  0x08, 0x00, 0x00, 0x00, 0x10, 0x00, 0x00, 0x00, 0x01, 0x00, 0x00, 0x00,
  0x23, 0x00, 0x00, 0x00, 0x00, 0x00, 0x00, 0x00, 0x01, 0x00, 0x00, 0x00,
  0x7a, 0xa0, 0x52, 0x3d, 0x0d, 0x00, 0x00, 0x00, 0x74, 0x66, 0x6c, 0x2e,
  0x71, 0x75, 0x61, 0x6e, 0x74, 0x69, 0x7a, 0x65, 0x32, 0x00, 0x00, 0x00,
  0x02, 0x00, 0x00, 0x00, 0x01, 0x00, 0x00, 0x00, 0x0a, 0x00, 0x00, 0x00,
  0x84, 0xe7, 0xff, 0xff, 0x18, 0x00, 0x00, 0x00, 0x20, 0x00, 0x00, 0x00,
  0x3c, 0x00, 0x00, 0x00, 0x3b, 0x00, 0x00, 0x00, 0x00, 0x00, 0x00, 0x09,
  0x44, 0x00, 0x00, 0x00, 0x02, 0x00, 0x00, 0x00, 0xff, 0xff, 0xff, 0xff,
  0x0a, 0x00, 0x00, 0x00, 0x6c, 0xe7, 0xff, 0xff, 0x08, 0x00, 0x00, 0x00,
  0x10, 0x00, 0x00, 0x00, 0x01, 0x00, 0x00, 0x00, 0x09, 0x00, 0x00, 0x00,
  0x00, 0x00, 0x00, 0x00, 0x01, 0x00, 0x00, 0x00, 0x10, 0x0b, 0xbd, 0x3b,
  0x0d, 0x00, 0x00, 0x00, 0x74, 0x66, 0x6c, 0x2e, 0x71, 0x75, 0x61, 0x6e,
  0x74, 0x69, 0x7a, 0x65, 0x31, 0x00, 0x00, 0x00, 0x02, 0x00, 0x00, 0x00,
  0x01, 0x00, 0x00, 0x00, 0x0a, 0x00, 0x00, 0x00, 0x4e, 0xe8, 0xff, 0xff,
  0x14, 0x00, 0x00, 0x00, 0x30, 0x00, 0x00, 0x00, 0x3a, 0x00, 0x00, 0x00,
  0x00, 0x00, 0x00, 0x09, 0x54, 0x00, 0x00, 0x00, 0xc4, 0xe7, 0xff, 0xff,
  0x08, 0x00, 0x00, 0x00, 0x10, 0x00, 0x00, 0x00, 0x01, 0x00, 0x00, 0x00,
  0xb9, 0xff, 0xff, 0xff, 0xff, 0xff, 0xff, 0xff, 0x01, 0x00, 0x00, 0x00,
  0xf6, 0x93, 0xd6, 0x3b, 0x28, 0x00, 0x00, 0x00, 0x73, 0x65, 0x71, 0x75,
  0x65, 0x6e, 0x74, 0x69, 0x61, 0x6c, 0x5f, 0x32, 0x2f, 0x6c, 0x73, 0x74,
  0x6d, 0x2f, 0x52, 0x65, 0x61, 0x64, 0x5f, 0x32, 0x2f, 0x52, 0x65, 0x61,
  0x64, 0x56, 0x61, 0x72, 0x69, 0x61, 0x62, 0x6c, 0x65, 0x4f, 0x70, 0x31,
  0x00, 0x00, 0x00, 0x00, 0x01, 0x00, 0x00, 0x00, 0x28, 0x00, 0x00, 0x00,
  0xbe, 0xe8, 0xff, 0xff, 0x14, 0x00, 0x00, 0x00, 0x30, 0x00, 0x00, 0x00,
  0x39, 0x00, 0x00, 0x00, 0x00, 0x00, 0x00, 0x09, 0x38, 0x00, 0x00, 0x00,
  0x34, 0xe8, 0xff, 0xff, 0x08, 0x00, 0x00, 0x00, 0x10, 0x00, 0x00, 0x00,
  0x01, 0x00, 0x00, 0x00, 0x00, 0x00, 0x00, 0x00, 0x00, 0x00, 0x00, 0x00,
  0x01, 0x00, 0x00, 0x00, 0x8a, 0xff, 0x3c, 0x3c, 0x0c, 0x00, 0x00, 0x00,
  0x77, 0x68, 0x69, 0x6c, 0x65, 0x2f, 0x4d, 0x61, 0x74, 0x4d, 0x75, 0x6c,
  0x00, 0x00, 0x00, 0x00, 0x02, 0x00, 0x00, 0x00, 0x28, 0x00, 0x00, 0x00,
  0x09, 0x00, 0x00, 0x00, 0x16, 0xe9, 0xff, 0xff, 0x14, 0x00, 0x00, 0x00,
  0x34, 0x00, 0x00, 0x00, 0x38, 0x00, 0x00, 0x00, 0x00, 0x00, 0x00, 0x09,
  0x3c, 0x00, 0x00, 0x00, 0x8c, 0xe8, 0xff, 0xff, 0x08, 0x00, 0x00, 0x00,
  0x14, 0x00, 0x00, 0x00, 0x01, 0x00, 0x00, 0x00, 0x00, 0x00, 0x00, 0x00,
  0x00, 0x00, 0x00, 0x00, 0x00, 0x00, 0x00, 0x00, 0x01, 0x00, 0x00, 0x00,
  0xc1, 0x57, 0x20, 0x3c, 0x0e, 0x00, 0x00, 0x00, 0x77, 0x68, 0x69, 0x6c,
  0x65, 0x2f, 0x4d, 0x61, 0x74, 0x4d, 0x75, 0x6c, 0x5f, 0x31, 0x00, 0x00,
  0x02, 0x00, 0x00, 0x00, 0x28, 0x00, 0x00, 0x00, 0x0a, 0x00, 0x00, 0x00,
  0x72, 0xe9, 0xff, 0xff, 0x14, 0x00, 0x00, 0x00, 0x14, 0x00, 0x00, 0x00,
  0x37, 0x00, 0x00, 0x00, 0x00, 0x00, 0x00, 0x02, 0x14, 0x00, 0x00, 0x00,
  0x64, 0xe9, 0xff, 0xff, 0x05, 0x00, 0x00, 0x00, 0x74, 0x69, 0x6d, 0x65,
  0x31, 0x00, 0x00, 0x00, 0x00, 0x00, 0x00, 0x00, 0x9e, 0xe9, 0xff, 0xff,
  0x14, 0x00, 0x00, 0x00, 0x14, 0x00, 0x00, 0x00, 0x36, 0x00, 0x00, 0x00,
  0x00, 0x00, 0x00, 0x02, 0x44, 0x00, 0x00, 0x00, 0x90, 0xe9, 0xff, 0xff,
  0x36, 0x00, 0x00, 0x00, 0x54, 0x65, 0x6e, 0x73, 0x6f, 0x72, 0x41, 0x72,
  0x72, 0x61, 0x79, 0x55, 0x6e, 0x73, 0x74, 0x61, 0x63, 0x6b, 0x2f, 0x54,
  0x65, 0x6e, 0x73, 0x6f, 0x72, 0x4c, 0x69, 0x73, 0x74, 0x46, 0x72, 0x6f,
  0x6d, 0x54, 0x65, 0x6e, 0x73, 0x6f, 0x72, 0x2f, 0x65, 0x6c, 0x65, 0x6d,
  0x65, 0x6e, 0x74, 0x5f, 0x73, 0x68, 0x61, 0x70, 0x65, 0x31, 0x00, 0x00,
  0x01, 0x00, 0x00, 0x00, 0x02, 0x00, 0x00, 0x00, 0xfe, 0xe9, 0xff, 0xff,
  0x14, 0x00, 0x00, 0x00, 0x14, 0x00, 0x00, 0x00, 0x35, 0x00, 0x00, 0x00,
  0x00, 0x00, 0x00, 0x02, 0x2c, 0x00, 0x00, 0x00, 0xf0, 0xe9, 0xff, 0xff,
  0x1d, 0x00, 0x00, 0x00, 0x54, 0x65, 0x6e, 0x73, 0x6f, 0x72, 0x41, 0x72,
  0x72, 0x61, 0x79, 0x56, 0x32, 0x5f, 0x31, 0x2f, 0x6e, 0x75, 0x6d, 0x5f,
  0x65, 0x6c, 0x65, 0x6d, 0x65, 0x6e, 0x74, 0x73, 0x31, 0x00, 0x00, 0x00,
  0x00, 0x00, 0x00, 0x00, 0x42, 0xea, 0xff, 0xff, 0x14, 0x00, 0x00, 0x00,
  0x14, 0x00, 0x00, 0x00, 0x34, 0x00, 0x00, 0x00, 0x00, 0x00, 0x00, 0x0e,
  0x14, 0x00, 0x00, 0x00, 0x34, 0xea, 0xff, 0xff, 0x04, 0x00, 0x00, 0x00,
  0x61, 0x72, 0x67, 0x35, 0x00, 0x00, 0x00, 0x00, 0x00, 0x00, 0x00, 0x00,
  0xcc, 0xf0, 0xff, 0xff, 0x14, 0x00, 0x00, 0x00, 0x1c, 0x00, 0x00, 0x00,
  0x1c, 0x00, 0x00, 0x00, 0x33, 0x00, 0x00, 0x00, 0x20, 0x00, 0x00, 0x00,
  0x02, 0x00, 0x00, 0x00, 0xff, 0xff, 0xff, 0xff, 0x0a, 0x00, 0x00, 0x00,
  0x6c, 0xea, 0xff, 0xff, 0x04, 0x00, 0x00, 0x00, 0x61, 0x72, 0x67, 0x34,
  0x00, 0x00, 0x00, 0x00, 0x02, 0x00, 0x00, 0x00, 0x01, 0x00, 0x00, 0x00,
  0x0a, 0x00, 0x00, 0x00, 0x0c, 0xf1, 0xff, 0xff, 0x14, 0x00, 0x00, 0x00,
  0x1c, 0x00, 0x00, 0x00, 0x1c, 0x00, 0x00, 0x00, 0x32, 0x00, 0x00, 0x00,
  0x20, 0x00, 0x00, 0x00, 0x02, 0x00, 0x00, 0x00, 0xff, 0xff, 0xff, 0xff,
  0x0a, 0x00, 0x00, 0x00, 0xac, 0xea, 0xff, 0xff, 0x04, 0x00, 0x00, 0x00,
  0x61, 0x72, 0x67, 0x33, 0x00, 0x00, 0x00, 0x00, 0x02, 0x00, 0x00, 0x00,
  0x01, 0x00, 0x00, 0x00, 0x0a, 0x00, 0x00, 0x00, 0xee, 0xea, 0xff, 0xff,
  0x14, 0x00, 0x00, 0x00, 0x14, 0x00, 0x00, 0x00, 0x31, 0x00, 0x00, 0x00,
  0x00, 0x00, 0x00, 0x0e, 0x14, 0x00, 0x00, 0x00, 0xe0, 0xea, 0xff, 0xff,
  0x04, 0x00, 0x00, 0x00, 0x61, 0x72, 0x67, 0x32, 0x00, 0x00, 0x00, 0x00,
  0x00, 0x00, 0x00, 0x00, 0x1a, 0xeb, 0xff, 0xff, 0x14, 0x00, 0x00, 0x00,
  0x14, 0x00, 0x00, 0x00, 0x30, 0x00, 0x00, 0x00, 0x00, 0x00, 0x00, 0x02,
  0x14, 0x00, 0x00, 0x00, 0x0c, 0xeb, 0xff, 0xff, 0x04, 0x00, 0x00, 0x00,
  0x61, 0x72, 0x67, 0x31, 0x00, 0x00, 0x00, 0x00, 0x00, 0x00, 0x00, 0x00,
  0x46, 0xeb, 0xff, 0xff, 0x14, 0x00, 0x00, 0x00, 0x14, 0x00, 0x00, 0x00,
  0x2f, 0x00, 0x00, 0x00, 0x00, 0x00, 0x00, 0x02, 0x14, 0x00, 0x00, 0x00,
  0x38, 0xeb, 0xff, 0xff, 0x04, 0x00, 0x00, 0x00, 0x61, 0x72, 0x67, 0x30,
  0x00, 0x00, 0x00, 0x00, 0x00, 0x00, 0x00, 0x00, 0xce, 0xfd, 0xff, 0xff,
  0x14, 0x00, 0x00, 0x00, 0x20, 0x00, 0x00, 0x00, 0x48, 0x00, 0x00, 0x00,
  0x4c, 0x00, 0x00, 0x00, 0x64, 0x00, 0x00, 0x00, 0x0a, 0x00, 0x00, 0x00,
  0x77, 0x68, 0x69, 0x6c, 0x65, 0x5f, 0x63, 0x6f, 0x6e, 0x64, 0x00, 0x00,
  0x01, 0x00, 0x00, 0x00, 0x04, 0x00, 0x00, 0x00, 0xfa, 0xf9, 0xff, 0xff,
  0x0c, 0x00, 0x00, 0x00, 0x10, 0x00, 0x00, 0x00, 0x0d, 0x00, 0x00, 0x00,
  0x01, 0x00, 0x00, 0x00, 0x07, 0x00, 0x00, 0x00, 0x02, 0x00, 0x00, 0x00,
  0x01, 0x00, 0x00, 0x00, 0x06, 0x00, 0x00, 0x00, 0x01, 0x00, 0x00, 0x00,
  0x07, 0x00, 0x00, 0x00, 0x06, 0x00, 0x00, 0x00, 0x00, 0x00, 0x00, 0x00,
  0x01, 0x00, 0x00, 0x00, 0x02, 0x00, 0x00, 0x00, 0x03, 0x00, 0x00, 0x00,
  0x04, 0x00, 0x00, 0x00, 0x05, 0x00, 0x00, 0x00, 0x08, 0x00, 0x00, 0x00,
  0x88, 0x01, 0x00, 0x00, 0x58, 0x01, 0x00, 0x00, 0x28, 0x01, 0x00, 0x00,
  0xe4, 0x00, 0x00, 0x00, 0xa0, 0x00, 0x00, 0x00, 0x70, 0x00, 0x00, 0x00,
  0x38, 0x00, 0x00, 0x00, 0x04, 0x00, 0x00, 0x00, 0x0e, 0xec, 0xff, 0xff,
  0x14, 0x00, 0x00, 0x00, 0x14, 0x00, 0x00, 0x00, 0x2e, 0x00, 0x00, 0x00,
  0x00, 0x00, 0x00, 0x06, 0x18, 0x00, 0x00, 0x00, 0x00, 0xec, 0xff, 0xff,
  0x0a, 0x00, 0x00, 0x00, 0x77, 0x68, 0x69, 0x6c, 0x65, 0x2f, 0x4c, 0x65,
  0x73, 0x73, 0x00, 0x00, 0x00, 0x00, 0x00, 0x00, 0x3e, 0xec, 0xff, 0xff,
  0x14, 0x00, 0x00, 0x00, 0x14, 0x00, 0x00, 0x00, 0x2d, 0x00, 0x00, 0x00,
  0x00, 0x00, 0x00, 0x02, 0x1c, 0x00, 0x00, 0x00, 0x30, 0xec, 0xff, 0xff,
  0x0e, 0x00, 0x00, 0x00, 0x73, 0x74, 0x72, 0x69, 0x64, 0x65, 0x64, 0x5f,
  0x73, 0x6c, 0x69, 0x63, 0x65, 0x31, 0x00, 0x00, 0x00, 0x00, 0x00, 0x00,
  0x72, 0xec, 0xff, 0xff, 0x14, 0x00, 0x00, 0x00, 0x14, 0x00, 0x00, 0x00,
  0x2c, 0x00, 0x00, 0x00, 0x00, 0x00, 0x00, 0x0e, 0x14, 0x00, 0x00, 0x00,
  0x64, 0xec, 0xff, 0xff, 0x04, 0x00, 0x00, 0x00, 0x61, 0x72, 0x67, 0x35,
  0x00, 0x00, 0x00, 0x00, 0x00, 0x00, 0x00, 0x00, 0xfc, 0xf2, 0xff, 0xff,
  0x14, 0x00, 0x00, 0x00, 0x1c, 0x00, 0x00, 0x00, 0x1c, 0x00, 0x00, 0x00,
  0x2b, 0x00, 0x00, 0x00, 0x20, 0x00, 0x00, 0x00, 0x02, 0x00, 0x00, 0x00,
  0xff, 0xff, 0xff, 0xff, 0x0a, 0x00, 0x00, 0x00, 0x9c, 0xec, 0xff, 0xff,
  0x04, 0x00, 0x00, 0x00, 0x61, 0x72, 0x67, 0x34, 0x00, 0x00, 0x00, 0x00,
  0x02, 0x00, 0x00, 0x00, 0x01, 0x00, 0x00, 0x00, 0x0a, 0x00, 0x00, 0x00,
  0x3c, 0xf3, 0xff, 0xff, 0x14, 0x00, 0x00, 0x00, 0x1c, 0x00, 0x00, 0x00,
  0x1c, 0x00, 0x00, 0x00, 0x2a, 0x00, 0x00, 0x00, 0x20, 0x00, 0x00, 0x00,
  0x02, 0x00, 0x00, 0x00, 0xff, 0xff, 0xff, 0xff, 0x0a, 0x00, 0x00, 0x00,
  0xdc, 0xec, 0xff, 0xff, 0x04, 0x00, 0x00, 0x00, 0x61, 0x72, 0x67, 0x33,
  0x00, 0x00, 0x00, 0x00, 0x02, 0x00, 0x00, 0x00, 0x01, 0x00, 0x00, 0x00,
  0x0a, 0x00, 0x00, 0x00, 0x1e, 0xed, 0xff, 0xff, 0x14, 0x00, 0x00, 0x00,
  0x14, 0x00, 0x00, 0x00, 0x29, 0x00, 0x00, 0x00, 0x00, 0x00, 0x00, 0x0e,
  0x14, 0x00, 0x00, 0x00, 0x10, 0xed, 0xff, 0xff, 0x04, 0x00, 0x00, 0x00,
  0x61, 0x72, 0x67, 0x32, 0x00, 0x00, 0x00, 0x00, 0x00, 0x00, 0x00, 0x00,
  0x4a, 0xed, 0xff, 0xff, 0x14, 0x00, 0x00, 0x00, 0x14, 0x00, 0x00, 0x00,
  0x28, 0x00, 0x00, 0x00, 0x00, 0x00, 0x00, 0x02, 0x14, 0x00, 0x00, 0x00,
  0x3c, 0xed, 0xff, 0xff, 0x04, 0x00, 0x00, 0x00, 0x61, 0x72, 0x67, 0x31,
  0x00, 0x00, 0x00, 0x00, 0x00, 0x00, 0x00, 0x00, 0x76, 0xed, 0xff, 0xff,
  0x14, 0x00, 0x00, 0x00, 0x14, 0x00, 0x00, 0x00, 0x27, 0x00, 0x00, 0x00,
  0x00, 0x00, 0x00, 0x02, 0x14, 0x00, 0x00, 0x00, 0x68, 0xed, 0xff, 0xff,
  0x04, 0x00, 0x00, 0x00, 0x61, 0x72, 0x67, 0x30, 0x00, 0x00, 0x00, 0x00,
  0x00, 0x00, 0x00, 0x00, 0x00, 0x00, 0x0e, 0x00, 0x18, 0x00, 0x14, 0x00,
  0x10, 0x00, 0x0c, 0x00, 0x08, 0x00, 0x04, 0x00, 0x0e, 0x00, 0x00, 0x00,
  0x14, 0x00, 0x00, 0x00, 0x1c, 0x00, 0x00, 0x00, 0xf4, 0x04, 0x00, 0x00,
  0xf8, 0x04, 0x00, 0x00, 0xfc, 0x04, 0x00, 0x00, 0x04, 0x00, 0x00, 0x00,
  0x6d, 0x61, 0x69, 0x6e, 0x00, 0x00, 0x00, 0x00, 0x10, 0x00, 0x00, 0x00,
  0xa4, 0x04, 0x00, 0x00, 0x44, 0x04, 0x00, 0x00, 0xf4, 0x03, 0x00, 0x00,
  0xcc, 0x03, 0x00, 0x00, 0x9c, 0x03, 0x00, 0x00, 0x0c, 0x03, 0x00, 0x00,
  0xd4, 0x02, 0x00, 0x00, 0xb0, 0x02, 0x00, 0x00, 0x1c, 0x02, 0x00, 0x00,
  0xb4, 0x01, 0x00, 0x00, 0x28, 0x01, 0x00, 0x00, 0x04, 0x01, 0x00, 0x00,
  0xac, 0x00, 0x00, 0x00, 0x70, 0x00, 0x00, 0x00, 0x38, 0x00, 0x00, 0x00,
  0x04, 0x00, 0x00, 0x00, 0x06, 0xfc, 0xff, 0xff, 0x14, 0x00, 0x00, 0x00,
  0x00, 0x00, 0x00, 0x09, 0x14, 0x00, 0x00, 0x00, 0x18, 0x00, 0x00, 0x00,
  0x0c, 0x00, 0x00, 0x00, 0x42, 0xfc, 0xff, 0xff, 0x00, 0x00, 0x80, 0x3f,
  0x01, 0x00, 0x00, 0x00, 0x25, 0x00, 0x00, 0x00, 0x01, 0x00, 0x00, 0x00,
  0x24, 0x00, 0x00, 0x00, 0x36, 0xfc, 0xff, 0xff, 0x14, 0x00, 0x00, 0x00,
  0x00, 0x00, 0x00, 0x08, 0x10, 0x00, 0x00, 0x00, 0x14, 0x00, 0x00, 0x00,
  0x0b, 0x00, 0x00, 0x00, 0x3c, 0xee, 0xff, 0xff, 0x01, 0x00, 0x00, 0x00,
  0x24, 0x00, 0x00, 0x00, 0x03, 0x00, 0x00, 0x00, 0x23, 0x00, 0x00, 0x00,
  0x0f, 0x00, 0x00, 0x00, 0x10, 0x00, 0x00, 0x00, 0x6a, 0xfc, 0xff, 0xff,
  0x14, 0x00, 0x00, 0x00, 0x00, 0x00, 0x00, 0x08, 0x14, 0x00, 0x00, 0x00,
  0x18, 0x00, 0x00, 0x00, 0x0b, 0x00, 0x00, 0x00, 0x02, 0xfc, 0xff, 0xff,
  0x00, 0x00, 0x00, 0x01, 0x01, 0x00, 0x00, 0x00, 0x23, 0x00, 0x00, 0x00,
  0x03, 0x00, 0x00, 0x00, 0x22, 0x00, 0x00, 0x00, 0x0d, 0x00, 0x00, 0x00,
  0x0e, 0x00, 0x00, 0x00, 0xa2, 0xfc, 0xff, 0xff, 0x24, 0x00, 0x00, 0x00,
  0x00, 0x00, 0x00, 0x20, 0x2c, 0x00, 0x00, 0x00, 0x30, 0x00, 0x00, 0x00,
  0x01, 0x00, 0x00, 0x00, 0x00, 0x00, 0x0e, 0x00, 0x10, 0x00, 0x0c, 0x00,
  0x08, 0x00, 0x00, 0x00, 0x00, 0x00, 0x04, 0x00, 0x0e, 0x00, 0x00, 0x00,
  0x01, 0x00, 0x00, 0x00, 0x06, 0x00, 0x00, 0x00, 0x06, 0x00, 0x00, 0x00,
  0x01, 0x00, 0x00, 0x00, 0x22, 0x00, 0x00, 0x00, 0x04, 0x00, 0x00, 0x00,
  0x21, 0x00, 0x00, 0x00, 0x09, 0x00, 0x00, 0x00, 0x0a, 0x00, 0x00, 0x00,
  0x0b, 0x00, 0x00, 0x00, 0x62, 0xfd, 0xff, 0xff, 0x0c, 0x00, 0x00, 0x00,
  0x10, 0x00, 0x00, 0x00, 0x0a, 0x00, 0x00, 0x00, 0x01, 0x00, 0x00, 0x00,
  0x21, 0x00, 0x00, 0x00, 0x01, 0x00, 0x00, 0x00, 0x20, 0x00, 0x00, 0x00,
  0x40, 0xfe, 0xff, 0xff, 0x10, 0x00, 0x00, 0x00, 0x6c, 0x00, 0x00, 0x00,
  0x70, 0x00, 0x00, 0x00, 0x09, 0x00, 0x00, 0x00, 0x5b, 0x00, 0x00, 0x00,
  0x0f, 0x54, 0x65, 0x6e, 0x73, 0x6f, 0x72, 0x4c, 0x69, 0x73, 0x74, 0x53,
  0x74, 0x61, 0x63, 0x6b, 0x00, 0x40, 0x12, 0x0f, 0x54, 0x65, 0x6e, 0x73,
  0x6f, 0x72, 0x4c, 0x69, 0x73, 0x74, 0x53, 0x74, 0x61, 0x63, 0x6b, 0x1a,
  0x00, 0x1a, 0x00, 0x2a, 0x12, 0x0a, 0x0c, 0x6e, 0x75, 0x6d, 0x5f, 0x65,
  0x6c, 0x65, 0x6d, 0x65, 0x6e, 0x74, 0x73, 0x12, 0x02, 0x18, 0x01, 0x2a,
  0x13, 0x0a, 0x0d, 0x65, 0x6c, 0x65, 0x6d, 0x65, 0x6e, 0x74, 0x5f, 0x64,
  0x74, 0x79, 0x70, 0x65, 0x12, 0x02, 0x30, 0x01, 0x32, 0x00, 0x00, 0x02,
  0x53, 0x43, 0x14, 0x14, 0x04, 0x28, 0x01, 0x00, 0x01, 0x00, 0x00, 0x00,
  0x20, 0x00, 0x00, 0x00, 0x02, 0x00, 0x00, 0x00, 0x1c, 0x00, 0x00, 0x00,
  0x04, 0x00, 0x00, 0x00, 0x9e, 0xfd, 0xff, 0xff, 0x1c, 0x00, 0x00, 0x00,
  0x00, 0x00, 0x00, 0x5d, 0x20, 0x00, 0x00, 0x00, 0x38, 0x00, 0x00, 0x00,
  0x08, 0x00, 0x00, 0x00, 0x08, 0x00, 0x0c, 0x00, 0x08, 0x00, 0x04, 0x00,
  0x08, 0x00, 0x00, 0x00, 0x02, 0x00, 0x00, 0x00, 0x01, 0x00, 0x00, 0x00,
  0x06, 0x00, 0x00, 0x00, 0x1a, 0x00, 0x00, 0x00, 0x1b, 0x00, 0x00, 0x00,
  0x1c, 0x00, 0x00, 0x00, 0x1d, 0x00, 0x00, 0x00, 0x1e, 0x00, 0x00, 0x00,
  0x1f, 0x00, 0x00, 0x00, 0x06, 0x00, 0x00, 0x00, 0x08, 0x00, 0x00, 0x00,
  0x08, 0x00, 0x00, 0x00, 0x16, 0x00, 0x00, 0x00, 0x15, 0x00, 0x00, 0x00,
  0x15, 0x00, 0x00, 0x00, 0x19, 0x00, 0x00, 0x00, 0x2c, 0xff, 0xff, 0xff,
  0x10, 0x00, 0x00, 0x00, 0x74, 0x00, 0x00, 0x00, 0x78, 0x00, 0x00, 0x00,
  0x07, 0x00, 0x00, 0x00, 0x63, 0x00, 0x00, 0x00, 0x14, 0x54, 0x65, 0x6e,
  0x73, 0x6f, 0x72, 0x4c, 0x69, 0x73, 0x74, 0x46, 0x72, 0x6f, 0x6d, 0x54,
  0x65, 0x6e, 0x73, 0x6f, 0x72, 0x00, 0x43, 0x12, 0x14, 0x54, 0x65, 0x6e,
  0x73, 0x6f, 0x72, 0x4c, 0x69, 0x73, 0x74, 0x46, 0x72, 0x6f, 0x6d, 0x54,
  0x65, 0x6e, 0x73, 0x6f, 0x72, 0x1a, 0x00, 0x1a, 0x00, 0x2a, 0x10, 0x0a,
  0x0a, 0x73, 0x68, 0x61, 0x70, 0x65, 0x5f, 0x74, 0x79, 0x70, 0x65, 0x12,
  0x02, 0x30, 0x03, 0x2a, 0x13, 0x0a, 0x0d, 0x65, 0x6c, 0x65, 0x6d, 0x65,
  0x6e, 0x74, 0x5f, 0x64, 0x74, 0x79, 0x70, 0x65, 0x12, 0x02, 0x30, 0x01,
  0x32, 0x00, 0x00, 0x02, 0x5b, 0x46, 0x14, 0x14, 0x04, 0x28, 0x01, 0x00,
  0x01, 0x00, 0x00, 0x00, 0x19, 0x00, 0x00, 0x00, 0x02, 0x00, 0x00, 0x00,
  0x18, 0x00, 0x00, 0x00, 0x07, 0x00, 0x00, 0x00, 0xfe, 0xfe, 0xff, 0xff,
  0x0c, 0x00, 0x00, 0x00, 0x10, 0x00, 0x00, 0x00, 0x04, 0x00, 0x00, 0x00,
  0x01, 0x00, 0x00, 0x00, 0x18, 0x00, 0x00, 0x00, 0x01, 0x00, 0x00, 0x00,
  0x17, 0x00, 0x00, 0x00, 0x1e, 0xff, 0xff, 0xff, 0x0c, 0x00, 0x00, 0x00,
  0x10, 0x00, 0x00, 0x00, 0x06, 0x00, 0x00, 0x00, 0x01, 0x00, 0x00, 0x00,
  0x17, 0x00, 0x00, 0x00, 0x02, 0x00, 0x00, 0x00, 0x00, 0x00, 0x00, 0x00,
  0x06, 0x00, 0x00, 0x00, 0x10, 0x00, 0x14, 0x00, 0x10, 0x00, 0x0c, 0x00,
  0x08, 0x00, 0x00, 0x00, 0x00, 0x00, 0x04, 0x00, 0x10, 0x00, 0x00, 0x00,
  0x10, 0x00, 0x00, 0x00, 0x70, 0x00, 0x00, 0x00, 0x74, 0x00, 0x00, 0x00,
  0x05, 0x00, 0x00, 0x00, 0x5d, 0x00, 0x00, 0x00, 0x11, 0x54, 0x65, 0x6e,
  0x73, 0x6f, 0x72, 0x4c, 0x69, 0x73, 0x74, 0x52, 0x65, 0x73, 0x65, 0x72,
  0x76, 0x65, 0x00, 0x40, 0x12, 0x11, 0x54, 0x65, 0x6e, 0x73, 0x6f, 0x72,
  0x4c, 0x69, 0x73, 0x74, 0x52, 0x65, 0x73, 0x65, 0x72, 0x76, 0x65, 0x1a,
  0x00, 0x1a, 0x00, 0x2a, 0x10, 0x0a, 0x0a, 0x73, 0x68, 0x61, 0x70, 0x65,
  0x5f, 0x74, 0x79, 0x70, 0x65, 0x12, 0x02, 0x30, 0x03, 0x2a, 0x13, 0x0a,
  0x0d, 0x65, 0x6c, 0x65, 0x6d, 0x65, 0x6e, 0x74, 0x5f, 0x64, 0x74, 0x79,
  0x70, 0x65, 0x12, 0x02, 0x30, 0x01, 0x32, 0x00, 0x00, 0x02, 0x55, 0x43,
  0x14, 0x14, 0x04, 0x28, 0x01, 0x00, 0x00, 0x00, 0x01, 0x00, 0x00, 0x00,
  0x16, 0x00, 0x00, 0x00, 0x02, 0x00, 0x00, 0x00, 0x04, 0x00, 0x00, 0x00,
  0x05, 0x00, 0x00, 0x00, 0xde, 0xff, 0xff, 0xff, 0x0c, 0x00, 0x00, 0x00,
  0x10, 0x00, 0x00, 0x00, 0x04, 0x00, 0x00, 0x00, 0x01, 0x00, 0x00, 0x00,
  0x15, 0x00, 0x00, 0x00, 0x01, 0x00, 0x00, 0x00, 0x14, 0x00, 0x00, 0x00,
  0x00, 0x00, 0x0a, 0x00, 0x10, 0x00, 0x0c, 0x00, 0x08, 0x00, 0x04, 0x00,
  0x0a, 0x00, 0x00, 0x00, 0x0c, 0x00, 0x00, 0x00, 0x10, 0x00, 0x00, 0x00,
  0x03, 0x00, 0x00, 0x00, 0x01, 0x00, 0x00, 0x00, 0x14, 0x00, 0x00, 0x00,
  0x02, 0x00, 0x00, 0x00, 0x13, 0x00, 0x00, 0x00, 0x0c, 0x00, 0x00, 0x00,
  0xc2, 0xff, 0xff, 0xff, 0x1c, 0x00, 0x00, 0x00, 0x00, 0x00, 0x00, 0x3b,
  0x1c, 0x00, 0x00, 0x00, 0x20, 0x00, 0x00, 0x00, 0x02, 0x00, 0x00, 0x00,
  0x00, 0x00, 0x06, 0x00, 0x08, 0x00, 0x04, 0x00, 0x06, 0x00, 0x00, 0x00,
  0x02, 0x00, 0x00, 0x00, 0x01, 0x00, 0x00, 0x00, 0x13, 0x00, 0x00, 0x00,
  0x02, 0x00, 0x00, 0x00, 0x12, 0x00, 0x00, 0x00, 0x03, 0x00, 0x00, 0x00,
  0x00, 0x00, 0x0e, 0x00, 0x1a, 0x00, 0x14, 0x00, 0x10, 0x00, 0x0c, 0x00,
  0x0b, 0x00, 0x04, 0x00, 0x0e, 0x00, 0x00, 0x00, 0x24, 0x00, 0x00, 0x00,
  0x00, 0x00, 0x00, 0x20, 0x24, 0x00, 0x00, 0x00, 0x28, 0x00, 0x00, 0x00,
  0x01, 0x00, 0x00, 0x00, 0x00, 0x00, 0x0e, 0x00, 0x08, 0x00, 0x00, 0x00,
  0x00, 0x00, 0x00, 0x00, 0x00, 0x00, 0x04, 0x00, 0x0e, 0x00, 0x00, 0x00,
  0x01, 0x00, 0x00, 0x00, 0x01, 0x00, 0x00, 0x00, 0x12, 0x00, 0x00, 0x00,
  0x04, 0x00, 0x00, 0x00, 0x11, 0x00, 0x00, 0x00, 0x01, 0x00, 0x00, 0x00,
  0x02, 0x00, 0x00, 0x00, 0x02, 0x00, 0x00, 0x00, 0x00, 0x00, 0x0e, 0x00,
  0x16, 0x00, 0x00, 0x00, 0x10, 0x00, 0x0c, 0x00, 0x0b, 0x00, 0x04, 0x00,
  0x0e, 0x00, 0x00, 0x00, 0x18, 0x00, 0x00, 0x00, 0x00, 0x00, 0x00, 0x37,
  0x18, 0x00, 0x00, 0x00, 0x1c, 0x00, 0x00, 0x00, 0x00, 0x00, 0x06, 0x00,
  0x08, 0x00, 0x07, 0x00, 0x06, 0x00, 0x00, 0x00, 0x00, 0x00, 0x00, 0x02,
  0x01, 0x00, 0x00, 0x00, 0x11, 0x00, 0x00, 0x00, 0x01, 0x00, 0x00, 0x00,
  0x00, 0x00, 0x00, 0x00, 0x01, 0x00, 0x00, 0x00, 0x25, 0x00, 0x00, 0x00,
  0x01, 0x00, 0x00, 0x00, 0x00, 0x00, 0x00, 0x00, 0x26, 0x00, 0x00, 0x00,
  0xb0, 0x0d, 0x00, 0x00, 0x44, 0x0d, 0x00, 0x00, 0xe0, 0x0c, 0x00, 0x00,
  0x94, 0x0c, 0x00, 0x00, 0x34, 0x0c, 0x00, 0x00, 0xec, 0x0b, 0x00, 0x00,
  0xb0, 0x0b, 0x00, 0x00, 0x4c, 0x0b, 0x00, 0x00, 0x1c, 0x0b, 0x00, 0x00,
  0xe0, 0x0a, 0x00, 0x00, 0xa0, 0x0a, 0x00, 0x00, 0x60, 0x0a, 0x00, 0x00,
  0xf8, 0x09, 0x00, 0x00, 0x8c, 0x09, 0x00, 0x00, 0x18, 0x09, 0x00, 0x00,
  0xac, 0x08, 0x00, 0x00, 0x38, 0x08, 0x00, 0x00, 0xf4, 0x07, 0x00, 0x00,
  0xac, 0x07, 0x00, 0x00, 0x60, 0x07, 0x00, 0x00, 0xe8, 0x06, 0x00, 0x00,
  0x9c, 0x06, 0x00, 0x00, 0x50, 0x06, 0x00, 0x00, 0xe0, 0x05, 0x00, 0x00,
  0x90, 0x05, 0x00, 0x00, 0x40, 0x05, 0x00, 0x00, 0xec, 0x04, 0x00, 0x00,
  0x98, 0x04, 0x00, 0x00, 0x44, 0x04, 0x00, 0x00, 0xdc, 0x03, 0x00, 0x00,
  0x74, 0x03, 0x00, 0x00, 0x20, 0x03, 0x00, 0x00, 0xb8, 0x02, 0x00, 0x00,
  0x40, 0x02, 0x00, 0x00, 0xd0, 0x01, 0x00, 0x00, 0x1c, 0x01, 0x00, 0x00,
  0x80, 0x00, 0x00, 0x00, 0x04, 0x00, 0x00, 0x00, 0xfc, 0xf2, 0xff, 0xff,
  0x18, 0x00, 0x00, 0x00, 0x20, 0x00, 0x00, 0x00, 0x40, 0x00, 0x00, 0x00,
  0x26, 0x00, 0x00, 0x00, 0x00, 0x00, 0x00, 0x09, 0x54, 0x00, 0x00, 0x00,
  0x02, 0x00, 0x00, 0x00, 0xff, 0xff, 0xff, 0xff, 0x04, 0x00, 0x00, 0x00,
  0xe4, 0xf2, 0xff, 0xff, 0x08, 0x00, 0x00, 0x00, 0x14, 0x00, 0x00, 0x00,
  0x01, 0x00, 0x00, 0x00, 0x80, 0xff, 0xff, 0xff, 0xff, 0xff, 0xff, 0xff,
  0x00, 0x00, 0x00, 0x00, 0x01, 0x00, 0x00, 0x00, 0x00, 0x00, 0x80, 0x3b,
  0x19, 0x00, 0x00, 0x00, 0x53, 0x74, 0x61, 0x74, 0x65, 0x66, 0x75, 0x6c,
  0x50, 0x61, 0x72, 0x74, 0x69, 0x74, 0x69, 0x6f, 0x6e, 0x65, 0x64, 0x43,
  0x61, 0x6c, 0x6c, 0x3a, 0x30, 0x00, 0x00, 0x00, 0x02, 0x00, 0x00, 0x00,
  0x01, 0x00, 0x00, 0x00, 0x04, 0x00, 0x00, 0x00, 0x74, 0xf3, 0xff, 0xff,
  0x18, 0x00, 0x00, 0x00, 0x20, 0x00, 0x00, 0x00, 0x40, 0x00, 0x00, 0x00,
  0x25, 0x00, 0x00, 0x00, 0x00, 0x00, 0x00, 0x09, 0x74, 0x00, 0x00, 0x00,
  0x02, 0x00, 0x00, 0x00, 0xff, 0xff, 0xff, 0xff, 0x04, 0x00, 0x00, 0x00,
  0x5c, 0xf3, 0xff, 0xff, 0x08, 0x00, 0x00, 0x00, 0x14, 0x00, 0x00, 0x00,
  0x01, 0x00, 0x00, 0x00, 0x26, 0x00, 0x00, 0x00, 0x00, 0x00, 0x00, 0x00,
  0x00, 0x00, 0x00, 0x00, 0x01, 0x00, 0x00, 0x00, 0xad, 0x1b, 0x85, 0x3d,
  0x38, 0x00, 0x00, 0x00, 0x73, 0x65, 0x71, 0x75, 0x65, 0x6e, 0x74, 0x69,
  0x61, 0x6c, 0x5f, 0x32, 0x2f, 0x64, 0x65, 0x6e, 0x73, 0x65, 0x5f, 0x32,
  0x2f, 0x4d, 0x61, 0x74, 0x4d, 0x75, 0x6c, 0x3b, 0x73, 0x65, 0x71, 0x75,
  0x65, 0x6e, 0x74, 0x69, 0x61, 0x6c, 0x5f, 0x32, 0x2f, 0x64, 0x65, 0x6e,
  0x73, 0x65, 0x5f, 0x32, 0x2f, 0x42, 0x69, 0x61, 0x73, 0x41, 0x64, 0x64,
  0x00, 0x00, 0x00, 0x00, 0x02, 0x00, 0x00, 0x00, 0x01, 0x00, 0x00, 0x00,
  0x04, 0x00, 0x00, 0x00, 0x0c, 0xf4, 0xff, 0xff, 0x18, 0x00, 0x00, 0x00,
  0x20, 0x00, 0x00, 0x00, 0x40, 0x00, 0x00, 0x00, 0x24, 0x00, 0x00, 0x00,
  0x00, 0x00, 0x00, 0x09, 0x8c, 0x00, 0x00, 0x00, 0x02, 0x00, 0x00, 0x00,
  0xff, 0xff, 0xff, 0xff, 0x64, 0x00, 0x00, 0x00, 0xf4, 0xf3, 0xff, 0xff,
  0x08, 0x00, 0x00, 0x00, 0x14, 0x00, 0x00, 0x00, 0x01, 0x00, 0x00, 0x00,
  0x80, 0xff, 0xff, 0xff, 0xff, 0xff, 0xff, 0xff, 0x00, 0x00, 0x00, 0x00,
  0x01, 0x00, 0x00, 0x00, 0x21, 0x56, 0x11, 0x3c, 0x52, 0x00, 0x00, 0x00,
  0x73, 0x65, 0x71, 0x75, 0x65, 0x6e, 0x74, 0x69, 0x61, 0x6c, 0x5f, 0x32,
  0x2f, 0x64, 0x65, 0x6e, 0x73, 0x65, 0x5f, 0x31, 0x2f, 0x4d, 0x61, 0x74,
  0x4d, 0x75, 0x6c, 0x3b, 0x73, 0x65, 0x71, 0x75, 0x65, 0x6e, 0x74, 0x69,
  0x61, 0x6c, 0x5f, 0x32, 0x2f, 0x64, 0x65, 0x6e, 0x73, 0x65, 0x5f, 0x31,
  0x2f, 0x52, 0x65, 0x6c, 0x75, 0x3b, 0x73, 0x65, 0x71, 0x75, 0x65, 0x6e,
  0x74, 0x69, 0x61, 0x6c, 0x5f, 0x32, 0x2f, 0x64, 0x65, 0x6e, 0x73, 0x65,
  0x5f, 0x31, 0x2f, 0x42, 0x69, 0x61, 0x73, 0x41, 0x64, 0x64, 0x00, 0x00,
  0x02, 0x00, 0x00, 0x00, 0x01, 0x00, 0x00, 0x00, 0x64, 0x00, 0x00, 0x00,
  0xbc, 0xf4, 0xff, 0xff, 0x18, 0x00, 0x00, 0x00, 0x20, 0x00, 0x00, 0x00,
  0x3c, 0x00, 0x00, 0x00, 0x23, 0x00, 0x00, 0x00, 0x00, 0x00, 0x00, 0x09,
  0x48, 0x00, 0x00, 0x00, 0x02, 0x00, 0x00, 0x00, 0xff, 0xff, 0xff, 0xff,
  0x0a, 0x00, 0x00, 0x00, 0xa4, 0xf4, 0xff, 0xff, 0x08, 0x00, 0x00, 0x00,
  0x10, 0x00, 0x00, 0x00, 0x01, 0x00, 0x00, 0x00, 0x06, 0x00, 0x00, 0x00,
  0x00, 0x00, 0x00, 0x00, 0x01, 0x00, 0x00, 0x00, 0x86, 0x81, 0x99, 0x3b,
  0x10, 0x00, 0x00, 0x00, 0x73, 0x74, 0x72, 0x69, 0x64, 0x65, 0x64, 0x5f,
  0x73, 0x6c, 0x69, 0x63, 0x65, 0x5f, 0x32, 0x33, 0x00, 0x00, 0x00, 0x00,
  0x02, 0x00, 0x00, 0x00, 0x01, 0x00, 0x00, 0x00, 0x0a, 0x00, 0x00, 0x00,
  0x28, 0xf5, 0xff, 0xff, 0x18, 0x00, 0x00, 0x00, 0x24, 0x00, 0x00, 0x00,
  0x44, 0x00, 0x00, 0x00, 0x22, 0x00, 0x00, 0x00, 0x00, 0x00, 0x00, 0x09,
  0x4c, 0x00, 0x00, 0x00, 0x03, 0x00, 0x00, 0x00, 0x01, 0x00, 0x00, 0x00,
  0xff, 0xff, 0xff, 0xff, 0x0a, 0x00, 0x00, 0x00, 0x14, 0xf5, 0xff, 0xff,
  0x08, 0x00, 0x00, 0x00, 0x14, 0x00, 0x00, 0x00, 0x01, 0x00, 0x00, 0x00,
  0x06, 0x00, 0x00, 0x00, 0x00, 0x00, 0x00, 0x00, 0x00, 0x00, 0x00, 0x00,
  0x01, 0x00, 0x00, 0x00, 0x86, 0x81, 0x99, 0x3b, 0x0c, 0x00, 0x00, 0x00,
  0x74, 0x66, 0x6c, 0x2e, 0x71, 0x75, 0x61, 0x6e, 0x74, 0x69, 0x7a, 0x65,
  0x00, 0x00, 0x00, 0x00, 0x03, 0x00, 0x00, 0x00, 0x01, 0x00, 0x00, 0x00,
  0x01, 0x00, 0x00, 0x00, 0x0a, 0x00, 0x00, 0x00, 0x5c, 0xfc, 0xff, 0xff,
  0x14, 0x00, 0x00, 0x00, 0x20, 0x00, 0x00, 0x00, 0x20, 0x00, 0x00, 0x00,
  0x21, 0x00, 0x00, 0x00, 0x40, 0x00, 0x00, 0x00, 0x03, 0x00, 0x00, 0x00,
  0x01, 0x00, 0x00, 0x00, 0xff, 0xff, 0xff, 0xff, 0x0a, 0x00, 0x00, 0x00,
  0x00, 0xf6, 0xff, 0xff, 0x22, 0x00, 0x00, 0x00, 0x54, 0x65, 0x6e, 0x73,
  0x6f, 0x72, 0x41, 0x72, 0x72, 0x61, 0x79, 0x56, 0x32, 0x53, 0x74, 0x61,
  0x63, 0x6b, 0x2f, 0x54, 0x65, 0x6e, 0x73, 0x6f, 0x72, 0x4c, 0x69, 0x73,
  0x74, 0x53, 0x74, 0x61, 0x63, 0x6b, 0x00, 0x00, 0x03, 0x00, 0x00, 0x00,
  0x01, 0x00, 0x00, 0x00, 0x01, 0x00, 0x00, 0x00, 0x0a, 0x00, 0x00, 0x00,
  0x62, 0xf6, 0xff, 0xff, 0x14, 0x00, 0x00, 0x00, 0x14, 0x00, 0x00, 0x00,
  0x20, 0x00, 0x00, 0x00, 0x00, 0x00, 0x00, 0x0e, 0x38, 0x00, 0x00, 0x00,
  0x54, 0xf6, 0xff, 0xff, 0x29, 0x00, 0x00, 0x00, 0x77, 0x68, 0x69, 0x6c,
  0x65, 0x3b, 0x77, 0x68, 0x69, 0x6c, 0x65, 0x31, 0x3b, 0x77, 0x68, 0x69,
  0x6c, 0x65, 0x32, 0x3b, 0x77, 0x68, 0x69, 0x6c, 0x65, 0x33, 0x3b, 0x77,
  0x68, 0x69, 0x6c, 0x65, 0x34, 0x3b, 0x77, 0x68, 0x69, 0x6c, 0x65, 0x35,
  0x35, 0x00, 0x00, 0x00, 0x00, 0x00, 0x00, 0x00, 0x10, 0xfd, 0xff, 0xff,
  0x14, 0x00, 0x00, 0x00, 0x1c, 0x00, 0x00, 0x00, 0x1c, 0x00, 0x00, 0x00,
  0x1f, 0x00, 0x00, 0x00, 0x44, 0x00, 0x00, 0x00, 0x02, 0x00, 0x00, 0x00,
  0xff, 0xff, 0xff, 0xff, 0x0a, 0x00, 0x00, 0x00, 0xb0, 0xf6, 0xff, 0xff,
  0x29, 0x00, 0x00, 0x00, 0x77, 0x68, 0x69, 0x6c, 0x65, 0x3b, 0x77, 0x68,
  0x69, 0x6c, 0x65, 0x31, 0x3b, 0x77, 0x68, 0x69, 0x6c, 0x65, 0x32, 0x3b,
  0x77, 0x68, 0x69, 0x6c, 0x65, 0x33, 0x3b, 0x77, 0x68, 0x69, 0x6c, 0x65,
  0x34, 0x3b, 0x77, 0x68, 0x69, 0x6c, 0x65, 0x35, 0x34, 0x00, 0x00, 0x00,
  0x02, 0x00, 0x00, 0x00, 0x01, 0x00, 0x00, 0x00, 0x0a, 0x00, 0x00, 0x00,
  0x74, 0xfd, 0xff, 0xff, 0x14, 0x00, 0x00, 0x00, 0x1c, 0x00, 0x00, 0x00,
  0x1c, 0x00, 0x00, 0x00, 0x1e, 0x00, 0x00, 0x00, 0x44, 0x00, 0x00, 0x00,
  0x02, 0x00, 0x00, 0x00, 0xff, 0xff, 0xff, 0xff, 0x0a, 0x00, 0x00, 0x00,
  0x14, 0xf7, 0xff, 0xff, 0x29, 0x00, 0x00, 0x00, 0x77, 0x68, 0x69, 0x6c,
  0x65, 0x3b, 0x77, 0x68, 0x69, 0x6c, 0x65, 0x31, 0x3b, 0x77, 0x68, 0x69,
  0x6c, 0x65, 0x32, 0x3b, 0x77, 0x68, 0x69, 0x6c, 0x65, 0x33, 0x3b, 0x77,
  0x68, 0x69, 0x6c, 0x65, 0x34, 0x3b, 0x77, 0x68, 0x69, 0x6c, 0x65, 0x35,
  0x33, 0x00, 0x00, 0x00, 0x02, 0x00, 0x00, 0x00, 0x01, 0x00, 0x00, 0x00,
  0x0a, 0x00, 0x00, 0x00, 0x7a, 0xf7, 0xff, 0xff, 0x14, 0x00, 0x00, 0x00,
  0x14, 0x00, 0x00, 0x00, 0x1d, 0x00, 0x00, 0x00, 0x00, 0x00, 0x00, 0x0e,
  0x38, 0x00, 0x00, 0x00, 0x6c, 0xf7, 0xff, 0xff, 0x29, 0x00, 0x00, 0x00,
  0x77, 0x68, 0x69, 0x6c, 0x65, 0x3b, 0x77, 0x68, 0x69, 0x6c, 0x65, 0x31,
  0x3b, 0x77, 0x68, 0x69, 0x6c, 0x65, 0x32, 0x3b, 0x77, 0x68, 0x69, 0x6c,
  0x65, 0x33, 0x3b, 0x77, 0x68, 0x69, 0x6c, 0x65, 0x34, 0x3b, 0x77, 0x68,
  0x69, 0x6c, 0x65, 0x35, 0x32, 0x00, 0x00, 0x00, 0x00, 0x00, 0x00, 0x00,
  0xca, 0xf7, 0xff, 0xff, 0x14, 0x00, 0x00, 0x00, 0x14, 0x00, 0x00, 0x00,
  0x1c, 0x00, 0x00, 0x00, 0x00, 0x00, 0x00, 0x02, 0x38, 0x00, 0x00, 0x00,
  0xbc, 0xf7, 0xff, 0xff, 0x29, 0x00, 0x00, 0x00, 0x77, 0x68, 0x69, 0x6c,
  0x65, 0x3b, 0x77, 0x68, 0x69, 0x6c, 0x65, 0x31, 0x3b, 0x77, 0x68, 0x69,
  0x6c, 0x65, 0x32, 0x3b, 0x77, 0x68, 0x69, 0x6c, 0x65, 0x33, 0x3b, 0x77,
  0x68, 0x69, 0x6c, 0x65, 0x34, 0x3b, 0x77, 0x68, 0x69, 0x6c, 0x65, 0x35,
  0x31, 0x00, 0x00, 0x00, 0x00, 0x00, 0x00, 0x00, 0x1a, 0xf8, 0xff, 0xff,
  0x14, 0x00, 0x00, 0x00, 0x14, 0x00, 0x00, 0x00, 0x1b, 0x00, 0x00, 0x00,
  0x00, 0x00, 0x00, 0x02, 0x38, 0x00, 0x00, 0x00, 0x0c, 0xf8, 0xff, 0xff,
  0x28, 0x00, 0x00, 0x00, 0x77, 0x68, 0x69, 0x6c, 0x65, 0x3b, 0x77, 0x68,
  0x69, 0x6c, 0x65, 0x31, 0x3b, 0x77, 0x68, 0x69, 0x6c, 0x65, 0x32, 0x3b,
  0x77, 0x68, 0x69, 0x6c, 0x65, 0x33, 0x3b, 0x77, 0x68, 0x69, 0x6c, 0x65,
  0x34, 0x3b, 0x77, 0x68, 0x69, 0x6c, 0x65, 0x35, 0x00, 0x00, 0x00, 0x00,
  0x00, 0x00, 0x00, 0x00, 0x6a, 0xf8, 0xff, 0xff, 0x14, 0x00, 0x00, 0x00,
  0x14, 0x00, 0x00, 0x00, 0x1a, 0x00, 0x00, 0x00, 0x00, 0x00, 0x00, 0x0e,
  0x34, 0x00, 0x00, 0x00, 0x5c, 0xf8, 0xff, 0xff, 0x27, 0x00, 0x00, 0x00,
  0x54, 0x65, 0x6e, 0x73, 0x6f, 0x72, 0x41, 0x72, 0x72, 0x61, 0x79, 0x55,
  0x6e, 0x73, 0x74, 0x61, 0x63, 0x6b, 0x2f, 0x54, 0x65, 0x6e, 0x73, 0x6f,
  0x72, 0x4c, 0x69, 0x73, 0x74, 0x46, 0x72, 0x6f, 0x6d, 0x54, 0x65, 0x6e,
  0x73, 0x6f, 0x72, 0x00, 0x00, 0x00, 0x00, 0x00, 0x14, 0xff, 0xff, 0xff,
  0x14, 0x00, 0x00, 0x00, 0x20, 0x00, 0x00, 0x00, 0x20, 0x00, 0x00, 0x00,
  0x19, 0x00, 0x00, 0x00, 0x28, 0x00, 0x00, 0x00, 0x03, 0x00, 0x00, 0x00,
  0x14, 0x00, 0x00, 0x00, 0xff, 0xff, 0xff, 0xff, 0x09, 0x00, 0x00, 0x00,
  0xb8, 0xf8, 0xff, 0xff, 0x0a, 0x00, 0x00, 0x00, 0x74, 0x72, 0x61, 0x6e,
  0x73, 0x70, 0x6f, 0x73, 0x65, 0x31, 0x00, 0x00, 0x03, 0x00, 0x00, 0x00,
  0x14, 0x00, 0x00, 0x00, 0x01, 0x00, 0x00, 0x00, 0x09, 0x00, 0x00, 0x00,
  0xa0, 0xf8, 0xff, 0xff, 0x18, 0x00, 0x00, 0x00, 0x24, 0x00, 0x00, 0x00,
  0x40, 0x00, 0x00, 0x00, 0x18, 0x00, 0x00, 0x00, 0x00, 0x00, 0x00, 0x09,
  0x44, 0x00, 0x00, 0x00, 0x03, 0x00, 0x00, 0x00, 0x14, 0x00, 0x00, 0x00,
  0xff, 0xff, 0xff, 0xff, 0x09, 0x00, 0x00, 0x00, 0x8c, 0xf8, 0xff, 0xff,
  0x08, 0x00, 0x00, 0x00, 0x10, 0x00, 0x00, 0x00, 0x01, 0x00, 0x00, 0x00,
  0x80, 0xff, 0xff, 0xff, 0xff, 0xff, 0xff, 0xff, 0x01, 0x00, 0x00, 0x00,
  0x81, 0x80, 0x80, 0x3b, 0x09, 0x00, 0x00, 0x00, 0x74, 0x72, 0x61, 0x6e,
  0x73, 0x70, 0x6f, 0x73, 0x65, 0x00, 0x00, 0x00, 0x03, 0x00, 0x00, 0x00,
  0x14, 0x00, 0x00, 0x00, 0x01, 0x00, 0x00, 0x00, 0x09, 0x00, 0x00, 0x00,
  0x6e, 0xf9, 0xff, 0xff, 0x14, 0x00, 0x00, 0x00, 0x14, 0x00, 0x00, 0x00,
  0x17, 0x00, 0x00, 0x00, 0x00, 0x00, 0x00, 0x0e, 0x1c, 0x00, 0x00, 0x00,
  0x60, 0xf9, 0xff, 0xff, 0x0f, 0x00, 0x00, 0x00, 0x54, 0x65, 0x6e, 0x73,
  0x6f, 0x72, 0x41, 0x72, 0x72, 0x61, 0x79, 0x56, 0x32, 0x5f, 0x31, 0x00,
  0x00, 0x00, 0x00, 0x00, 0x14, 0x00, 0x18, 0x00, 0x14, 0x00, 0x00, 0x00,
  0x10, 0x00, 0x0c, 0x00, 0x08, 0x00, 0x00, 0x00, 0x00, 0x00, 0x04, 0x00,
  0x14, 0x00, 0x00, 0x00, 0x14, 0x00, 0x00, 0x00, 0x1c, 0x00, 0x00, 0x00,
  0x1c, 0x00, 0x00, 0x00, 0x16, 0x00, 0x00, 0x00, 0x28, 0x00, 0x00, 0x00,
  0x02, 0x00, 0x00, 0x00, 0xff, 0xff, 0xff, 0xff, 0x0a, 0x00, 0x00, 0x00,
  0xb4, 0xf9, 0xff, 0xff, 0x0e, 0x00, 0x00, 0x00, 0x74, 0x66, 0x6c, 0x2e,
  0x64, 0x65, 0x71, 0x75, 0x61, 0x6e, 0x74, 0x69, 0x7a, 0x65, 0x00, 0x00,
  0x02, 0x00, 0x00, 0x00, 0x01, 0x00, 0x00, 0x00, 0x0a, 0x00, 0x00, 0x00,
  0x9c, 0xf9, 0xff, 0xff, 0x18, 0x00, 0x00, 0x00, 0x20, 0x00, 0x00, 0x00,
  0x40, 0x00, 0x00, 0x00, 0x15, 0x00, 0x00, 0x00, 0x00, 0x00, 0x00, 0x09,
  0x50, 0x00, 0x00, 0x00, 0x02, 0x00, 0x00, 0x00, 0xff, 0xff, 0xff, 0xff,
  0x0a, 0x00, 0x00, 0x00, 0x84, 0xf9, 0xff, 0xff, 0x08, 0x00, 0x00, 0x00,
  0x14, 0x00, 0x00, 0x00, 0x01, 0x00, 0x00, 0x00, 0x00, 0x00, 0x00, 0x00,
  0x00, 0x00, 0x00, 0x00, 0x00, 0x00, 0x00, 0x00, 0x01, 0x00, 0x00, 0x00,
  0x7b, 0xbe, 0x06, 0x32, 0x17, 0x00, 0x00, 0x00, 0x73, 0x65, 0x71, 0x75,
  0x65, 0x6e, 0x74, 0x69, 0x61, 0x6c, 0x5f, 0x32, 0x2f, 0x6c, 0x73, 0x74,
  0x6d, 0x2f, 0x7a, 0x65, 0x72, 0x6f, 0x73, 0x00, 0x02, 0x00, 0x00, 0x00,
  0x01, 0x00, 0x00, 0x00, 0x0a, 0x00, 0x00, 0x00, 0x72, 0xfa, 0xff, 0xff,
  0x14, 0x00, 0x00, 0x00, 0x14, 0x00, 0x00, 0x00, 0x14, 0x00, 0x00, 0x00,
  0x00, 0x00, 0x00, 0x02, 0x2c, 0x00, 0x00, 0x00, 0x64, 0xfa, 0xff, 0xff,
  0x1e, 0x00, 0x00, 0x00, 0x73, 0x65, 0x71, 0x75, 0x65, 0x6e, 0x74, 0x69,
  0x61, 0x6c, 0x5f, 0x32, 0x2f, 0x6c, 0x73, 0x74, 0x6d, 0x2f, 0x7a, 0x65,
  0x72, 0x6f, 0x73, 0x2f, 0x70, 0x61, 0x63, 0x6b, 0x65, 0x64, 0x00, 0x00,
  0x01, 0x00, 0x00, 0x00, 0x02, 0x00, 0x00, 0x00, 0xba, 0xfa, 0xff, 0xff,
  0x14, 0x00, 0x00, 0x00, 0x14, 0x00, 0x00, 0x00, 0x13, 0x00, 0x00, 0x00,
  0x00, 0x00, 0x00, 0x02, 0x2c, 0x00, 0x00, 0x00, 0xac, 0xfa, 0xff, 0xff,
  0x1f, 0x00, 0x00, 0x00, 0x73, 0x65, 0x71, 0x75, 0x65, 0x6e, 0x74, 0x69,
  0x61, 0x6c, 0x5f, 0x32, 0x2f, 0x6c, 0x73, 0x74, 0x6d, 0x2f, 0x73, 0x74,
  0x72, 0x69, 0x64, 0x65, 0x64, 0x5f, 0x73, 0x6c, 0x69, 0x63, 0x65, 0x00,
  0x00, 0x00, 0x00, 0x00, 0xfe, 0xfa, 0xff, 0xff, 0x14, 0x00, 0x00, 0x00,
  0x14, 0x00, 0x00, 0x00, 0x12, 0x00, 0x00, 0x00, 0x00, 0x00, 0x00, 0x02,
  0x24, 0x00, 0x00, 0x00, 0xf0, 0xfa, 0xff, 0xff, 0x17, 0x00, 0x00, 0x00,
  0x73, 0x65, 0x71, 0x75, 0x65, 0x6e, 0x74, 0x69, 0x61, 0x6c, 0x5f, 0x32,
  0x2f, 0x6c, 0x73, 0x74, 0x6d, 0x2f, 0x53, 0x68, 0x61, 0x70, 0x65, 0x00,
  0x01, 0x00, 0x00, 0x00, 0x03, 0x00, 0x00, 0x00, 0x3e, 0xfb, 0xff, 0xff,
  0x14, 0x00, 0x00, 0x00, 0x30, 0x00, 0x00, 0x00, 0x11, 0x00, 0x00, 0x00,
  0x00, 0x00, 0x00, 0x02, 0x54, 0x00, 0x00, 0x00, 0xb4, 0xfa, 0xff, 0xff,
  0x08, 0x00, 0x00, 0x00, 0x10, 0x00, 0x00, 0x00, 0x01, 0x00, 0x00, 0x00,
  0x00, 0x00, 0x00, 0x00, 0x00, 0x00, 0x00, 0x00, 0x01, 0x00, 0x00, 0x00,
  0x71, 0xb9, 0xf7, 0x38, 0x2b, 0x00, 0x00, 0x00, 0x73, 0x65, 0x71, 0x75,
  0x65, 0x6e, 0x74, 0x69, 0x61, 0x6c, 0x5f, 0x32, 0x2f, 0x64, 0x65, 0x6e,
  0x73, 0x65, 0x5f, 0x32, 0x2f, 0x42, 0x69, 0x61, 0x73, 0x41, 0x64, 0x64,
  0x2f, 0x52, 0x65, 0x61, 0x64, 0x56, 0x61, 0x72, 0x69, 0x61, 0x62, 0x6c,
  0x65, 0x4f, 0x70, 0x00, 0x01, 0x00, 0x00, 0x00, 0x04, 0x00, 0x00, 0x00,
  0xae, 0xfb, 0xff, 0xff, 0x14, 0x00, 0x00, 0x00, 0x34, 0x00, 0x00, 0x00,
  0x10, 0x00, 0x00, 0x00, 0x00, 0x00, 0x00, 0x09, 0x48, 0x00, 0x00, 0x00,
  0x24, 0xfb, 0xff, 0xff, 0x08, 0x00, 0x00, 0x00, 0x14, 0x00, 0x00, 0x00,
  0x01, 0x00, 0x00, 0x00, 0x00, 0x00, 0x00, 0x00, 0x00, 0x00, 0x00, 0x00,
  0x00, 0x00, 0x00, 0x00, 0x01, 0x00, 0x00, 0x00, 0xb3, 0x2c, 0x5a, 0x3c,
  0x1b, 0x00, 0x00, 0x00, 0x73, 0x65, 0x71, 0x75, 0x65, 0x6e, 0x74, 0x69,
  0x61, 0x6c, 0x5f, 0x32, 0x2f, 0x64, 0x65, 0x6e, 0x73, 0x65, 0x5f, 0x32,
  0x2f, 0x4d, 0x61, 0x74, 0x4d, 0x75, 0x6c, 0x00, 0x02, 0x00, 0x00, 0x00,
  0x04, 0x00, 0x00, 0x00, 0x64, 0x00, 0x00, 0x00, 0x16, 0xfc, 0xff, 0xff,
  0x14, 0x00, 0x00, 0x00, 0x30, 0x00, 0x00, 0x00, 0x0f, 0x00, 0x00, 0x00,
  0x00, 0x00, 0x00, 0x02, 0x54, 0x00, 0x00, 0x00, 0x8c, 0xfb, 0xff, 0xff,
  0x08, 0x00, 0x00, 0x00, 0x10, 0x00, 0x00, 0x00, 0x01, 0x00, 0x00, 0x00,
  0x00, 0x00, 0x00, 0x00, 0x00, 0x00, 0x00, 0x00, 0x01, 0x00, 0x00, 0x00,
  0xce, 0x6d, 0x92, 0x38, 0x2b, 0x00, 0x00, 0x00, 0x73, 0x65, 0x71, 0x75,
  0x65, 0x6e, 0x74, 0x69, 0x61, 0x6c, 0x5f, 0x32, 0x2f, 0x64, 0x65, 0x6e,
  0x73, 0x65, 0x5f, 0x31, 0x2f, 0x42, 0x69, 0x61, 0x73, 0x41, 0x64, 0x64,
  0x2f, 0x52, 0x65, 0x61, 0x64, 0x56, 0x61, 0x72, 0x69, 0x61, 0x62, 0x6c,
  0x65, 0x4f, 0x70, 0x00, 0x01, 0x00, 0x00, 0x00, 0x64, 0x00, 0x00, 0x00,
  0x86, 0xfc, 0xff, 0xff, 0x14, 0x00, 0x00, 0x00, 0x34, 0x00, 0x00, 0x00,
  0x0e, 0x00, 0x00, 0x00, 0x00, 0x00, 0x00, 0x09, 0x48, 0x00, 0x00, 0x00,
  0xfc, 0xfb, 0xff, 0xff, 0x08, 0x00, 0x00, 0x00, 0x14, 0x00, 0x00, 0x00,
  0x01, 0x00, 0x00, 0x00, 0x00, 0x00, 0x00, 0x00, 0x00, 0x00, 0x00, 0x00,
  0x00, 0x00, 0x00, 0x00, 0x01, 0x00, 0x00, 0x00, 0x9f, 0x32, 0x74, 0x3c,
  0x1b, 0x00, 0x00, 0x00, 0x73, 0x65, 0x71, 0x75, 0x65, 0x6e, 0x74, 0x69,
  0x61, 0x6c, 0x5f, 0x32, 0x2f, 0x64, 0x65, 0x6e, 0x73, 0x65, 0x5f, 0x31,
  0x2f, 0x4d, 0x61, 0x74, 0x4d, 0x75, 0x6c, 0x00, 0x02, 0x00, 0x00, 0x00,
  0x64, 0x00, 0x00, 0x00, 0x0a, 0x00, 0x00, 0x00, 0xee, 0xfc, 0xff, 0xff,
  0x14, 0x00, 0x00, 0x00, 0x34, 0x00, 0x00, 0x00, 0x0d, 0x00, 0x00, 0x00,
  0x00, 0x00, 0x00, 0x09, 0x4c, 0x00, 0x00, 0x00, 0x64, 0xfc, 0xff, 0xff,
  0x08, 0x00, 0x00, 0x00, 0x14, 0x00, 0x00, 0x00, 0x01, 0x00, 0x00, 0x00,
  0x00, 0x00, 0x00, 0x00, 0x00, 0x00, 0x00, 0x00, 0x00, 0x00, 0x00, 0x00,
  0x01, 0x00, 0x00, 0x00, 0x7b, 0xbe, 0x06, 0x32, 0x1d, 0x00, 0x00, 0x00,
  0x73, 0x65, 0x71, 0x75, 0x65, 0x6e, 0x74, 0x69, 0x61, 0x6c, 0x5f, 0x32,
  0x2f, 0x6c, 0x73, 0x74, 0x6d, 0x2f, 0x7a, 0x65, 0x72, 0x6f, 0x73, 0x2f,
  0x43, 0x6f, 0x6e, 0x73, 0x74, 0x00, 0x00, 0x00, 0x00, 0x00, 0x00, 0x00,
  0x52, 0xfd, 0xff, 0xff, 0x14, 0x00, 0x00, 0x00, 0x14, 0x00, 0x00, 0x00,
  0x0c, 0x00, 0x00, 0x00, 0x00, 0x00, 0x00, 0x02, 0x20, 0x00, 0x00, 0x00,
  0x44, 0xfd, 0xff, 0xff, 0x10, 0x00, 0x00, 0x00, 0x73, 0x74, 0x72, 0x69,
  0x64, 0x65, 0x64, 0x5f, 0x73, 0x6c, 0x69, 0x63, 0x65, 0x5f, 0x32, 0x32,
  0x00, 0x00, 0x00, 0x00, 0x01, 0x00, 0x00, 0x00, 0x03, 0x00, 0x00, 0x00,
  0x8e, 0xfd, 0xff, 0xff, 0x14, 0x00, 0x00, 0x00, 0x14, 0x00, 0x00, 0x00,
  0x0b, 0x00, 0x00, 0x00, 0x00, 0x00, 0x00, 0x02, 0x20, 0x00, 0x00, 0x00,
  0x80, 0xfd, 0xff, 0xff, 0x10, 0x00, 0x00, 0x00, 0x73, 0x74, 0x72, 0x69,
  0x64, 0x65, 0x64, 0x5f, 0x73, 0x6c, 0x69, 0x63, 0x65, 0x5f, 0x32, 0x31,
  0x00, 0x00, 0x00, 0x00, 0x01, 0x00, 0x00, 0x00, 0x03, 0x00, 0x00, 0x00,
  0xca, 0xfd, 0xff, 0xff, 0x14, 0x00, 0x00, 0x00, 0x14, 0x00, 0x00, 0x00,
  0x0a, 0x00, 0x00, 0x00, 0x00, 0x00, 0x00, 0x02, 0x1c, 0x00, 0x00, 0x00,
  0xbc, 0xfd, 0xff, 0xff, 0x0f, 0x00, 0x00, 0x00, 0x73, 0x74, 0x72, 0x69,
  0x64, 0x65, 0x64, 0x5f, 0x73, 0x6c, 0x69, 0x63, 0x65, 0x5f, 0x32, 0x00,
  0x01, 0x00, 0x00, 0x00, 0x03, 0x00, 0x00, 0x00, 0x02, 0xfe, 0xff, 0xff,
  0x14, 0x00, 0x00, 0x00, 0x14, 0x00, 0x00, 0x00, 0x09, 0x00, 0x00, 0x00,
  0x00, 0x00, 0x00, 0x02, 0x14, 0x00, 0x00, 0x00, 0xf4, 0xfd, 0xff, 0xff,
  0x04, 0x00, 0x00, 0x00, 0x74, 0x69, 0x6d, 0x65, 0x00, 0x00, 0x00, 0x00,
  0x00, 0x00, 0x00, 0x00, 0x2e, 0xfe, 0xff, 0xff, 0x14, 0x00, 0x00, 0x00,
  0x14, 0x00, 0x00, 0x00, 0x08, 0x00, 0x00, 0x00, 0x00, 0x00, 0x00, 0x02,
  0x44, 0x00, 0x00, 0x00, 0x20, 0xfe, 0xff, 0xff, 0x35, 0x00, 0x00, 0x00,
  0x54, 0x65, 0x6e, 0x73, 0x6f, 0x72, 0x41, 0x72, 0x72, 0x61, 0x79, 0x55,
  0x6e, 0x73, 0x74, 0x61, 0x63, 0x6b, 0x2f, 0x54, 0x65, 0x6e, 0x73, 0x6f,
  0x72, 0x4c, 0x69, 0x73, 0x74, 0x46, 0x72, 0x6f, 0x6d, 0x54, 0x65, 0x6e,
  0x73, 0x6f, 0x72, 0x2f, 0x65, 0x6c, 0x65, 0x6d, 0x65, 0x6e, 0x74, 0x5f,
  0x73, 0x68, 0x61, 0x70, 0x65, 0x00, 0x00, 0x00, 0x01, 0x00, 0x00, 0x00,
  0x02, 0x00, 0x00, 0x00, 0x8e, 0xfe, 0xff, 0xff, 0x14, 0x00, 0x00, 0x00,
  0x14, 0x00, 0x00, 0x00, 0x07, 0x00, 0x00, 0x00, 0x00, 0x00, 0x00, 0x02,
  0x1c, 0x00, 0x00, 0x00, 0x80, 0xfe, 0xff, 0xff, 0x0e, 0x00, 0x00, 0x00,
  0x74, 0x72, 0x61, 0x6e, 0x73, 0x70, 0x6f, 0x73, 0x65, 0x2f, 0x70, 0x65,
  0x72, 0x6d, 0x00, 0x00, 0x01, 0x00, 0x00, 0x00, 0x03, 0x00, 0x00, 0x00,
  0xc6, 0xfe, 0xff, 0xff, 0x14, 0x00, 0x00, 0x00, 0x14, 0x00, 0x00, 0x00,
  0x06, 0x00, 0x00, 0x00, 0x00, 0x00, 0x00, 0x02, 0x2c, 0x00, 0x00, 0x00,
  0xb8, 0xfe, 0xff, 0xff, 0x1c, 0x00, 0x00, 0x00, 0x54, 0x65, 0x6e, 0x73,
  0x6f, 0x72, 0x41, 0x72, 0x72, 0x61, 0x79, 0x56, 0x32, 0x5f, 0x31, 0x2f,
  0x6e, 0x75, 0x6d, 0x5f, 0x65, 0x6c, 0x65, 0x6d, 0x65, 0x6e, 0x74, 0x73,
  0x00, 0x00, 0x00, 0x00, 0x00, 0x00, 0x00, 0x00, 0x0a, 0xff, 0xff, 0xff,
  0x14, 0x00, 0x00, 0x00, 0x14, 0x00, 0x00, 0x00, 0x05, 0x00, 0x00, 0x00,
  0x00, 0x00, 0x00, 0x02, 0x40, 0x00, 0x00, 0x00, 0xfc, 0xfe, 0xff, 0xff,
  0x30, 0x00, 0x00, 0x00, 0x54, 0x65, 0x6e, 0x73, 0x6f, 0x72, 0x41, 0x72,
  0x72, 0x61, 0x79, 0x56, 0x32, 0x53, 0x74, 0x61, 0x63, 0x6b, 0x2f, 0x54,
  0x65, 0x6e, 0x73, 0x6f, 0x72, 0x4c, 0x69, 0x73, 0x74, 0x53, 0x74, 0x61,
  0x63, 0x6b, 0x2f, 0x65, 0x6c, 0x65, 0x6d, 0x65, 0x6e, 0x74, 0x5f, 0x73,
  0x68, 0x61, 0x70, 0x65, 0x00, 0x00, 0x00, 0x00, 0x01, 0x00, 0x00, 0x00,
  0x02, 0x00, 0x00, 0x00, 0x66, 0xff, 0xff, 0xff, 0x14, 0x00, 0x00, 0x00,
  0x14, 0x00, 0x00, 0x00, 0x04, 0x00, 0x00, 0x00, 0x00, 0x00, 0x00, 0x02,
  0x30, 0x00, 0x00, 0x00, 0x58, 0xff, 0xff, 0xff, 0x20, 0x00, 0x00, 0x00,
  0x73, 0x65, 0x71, 0x75, 0x65, 0x6e, 0x74, 0x69, 0x61, 0x6c, 0x5f, 0x32,
  0x2f, 0x6c, 0x73, 0x74, 0x6d, 0x2f, 0x7a, 0x65, 0x72, 0x6f, 0x73, 0x2f,
  0x70, 0x61, 0x63, 0x6b, 0x65, 0x64, 0x2f, 0x31, 0x00, 0x00, 0x00, 0x00,
  0x00, 0x00, 0x00, 0x00, 0xae, 0xff, 0xff, 0xff, 0x14, 0x00, 0x00, 0x00,
  0x14, 0x00, 0x00, 0x00, 0x03, 0x00, 0x00, 0x00, 0x00, 0x00, 0x00, 0x02,
  0x34, 0x00, 0x00, 0x00, 0xa0, 0xff, 0xff, 0xff, 0x27, 0x00, 0x00, 0x00,
  0x73, 0x65, 0x71, 0x75, 0x65, 0x6e, 0x74, 0x69, 0x61, 0x6c, 0x5f, 0x32,
  0x2f, 0x6c, 0x73, 0x74, 0x6d, 0x2f, 0x73, 0x74, 0x72, 0x69, 0x64, 0x65,
  0x64, 0x5f, 0x73, 0x6c, 0x69, 0x63, 0x65, 0x2f, 0x73, 0x74, 0x61, 0x63,
  0x6b, 0x5f, 0x31, 0x00, 0x01, 0x00, 0x00, 0x00, 0x01, 0x00, 0x00, 0x00,
  0x00, 0x00, 0x0e, 0x00, 0x18, 0x00, 0x14, 0x00, 0x13, 0x00, 0x0c, 0x00,
  0x08, 0x00, 0x04, 0x00, 0x0e, 0x00, 0x00, 0x00, 0x18, 0x00, 0x00, 0x00,
  0x18, 0x00, 0x00, 0x00, 0x02, 0x00, 0x00, 0x00, 0x00, 0x00, 0x00, 0x02,
  0x38, 0x00, 0x00, 0x00, 0x04, 0x00, 0x04, 0x00, 0x04, 0x00, 0x00, 0x00,
  0x25, 0x00, 0x00, 0x00, 0x73, 0x65, 0x71, 0x75, 0x65, 0x6e, 0x74, 0x69,
  0x61, 0x6c, 0x5f, 0x32, 0x2f, 0x6c, 0x73, 0x74, 0x6d, 0x2f, 0x73, 0x74,
  0x72, 0x69, 0x64, 0x65, 0x64, 0x5f, 0x73, 0x6c, 0x69, 0x63, 0x65, 0x2f,
  0x73, 0x74, 0x61, 0x63, 0x6b, 0x00, 0x00, 0x00, 0x01, 0x00, 0x00, 0x00,
  0x01, 0x00, 0x00, 0x00, 0x14, 0x00, 0x1c, 0x00, 0x18, 0x00, 0x17, 0x00,
  0x10, 0x00, 0x0c, 0x00, 0x08, 0x00, 0x00, 0x00, 0x00, 0x00, 0x04, 0x00,
  0x14, 0x00, 0x00, 0x00, 0x18, 0x00, 0x00, 0x00, 0x30, 0x00, 0x00, 0x00,
  0x4c, 0x00, 0x00, 0x00, 0x01, 0x00, 0x00, 0x00, 0x00, 0x00, 0x00, 0x09,
  0x64, 0x00, 0x00, 0x00, 0x03, 0x00, 0x00, 0x00, 0xff, 0xff, 0xff, 0xff,
  0x14, 0x00, 0x00, 0x00, 0x09, 0x00, 0x00, 0x00, 0x0c, 0x00, 0x0c, 0x00,
  0x00, 0x00, 0x00, 0x00, 0x08, 0x00, 0x04, 0x00, 0x0c, 0x00, 0x00, 0x00,
  0x08, 0x00, 0x00, 0x00, 0x10, 0x00, 0x00, 0x00, 0x01, 0x00, 0x00, 0x00,
  0x80, 0xff, 0xff, 0xff, 0xff, 0xff, 0xff, 0xff, 0x01, 0x00, 0x00, 0x00,
  0x81, 0x80, 0x80, 0x3b, 0x1c, 0x00, 0x00, 0x00, 0x73, 0x65, 0x72, 0x76,
  0x69, 0x6e, 0x67, 0x5f, 0x64, 0x65, 0x66, 0x61, 0x75, 0x6c, 0x74, 0x5f,
  0x6c, 0x73, 0x74, 0x6d, 0x5f, 0x69, 0x6e, 0x70, 0x75, 0x74, 0x3a, 0x30,
  0x00, 0x00, 0x00, 0x00, 0x03, 0x00, 0x00, 0x00, 0x01, 0x00, 0x00, 0x00,
  0x14, 0x00, 0x00, 0x00, 0x09, 0x00, 0x00, 0x00, 0x15, 0x00, 0x00, 0x00,
  0x34, 0x02, 0x00, 0x00, 0x14, 0x02, 0x00, 0x00, 0xf8, 0x01, 0x00, 0x00,
  0xe4, 0x01, 0x00, 0x00, 0xd0, 0x01, 0x00, 0x00, 0xa0, 0x01, 0x00, 0x00,
  0x80, 0x01, 0x00, 0x00, 0x4c, 0x01, 0x00, 0x00, 0x3c, 0x01, 0x00, 0x00,
  0x10, 0x01, 0x00, 0x00, 0x00, 0x01, 0x00, 0x00, 0xec, 0x00, 0x00, 0x00,
  0xd8, 0x00, 0x00, 0x00, 0xc8, 0x00, 0x00, 0x00, 0xbc, 0x00, 0x00, 0x00,
  0x84, 0x00, 0x00, 0x00, 0x70, 0x00, 0x00, 0x00, 0x5c, 0x00, 0x00, 0x00,
  0x48, 0x00, 0x00, 0x00, 0x34, 0x00, 0x00, 0x00, 0x04, 0x00, 0x00, 0x00,
  0xac, 0xfe, 0xff, 0xff, 0x20, 0x00, 0x00, 0x00, 0x08, 0x00, 0x00, 0x00,
  0x00, 0x00, 0x00, 0x20, 0x15, 0x00, 0x00, 0x00, 0x46, 0x6c, 0x65, 0x78,
  0x54, 0x65, 0x6e, 0x73, 0x6f, 0x72, 0x4c, 0x69, 0x73, 0x74, 0x53, 0x65,
  0x74, 0x49, 0x74, 0x65, 0x6d, 0x00, 0x00, 0x00, 0x74, 0xfe, 0xff, 0xff,
  0x1c, 0x00, 0x00, 0x00, 0x02, 0x00, 0x00, 0x00, 0x00, 0x00, 0x00, 0x1c,
  0x84, 0xfe, 0xff, 0xff, 0x12, 0x00, 0x00, 0x00, 0x02, 0x00, 0x00, 0x00,
  0x00, 0x00, 0x00, 0x12, 0x94, 0xfe, 0xff, 0xff, 0x0e, 0x00, 0x00, 0x00,
  0x02, 0x00, 0x00, 0x00, 0x00, 0x00, 0x00, 0x0e, 0xa4, 0xfe, 0xff, 0xff,
  0x31, 0x00, 0x00, 0x00, 0x02, 0x00, 0x00, 0x00, 0x00, 0x00, 0x00, 0x31,
  0x18, 0xff, 0xff, 0xff, 0x20, 0x00, 0x00, 0x00, 0x08, 0x00, 0x00, 0x00,
  0x00, 0x00, 0x00, 0x20, 0x15, 0x00, 0x00, 0x00, 0x46, 0x6c, 0x65, 0x78,
  0x54, 0x65, 0x6e, 0x73, 0x6f, 0x72, 0x4c, 0x69, 0x73, 0x74, 0x47, 0x65,
  0x74, 0x49, 0x74, 0x65, 0x6d, 0x00, 0x0a, 0x00, 0x08, 0x00, 0x00, 0x00,
  0x00, 0x00, 0x04, 0x00, 0x0a, 0x00, 0x00, 0x00, 0x02, 0x00, 0x00, 0x00,
  0xd4, 0xfe, 0xff, 0xff, 0x3a, 0x00, 0x00, 0x00, 0x00, 0x00, 0x00, 0x3a,
  0xfc, 0xfe, 0xff, 0xff, 0x19, 0x00, 0x00, 0x00, 0x02, 0x00, 0x00, 0x00,
  0x00, 0x00, 0x00, 0x19, 0x0c, 0xff, 0xff, 0xff, 0x09, 0x00, 0x00, 0x00,
  0x04, 0x00, 0x00, 0x00, 0x00, 0x00, 0x00, 0x09, 0x00, 0xff, 0xff, 0xff,
  0x72, 0x00, 0x00, 0x00, 0x00, 0x00, 0x00, 0x72, 0x8c, 0xff, 0xff, 0xff,
  0x20, 0x00, 0x00, 0x00, 0x08, 0x00, 0x00, 0x00, 0x00, 0x00, 0x00, 0x20,
  0x13, 0x00, 0x00, 0x00, 0x46, 0x6c, 0x65, 0x78, 0x54, 0x65, 0x6e, 0x73,
  0x6f, 0x72, 0x4c, 0x69, 0x73, 0x74, 0x53, 0x74, 0x61, 0x63, 0x6b, 0x00,
  0x34, 0xff, 0xff, 0xff, 0x77, 0x00, 0x00, 0x00, 0x00, 0x00, 0x00, 0x77,
  0xc0, 0xff, 0xff, 0xff, 0x20, 0x00, 0x00, 0x00, 0x08, 0x00, 0x00, 0x00,
  0x00, 0x00, 0x00, 0x20, 0x18, 0x00, 0x00, 0x00, 0x46, 0x6c, 0x65, 0x78,
  0x54, 0x65, 0x6e, 0x73, 0x6f, 0x72, 0x4c, 0x69, 0x73, 0x74, 0x46, 0x72,
  0x6f, 0x6d, 0x54, 0x65, 0x6e, 0x73, 0x6f, 0x72, 0x00, 0x00, 0x00, 0x00,
  0x8c, 0xff, 0xff, 0xff, 0x27, 0x00, 0x00, 0x00, 0x02, 0x00, 0x00, 0x00,
  0x00, 0x00, 0x00, 0x27, 0x0c, 0x00, 0x10, 0x00, 0x0f, 0x00, 0x08, 0x00,
  0x00, 0x00, 0x04, 0x00, 0x0c, 0x00, 0x00, 0x00, 0x20, 0x00, 0x00, 0x00,
  0x08, 0x00, 0x00, 0x00, 0x00, 0x00, 0x00, 0x20, 0x15, 0x00, 0x00, 0x00,
  0x46, 0x6c, 0x65, 0x78, 0x54, 0x65, 0x6e, 0x73, 0x6f, 0x72, 0x4c, 0x69,
  0x73, 0x74, 0x52, 0x65, 0x73, 0x65, 0x72, 0x76, 0x65, 0x00, 0x00, 0x00,
  0xd4, 0xff, 0xff, 0xff, 0x06, 0x00, 0x00, 0x00, 0x02, 0x00, 0x00, 0x00,
  0x00, 0x00, 0x00, 0x06, 0xe4, 0xff, 0xff, 0xff, 0x5e, 0x00, 0x00, 0x00,
  0x03, 0x00, 0x00, 0x00, 0x00, 0x00, 0x00, 0x5e, 0xd8, 0xff, 0xff, 0xff,
  0x53, 0x00, 0x00, 0x00, 0x00, 0x00, 0x00, 0x53, 0x0c, 0x00, 0x10, 0x00,
  0x0f, 0x00, 0x00, 0x00, 0x08, 0x00, 0x04, 0x00, 0x0c, 0x00, 0x00, 0x00,
  0x2d, 0x00, 0x00, 0x00, 0x02, 0x00, 0x00, 0x00, 0x00, 0x00, 0x00, 0x2d,
  0x0c, 0x00, 0x0c, 0x00, 0x0b, 0x00, 0x00, 0x00, 0x00, 0x00, 0x04, 0x00,
  0x0c, 0x00, 0x00, 0x00, 0x4d, 0x00, 0x00, 0x00, 0x00, 0x00, 0x00, 0x4d
};
unsigned int model_len = 15192;
