unsigned char model[] = {
  0x20, 0x00, 0x00, 0x00, 0x54, 0x46, 0x4c, 0x33, 0x00, 0x00, 0x00, 0x00,
  0x14, 0x00, 0x20, 0x00, 0x1c, 0x00, 0x18, 0x00, 0x14, 0x00, 0x10, 0x00,
  0x0c, 0x00, 0x00, 0x00, 0x08, 0x00, 0x04, 0x00, 0x14, 0x00, 0x00, 0x00,
  0x1c, 0x00, 0x00, 0x00, 0x88, 0x00, 0x00, 0x00, 0xe0, 0x00, 0x00, 0x00,
  0x18, 0x15, 0x00, 0x00, 0x28, 0x15, 0x00, 0x00, 0xfc, 0x26, 0x00, 0x00,
  0x03, 0x00, 0x00, 0x00, 0x01, 0x00, 0x00, 0x00, 0x04, 0x00, 0x00, 0x00,
  0x22, 0xe9, 0xff, 0xff, 0x0c, 0x00, 0x00, 0x00, 0x1c, 0x00, 0x00, 0x00,
  0x38, 0x00, 0x00, 0x00, 0x0f, 0x00, 0x00, 0x00, 0x73, 0x65, 0x72, 0x76,
  0x69, 0x6e, 0x67, 0x5f, 0x64, 0x65, 0x66, 0x61, 0x75, 0x6c, 0x74, 0x00,
  0x01, 0x00, 0x00, 0x00, 0x04, 0x00, 0x00, 0x00, 0x94, 0xff, 0xff, 0xff,
  0x16, 0x00, 0x00, 0x00, 0x04, 0x00, 0x00, 0x00, 0x05, 0x00, 0x00, 0x00,
  0x64, 0x65, 0x6e, 0x73, 0x65, 0x00, 0x00, 0x00, 0x01, 0x00, 0x00, 0x00,
  0x04, 0x00, 0x00, 0x00, 0x26, 0xe9, 0xff, 0xff, 0x04, 0x00, 0x00, 0x00,
  0x0d, 0x00, 0x00, 0x00, 0x72, 0x65, 0x73, 0x68, 0x61, 0x70, 0x65, 0x5f,
  0x69, 0x6e, 0x70, 0x75, 0x74, 0x00, 0x00, 0x00, 0x02, 0x00, 0x00, 0x00,
  0x34, 0x00, 0x00, 0x00, 0x04, 0x00, 0x00, 0x00, 0xdc, 0xff, 0xff, 0xff,
  0x19, 0x00, 0x00, 0x00, 0x04, 0x00, 0x00, 0x00, 0x13, 0x00, 0x00, 0x00,
  0x43, 0x4f, 0x4e, 0x56, 0x45, 0x52, 0x53, 0x49, 0x4f, 0x4e, 0x5f, 0x4d,
  0x45, 0x54, 0x41, 0x44, 0x41, 0x54, 0x41, 0x00, 0x08, 0x00, 0x0c, 0x00,
  0x08, 0x00, 0x04, 0x00, 0x08, 0x00, 0x00, 0x00, 0x18, 0x00, 0x00, 0x00,
  0x04, 0x00, 0x00, 0x00, 0x13, 0x00, 0x00, 0x00, 0x6d, 0x69, 0x6e, 0x5f,
  0x72, 0x75, 0x6e, 0x74, 0x69, 0x6d, 0x65, 0x5f, 0x76, 0x65, 0x72, 0x73,
  0x69, 0x6f, 0x6e, 0x00, 0x1a, 0x00, 0x00, 0x00, 0x34, 0x14, 0x00, 0x00,
  0x2c, 0x14, 0x00, 0x00, 0x18, 0x14, 0x00, 0x00, 0x04, 0x14, 0x00, 0x00,
  0xfc, 0x13, 0x00, 0x00, 0xe8, 0x13, 0x00, 0x00, 0xd4, 0x13, 0x00, 0x00,
  0xbc, 0x13, 0x00, 0x00, 0xfc, 0x11, 0x00, 0x00, 0xac, 0x11, 0x00, 0x00,
  0x9c, 0x0b, 0x00, 0x00, 0x0c, 0x0b, 0x00, 0x00, 0xfc, 0x00, 0x00, 0x00,
  0xdc, 0x00, 0x00, 0x00, 0xd4, 0x00, 0x00, 0x00, 0xcc, 0x00, 0x00, 0x00,
  0xc4, 0x00, 0x00, 0x00, 0xbc, 0x00, 0x00, 0x00, 0xb4, 0x00, 0x00, 0x00,
  0xac, 0x00, 0x00, 0x00, 0xa4, 0x00, 0x00, 0x00, 0x9c, 0x00, 0x00, 0x00,
  0x94, 0x00, 0x00, 0x00, 0x8c, 0x00, 0x00, 0x00, 0x6c, 0x00, 0x00, 0x00,
  0x04, 0x00, 0x00, 0x00, 0x0a, 0xea, 0xff, 0xff, 0x04, 0x00, 0x00, 0x00,
  0x58, 0x00, 0x00, 0x00, 0x0c, 0x00, 0x00, 0x00, 0x08, 0x00, 0x0e, 0x00,
  0x08, 0x00, 0x04, 0x00, 0x08, 0x00, 0x00, 0x00, 0x10, 0x00, 0x00, 0x00,
  0x28, 0x00, 0x00, 0x00, 0x00, 0x00, 0x06, 0x00, 0x08, 0x00, 0x04, 0x00,
  0x06, 0x00, 0x00, 0x00, 0x04, 0x00, 0x00, 0x00, 0x01, 0x00, 0x00, 0x00,
  0xeb, 0x03, 0x00, 0x00, 0x00, 0x00, 0x0a, 0x00, 0x10, 0x00, 0x0c, 0x00,
  0x08, 0x00, 0x04, 0x00, 0x0a, 0x00, 0x00, 0x00, 0x01, 0x00, 0x00, 0x00,
  0x02, 0x00, 0x00, 0x00, 0x04, 0x00, 0x00, 0x00, 0x05, 0x00, 0x00, 0x00,
  0x32, 0x2e, 0x39, 0x2e, 0x30, 0x00, 0x00, 0x00, 0x6e, 0xea, 0xff, 0xff,
  0x04, 0x00, 0x00, 0x00, 0x10, 0x00, 0x00, 0x00, 0x31, 0x2e, 0x31, 0x34,
  0x2e, 0x30, 0x00, 0x00, 0x00, 0x00, 0x00, 0x00, 0x00, 0x00, 0x00, 0x00,
  0xa0, 0xdb, 0xff, 0xff, 0xa4, 0xdb, 0xff, 0xff, 0xa8, 0xdb, 0xff, 0xff,
  0xac, 0xdb, 0xff, 0xff, 0xb0, 0xdb, 0xff, 0xff, 0xb4, 0xdb, 0xff, 0xff,
  0xb8, 0xdb, 0xff, 0xff, 0xbc, 0xdb, 0xff, 0xff, 0xc0, 0xdb, 0xff, 0xff,
  0xc4, 0xdb, 0xff, 0xff, 0xb2, 0xea, 0xff, 0xff, 0x04, 0x00, 0x00, 0x00,
  0x10, 0x00, 0x00, 0x00, 0x3e, 0x02, 0x00, 0x00, 0x21, 0x00, 0x00, 0x00,
  0x07, 0xfb, 0xff, 0xff, 0x49, 0xfe, 0xff, 0xff, 0xce, 0xea, 0xff, 0xff,
  0x04, 0x00, 0x00, 0x00, 0x00, 0x0a, 0x00, 0x00, 0xba, 0x0e, 0xeb, 0xa4,
  0xd5, 0xdd, 0x37, 0xc9, 0xf4, 0xa0, 0xd9, 0xdc, 0xf9, 0xec, 0xcb, 0xf3,
  0x36, 0xe0, 0xef, 0xb7, 0x3d, 0x1d, 0xee, 0xde, 0x01, 0x1d, 0xf1, 0x21,
  0xf7, 0xfa, 0x16, 0x05, 0xa9, 0x3d, 0x23, 0xb6, 0xd8, 0xf3, 0x05, 0xeb,
  0xd2, 0xc7, 0xa6, 0xec, 0x17, 0xc6, 0xe9, 0x15, 0x39, 0x12, 0x0f, 0xd4,
  0x43, 0xed, 0x10, 0xec, 0x07, 0x01, 0xe3, 0x3f, 0x08, 0x1e, 0x1f, 0x1b,
  0xc9, 0x41, 0x1a, 0xba, 0xd9, 0xe3, 0x06, 0xce, 0xec, 0xb2, 0xa2, 0x1e,
  0x1d, 0xb7, 0xc9, 0x21, 0x2a, 0x21, 0xf1, 0xac, 0x28, 0xf4, 0x0f, 0x11,
  0x10, 0x24, 0x09, 0x1b, 0x1f, 0xea, 0x20, 0x08, 0xd4, 0x34, 0x1a, 0xa4,
  0xf4, 0xe5, 0x3f, 0xfe, 0xf4, 0xc7, 0xda, 0x0a, 0xef, 0xdd, 0x03, 0xe7,
  0x05, 0x03, 0x02, 0x98, 0x13, 0x0f, 0x00, 0xef, 0x20, 0x3b, 0x04, 0x11,
  0xf9, 0xf9, 0x3c, 0x27, 0xa4, 0x27, 0x16, 0xb8, 0xe2, 0x1c, 0x3a, 0xfe,
  0xd9, 0xa7, 0xa6, 0x15, 0x0a, 0xba, 0xe4, 0xe0, 0x1a, 0x14, 0x1f, 0xb4,
  0x44, 0x10, 0xdd, 0x16, 0x04, 0xfa, 0xd6, 0x34, 0x28, 0x00, 0x17, 0x23,
  0xcd, 0x43, 0x12, 0xb3, 0xd4, 0x0c, 0x13, 0xf9, 0xf4, 0xd6, 0xc1, 0xf5,
  0xe3, 0xd4, 0xfa, 0x00, 0x0a, 0x15, 0x18, 0xa8, 0x3d, 0x09, 0xf6, 0xe0,
  0xfb, 0x12, 0xd5, 0x2d, 0xec, 0x10, 0x23, 0x40, 0xbd, 0x2d, 0x02, 0xb5,
  0xf2, 0x19, 0x21, 0xbf, 0x08, 0xa5, 0xd9, 0x02, 0xe6, 0xc7, 0xcb, 0x05,
  0x35, 0xe2, 0xf5, 0xa0, 0x1d, 0xf6, 0xf1, 0xf7, 0x09, 0x22, 0xeb, 0x41,
  0x0d, 0x03, 0x30, 0x16, 0xbe, 0x35, 0xea, 0xd0, 0x00, 0xfb, 0x08, 0xc4,
  0xf7, 0xbb, 0xb0, 0x15, 0x10, 0xce, 0xf8, 0xdc, 0xfd, 0x12, 0xf8, 0xbf,
  0x3c, 0xdd, 0xf7, 0x0f, 0xf7, 0x07, 0xd8, 0x21, 0x23, 0xe9, 0x0a, 0x1e,
  0xc0, 0x29, 0x23, 0xe3, 0x07, 0x13, 0xff, 0x03, 0xfb, 0xdc, 0xc2, 0x08,
  0x14, 0xc8, 0xf0, 0x12, 0x05, 0x05, 0x0d, 0xb4, 0x15, 0x0d, 0xde, 0x0c,
  0x01, 0x25, 0x1b, 0xfd, 0xe9, 0x0a, 0x27, 0x07, 0xf5, 0x2c, 0x1d, 0xe7,
  0xfe, 0xea, 0x02, 0x14, 0xbf, 0xc7, 0xa4, 0x02, 0x18, 0xe4, 0xc8, 0xdf,
  0x2d, 0x02, 0x28, 0xd0, 0x1b, 0xf0, 0xeb, 0xea, 0xe5, 0x2f, 0xf9, 0x1c,
  0xe9, 0x07, 0x3c, 0x25, 0xd6, 0xf7, 0x11, 0x0a, 0x00, 0x03, 0x09, 0xf9,
  0xcd, 0xde, 0xef, 0xe4, 0x0b, 0x29, 0xd8, 0xe9, 0x16, 0x12, 0xe6, 0xfb,
  0x0e, 0x18, 0xba, 0x10, 0xfc, 0x0f, 0xf6, 0xef, 0x09, 0xe6, 0x2a, 0x12,
  0xea, 0xce, 0x13, 0xf4, 0x20, 0x17, 0xc0, 0x00, 0x1c, 0xe4, 0xe9, 0xe2,
  0xf3, 0x1a, 0x07, 0xe9, 0x0b, 0xf4, 0xe9, 0x07, 0xd4, 0x01, 0xe0, 0x22,
  0xd6, 0xe8, 0x26, 0xfe, 0xe2, 0x20, 0x10, 0xcc, 0xf4, 0xd7, 0x0d, 0x2e,
  0xf2, 0x04, 0xbb, 0x09, 0x15, 0x1e, 0xf3, 0xdd, 0xfd, 0xfb, 0xfd, 0x23,
  0x11, 0x22, 0x03, 0x22, 0xca, 0xf3, 0x1e, 0x1a, 0xe6, 0xdd, 0x30, 0xc0,
  0xee, 0x12, 0xe7, 0xb8, 0xfa, 0xb5, 0x1c, 0x01, 0x2c, 0x11, 0xb4, 0x37,
  0x1f, 0x2e, 0xf0, 0x02, 0x0b, 0x07, 0x0b, 0x00, 0x12, 0x16, 0xd5, 0x33,
  0xbb, 0x07, 0x2b, 0xfc, 0x00, 0xe1, 0xe4, 0xb8, 0xf7, 0xf5, 0xec, 0xde,
  0x1f, 0xdc, 0x17, 0x20, 0x36, 0xde, 0xd1, 0x0a, 0xf5, 0xf2, 0x2c, 0xf4,
  0xe0, 0xf4, 0x1e, 0xe6, 0xf2, 0xdd, 0xea, 0x19, 0xc0, 0x23, 0xfc, 0x21,
  0xe9, 0xdb, 0x1b, 0xb1, 0xe1, 0x0a, 0xbd, 0xee, 0x26, 0xd7, 0x21, 0x24,
  0x0c, 0x16, 0xe4, 0x0e, 0x0c, 0x14, 0xf2, 0x13, 0xe2, 0x13, 0xef, 0xe1,
  0xf7, 0x1d, 0xd6, 0x1a, 0xaf, 0x18, 0xfa, 0xdd, 0x0b, 0xdb, 0xe0, 0xca,
  0x08, 0xdf, 0xe3, 0xab, 0x09, 0xc9, 0xf8, 0x2f, 0x00, 0x0b, 0xcd, 0x23,
  0xe9, 0x30, 0x12, 0xed, 0xf7, 0x36, 0xe6, 0x21, 0xeb, 0xe3, 0xd9, 0x24,
  0xb6, 0x0b, 0x3b, 0x04, 0xe1, 0x03, 0xf5, 0xa2, 0x11, 0xe1, 0xcd, 0xe0,
  0x04, 0xa7, 0x09, 0x2b, 0x01, 0xf6, 0xcc, 0xf9, 0x05, 0x30, 0xf9, 0xf7,
  0x11, 0x12, 0x0b, 0xff, 0x1a, 0xf3, 0xed, 0xf4, 0xdd, 0xee, 0x3a, 0xfc,
  0xf7, 0xdd, 0x16, 0xd1, 0x0b, 0xea, 0xd2, 0xa9, 0x3d, 0xbf, 0xf1, 0x34,
  0x07, 0x18, 0xbb, 0x22, 0x02, 0x15, 0x1a, 0x0c, 0x23, 0xf0, 0x1c, 0xff,
  0x17, 0x18, 0xee, 0x04, 0xaa, 0xfd, 0x07, 0xe6, 0x02, 0xee, 0x28, 0xb0,
  0xf0, 0xf4, 0xa7, 0xb0, 0x09, 0xcf, 0xf4, 0x38, 0x04, 0xfd, 0xb7, 0x23,
  0x2a, 0xf1, 0xfd, 0x02, 0xf1, 0xfd, 0xe3, 0xed, 0xfc, 0xec, 0x06, 0x38,
  0xb4, 0x0c, 0x29, 0xef, 0xe0, 0xdf, 0x01, 0xc8, 0xfb, 0x03, 0xd0, 0xae,
  0x21, 0xa0, 0x20, 0x34, 0x20, 0xff, 0xc5, 0xfe, 0x1d, 0x16, 0xf1, 0x04,
  0xff, 0x2d, 0x2f, 0xf1, 0xf9, 0x23, 0xf7, 0x0d, 0xa9, 0x0e, 0x2b, 0xe3,
  0x15, 0x07, 0x02, 0xc7, 0xdd, 0x18, 0x9c, 0xbe, 0x18, 0xb4, 0xeb, 0x20,
  0x17, 0xe1, 0xe8, 0x0c, 0x11, 0x2b, 0x0e, 0xfc, 0x07, 0x2a, 0x20, 0x10,
  0xed, 0x06, 0xed, 0x31, 0xd5, 0x00, 0xe7, 0xf3, 0x0e, 0xbf, 0x19, 0xba,
  0xda, 0xe1, 0xa6, 0xca, 0x31, 0xce, 0xe0, 0xf6, 0x22, 0x1c, 0xca, 0xf6,
  0x24, 0x0d, 0xf5, 0x05, 0x16, 0xf2, 0xef, 0x20, 0xf0, 0xf3, 0x0c, 0x10,
  0xd5, 0x04, 0x14, 0x04, 0x0f, 0xdf, 0x23, 0xbd, 0x1e, 0xdf, 0xa5, 0xbd,
  0x0c, 0xa3, 0xe8, 0x2f, 0xee, 0xe4, 0xf2, 0xe9, 0xf8, 0x18, 0x16, 0x01,
  0x18, 0x1a, 0xec, 0x21, 0xdb, 0x09, 0x08, 0x08, 0xb5, 0x01, 0xfd, 0x10,
  0xec, 0xe2, 0x0d, 0xbe, 0x04, 0xe0, 0x93, 0xd4, 0x26, 0xd6, 0x1f, 0x24,
  0x18, 0xdd, 0xd8, 0xf1, 0x1a, 0xf6, 0x30, 0x06, 0xe8, 0x31, 0x11, 0xe6,
  0x15, 0xe6, 0xee, 0x0e, 0xd2, 0xe5, 0xf9, 0x19, 0x01, 0xc0, 0xf5, 0xbd,
  0xdb, 0x1e, 0xd8, 0x9d, 0x1b, 0x9f, 0xe4, 0x17, 0x00, 0x15, 0xc3, 0xef,
  0xf6, 0xfc, 0x14, 0x1d, 0xee, 0x02, 0xed, 0xe0, 0xfc, 0xdf, 0xda, 0x38,
  0xb0, 0xfd, 0x23, 0x09, 0xe0, 0xea, 0x12, 0xb7, 0x1c, 0xe4, 0xa1, 0x9f,
  0x36, 0xa5, 0xe6, 0xf0, 0x19, 0x02, 0xd5, 0x1c, 0x2a, 0x04, 0x17, 0x02,
  0xdd, 0x36, 0x14, 0xfc, 0x02, 0x16, 0xf0, 0x00, 0xb8, 0xde, 0xee, 0x19,
  0xe7, 0x05, 0x27, 0xa9, 0xeb, 0xe7, 0xcb, 0xa7, 0xf3, 0x8d, 0x14, 0x17,
  0x07, 0x23, 0xee, 0x18, 0xf0, 0xfc, 0x21, 0xe3, 0x25, 0x07, 0x29, 0xef,
  0x0f, 0xe0, 0x0e, 0xf4, 0xb1, 0x1f, 0xfa, 0xdc, 0x13, 0xde, 0x00, 0xc8,
  0xe5, 0xff, 0xaa, 0xcc, 0xf5, 0xa1, 0x09, 0x18, 0xf1, 0x03, 0xf5, 0x07,
  0x19, 0xe0, 0x1a, 0x0f, 0x17, 0x3b, 0xfb, 0x04, 0x07, 0xe8, 0xed, 0x11,
  0xad, 0x16, 0x1a, 0xf5, 0xfc, 0xed, 0xfa, 0xe4, 0x16, 0xfa, 0xab, 0xd1,
  0x15, 0xb6, 0x02, 0x11, 0x30, 0xfb, 0xec, 0x34, 0x13, 0x09, 0x15, 0x00,
  0x1a, 0x13, 0xdd, 0x23, 0x26, 0xfb, 0xf7, 0xf5, 0x9b, 0x21, 0x23, 0xec,
  0xec, 0xec, 0xe3, 0xac, 0x19, 0xf7, 0x0a, 0xd6, 0x14, 0xda, 0xdb, 0x12,
  0x42, 0xe0, 0xcc, 0x02, 0x00, 0x22, 0xfe, 0x01, 0x2c, 0xaf, 0xb8, 0x12,
  0x1d, 0x1b, 0xfb, 0xeb, 0xd2, 0x1c, 0xfe, 0xef, 0x0e, 0x24, 0xf7, 0xdd,
  0xf5, 0x0a, 0x16, 0x11, 0x15, 0x12, 0x03, 0x15, 0x45, 0x03, 0xda, 0x2e,
  0x07, 0x1b, 0x02, 0xf5, 0xfa, 0xa2, 0xe9, 0x23, 0x44, 0xed, 0xd0, 0x00,
  0xb6, 0x17, 0x05, 0xe6, 0xd8, 0x0a, 0xcf, 0xe3, 0x18, 0x1f, 0x07, 0x14,
  0x04, 0x02, 0xec, 0xce, 0x43, 0x24, 0xf1, 0x1d, 0xc4, 0xe3, 0x05, 0xf8,
  0xec, 0xab, 0xd1, 0x0a, 0x68, 0xe9, 0xce, 0xf9, 0xec, 0xef, 0x1c, 0xea,
  0xe7, 0x01, 0xcd, 0xdf, 0x0c, 0x19, 0x14, 0x1c, 0x05, 0x13, 0x0e, 0xe4,
  0x4d, 0xde, 0x0c, 0x11, 0xdd, 0x0d, 0xf9, 0xe6, 0xfe, 0x94, 0xf9, 0xe7,
  0x2c, 0xe3, 0xcd, 0xd9, 0xee, 0xea, 0xfb, 0x22, 0xed, 0x28, 0x86, 0x11,
  0xe0, 0x22, 0x04, 0x10, 0xd0, 0xe4, 0xeb, 0x06, 0x4c, 0xfd, 0x12, 0x03,
  0xe8, 0xd4, 0xe4, 0xef, 0xce, 0x96, 0xe2, 0x02, 0x20, 0x21, 0xdd, 0xc2,
  0xcc, 0xfe, 0xf1, 0xfa, 0xfd, 0x23, 0x92, 0xef, 0x0d, 0x16, 0x10, 0xf6,
  0xd1, 0x16, 0x0a, 0x0b, 0x47, 0xe5, 0x00, 0x2a, 0xde, 0xf0, 0xfe, 0xdf,
  0x05, 0xa7, 0xc0, 0xf9, 0x22, 0x1c, 0xe6, 0x05, 0xf0, 0xe5, 0x2d, 0xfb,
  0xff, 0x03, 0x83, 0xf6, 0xfb, 0xef, 0x18, 0x15, 0xf7, 0xfa, 0xf7, 0xf7,
  0x26, 0xef, 0xd7, 0x22, 0xdc, 0xd6, 0xd0, 0x11, 0xd4, 0xb6, 0xc4, 0x0b,
  0x56, 0xf7, 0xf3, 0xe4, 0xcc, 0x15, 0x2f, 0x1b, 0xe1, 0x02, 0xc7, 0xed,
  0xf2, 0xe0, 0x15, 0xf1, 0xee, 0xf4, 0x0d, 0xce, 0x1b, 0xdf, 0xe3, 0x3f,
  0xc2, 0xe7, 0xd8, 0xe7, 0x11, 0xb1, 0xbf, 0xfd, 0x56, 0xfa, 0x02, 0xd6,
  0xc4, 0x12, 0xf6, 0x19, 0x07, 0xfc, 0xac, 0x03, 0x0e, 0x13, 0xf9, 0x14,
  0xfc, 0xfd, 0x08, 0xee, 0x4d, 0xee, 0x02, 0x2d, 0xdc, 0x0a, 0x01, 0x02,
  0xe7, 0xac, 0xcb, 0xe9, 0x57, 0x0d, 0xdf, 0xcc, 0xf1, 0xf1, 0x25, 0x00,
  0xf8, 0x20, 0x8c, 0x0b, 0xdd, 0xef, 0x17, 0xe6, 0x0c, 0xd1, 0x14, 0xfb,
  0x51, 0x09, 0xd8, 0x19, 0xf2, 0x19, 0xec, 0x0a, 0xff, 0xc7, 0xd3, 0x1e,
  0x36, 0x15, 0xd1, 0xe5, 0xb8, 0x04, 0x10, 0x15, 0xf2, 0x14, 0xa8, 0xe7,
  0xec, 0x12, 0x1d, 0x0d, 0x01, 0xec, 0xe1, 0x14, 0xff, 0x07, 0x09, 0x1e,
  0xff, 0x2b, 0xf2, 0xdd, 0x03, 0xfa, 0x23, 0xeb, 0xf1, 0x00, 0x11, 0xfc,
  0xcd, 0x1e, 0xf0, 0x21, 0x1e, 0xf6, 0xf1, 0xc7, 0xf0, 0xf3, 0xcb, 0xd0,
  0xf1, 0xb8, 0x15, 0x15, 0x18, 0xe8, 0xe3, 0x11, 0xf8, 0x0c, 0x25, 0xdc,
  0xeb, 0xe8, 0xf6, 0x00, 0x05, 0xf1, 0xcb, 0x1d, 0xd4, 0xfe, 0x0a, 0x14,
  0xe4, 0xf9, 0xdc, 0xac, 0xfc, 0x12, 0xd4, 0xb5, 0xeb, 0xcc, 0xf8, 0x1f,
  0x14, 0x12, 0xfc, 0x17, 0x01, 0x27, 0xfe, 0x1b, 0xe9, 0xef, 0x14, 0x23,
  0xfa, 0x1c, 0xf5, 0xf2, 0xaf, 0xfe, 0x1b, 0x23, 0x04, 0xee, 0xde, 0xbf,
  0xd8, 0xe4, 0xc7, 0xc3, 0xf0, 0xd4, 0x1b, 0x06, 0x1d, 0xf5, 0xed, 0xef,
  0x19, 0x28, 0x03, 0xe8, 0x0e, 0x0b, 0xfd, 0x04, 0x1c, 0x16, 0xdc, 0x28,
  0xd2, 0x21, 0x13, 0x1e, 0x0f, 0xca, 0xd1, 0xd9, 0x18, 0x22, 0xb9, 0xb9,
  0x2b, 0xe4, 0xf0, 0x05, 0x19, 0xee, 0xcc, 0x1d, 0x03, 0xf4, 0x18, 0xfb,
  0x11, 0x16, 0xf5, 0x16, 0xd7, 0xe1, 0xef, 0x17, 0xd5, 0xf4, 0xfc, 0x17,
  0x07, 0xe4, 0xdb, 0xc0, 0xf3, 0x02, 0xce, 0xcb, 0xef, 0xb9, 0xdd, 0x07,
  0x13, 0x17, 0xc8, 0x02, 0x14, 0xf6, 0xeb, 0x1c, 0x08, 0xdb, 0xf8, 0xe6,
  0xed, 0xf2, 0xcf, 0x0a, 0xa9, 0xf9, 0xf0, 0x12, 0x04, 0xe7, 0xe0, 0xc2,
  0x1c, 0x0c, 0xcb, 0xed, 0x02, 0xcc, 0xfc, 0x14, 0x04, 0x06, 0xc7, 0xff,
  0x0f, 0x18, 0x20, 0x1d, 0xd4, 0xd6, 0xe5, 0xe4, 0xed, 0x16, 0xd6, 0xfc,
  0xc6, 0x21, 0x2b, 0xe7, 0xf7, 0xf9, 0x02, 0xb5, 0xf2, 0xe5, 0xca, 0xca,
  0x0e, 0x01, 0xf8, 0xfd, 0xf7, 0xe8, 0xce, 0x26, 0x0a, 0x23, 0xe7, 0xdd,
  0xe5, 0x13, 0x2a, 0x0e, 0x18, 0xea, 0xde, 0xeb, 0xd8, 0x01, 0x0b, 0xfe,
  0xed, 0xf8, 0xea, 0xc2, 0x0c, 0xde, 0xd3, 0xab, 0xf7, 0x0e, 0xfc, 0x00,
  0x1e, 0xf3, 0xf3, 0xf7, 0xe9, 0x0c, 0x00, 0x1a, 0xf5, 0xd4, 0x35, 0xdf,
  0xc3, 0xf0, 0x09, 0x18, 0xc9, 0x12, 0x04, 0xed, 0x13, 0x13, 0xc7, 0xd7,
  0xdd, 0xea, 0xb0, 0xc0, 0x02, 0x14, 0x07, 0x09, 0xbf, 0xeb, 0x03, 0x08,
  0x0f, 0x1b, 0xfb, 0xfa, 0xd2, 0xf5, 0x11, 0x1b, 0xc4, 0xd9, 0xe4, 0x2c,
  0xba, 0x1c, 0x1d, 0xf3, 0x21, 0xb4, 0xf3, 0xc4, 0x08, 0x1c, 0xc8, 0xe0,
  0x05, 0xc2, 0x20, 0xfe, 0xc5, 0x17, 0xf9, 0xef, 0x1b, 0x27, 0x19, 0x10,
  0x10, 0x46, 0x46, 0xfa, 0x9c, 0x18, 0xfd, 0x30, 0xc4, 0xec, 0x14, 0xef,
  0xee, 0xac, 0xde, 0xeb, 0x09, 0xf1, 0x96, 0xab, 0xfa, 0xc1, 0xe0, 0x00,
  0xd1, 0x09, 0xe7, 0xf6, 0x3a, 0x24, 0x36, 0x04, 0x00, 0x25, 0x02, 0x09,
  0xa0, 0xe8, 0x13, 0x02, 0xfe, 0xe5, 0x08, 0x24, 0xee, 0xbd, 0x35, 0xc8,
  0xfb, 0xe1, 0xae, 0xbc, 0x37, 0xeb, 0x22, 0x1c, 0xbf, 0x19, 0x1f, 0xe6,
  0x3c, 0xea, 0x27, 0xfd, 0x0f, 0x1b, 0x11, 0x1e, 0xb9, 0x0c, 0x17, 0x39,
  0xd5, 0x14, 0xe6, 0xf9, 0xec, 0xe4, 0x2a, 0xfc, 0x06, 0x1e, 0xa4, 0xcf,
  0xfc, 0xef, 0xe7, 0x0c, 0xc0, 0x1b, 0xf7, 0xcc, 0x3a, 0x20, 0x05, 0x06,
  0xf4, 0x45, 0x1e, 0x0a, 0xb0, 0x0a, 0xf1, 0x0b, 0xe0, 0x1d, 0xf2, 0x07,
  0xf1, 0xd5, 0x51, 0x12, 0xfa, 0x15, 0xb6, 0xac, 0x04, 0xff, 0xeb, 0x1e,
  0xa8, 0x04, 0xeb, 0xd2, 0x1e, 0x21, 0x22, 0xe3, 0xf6, 0x3a, 0x10, 0x0c,
  0x81, 0x1b, 0x00, 0x3c, 0xeb, 0x12, 0xdc, 0x10, 0xdf, 0xdb, 0x36, 0x00,
  0x1d, 0x10, 0x9f, 0xc7, 0x22, 0xe4, 0x07, 0x2c, 0xc1, 0x0b, 0x05, 0xc3,
  0x30, 0x2f, 0x0b, 0xfb, 0xef, 0x27, 0x07, 0x0b, 0xaf, 0x02, 0xea, 0x12,
  0xd7, 0x0c, 0xe0, 0xed, 0xe3, 0xe9, 0x4c, 0xf1, 0xdd, 0x12, 0xd0, 0xaa,
  0x1e, 0xc8, 0x22, 0xf7, 0x93, 0xe4, 0x1d, 0xd7, 0x37, 0x2b, 0x1b, 0x00,
  0x17, 0x60, 0x12, 0x12, 0xc3, 0x04, 0x2f, 0x16, 0xd9, 0xf3, 0xfe, 0x14,
  0x04, 0xca, 0x45, 0x1a, 0xda, 0x0f, 0xa2, 0xd6, 0x29, 0xfe, 0x20, 0x2b,
  0xc8, 0x04, 0x05, 0xd7, 0x16, 0x0f, 0x29, 0xe0, 0xf4, 0x21, 0x06, 0xf3,
  0xb9, 0xf3, 0x23, 0x19, 0xde, 0xe8, 0xc5, 0x11, 0xe6, 0xb2, 0x53, 0xf3,
  0xef, 0xec, 0xa7, 0xbf, 0x2e, 0x05, 0x1e, 0x35, 0xc6, 0xed, 0x19, 0xce,
  0x18, 0x2c, 0x08, 0xe0, 0x1e, 0x4b, 0x3d, 0x0a, 0xbf, 0x1b, 0x20, 0x33,
  0x0d, 0x03, 0xef, 0xeb, 0x0c, 0xaa, 0x4e, 0xfd, 0x19, 0xe7, 0xab, 0xac,
  0xf3, 0xea, 0xe2, 0x24, 0xa0, 0x02, 0xf5, 0xe4, 0x25, 0x01, 0x12, 0x12,
  0x0b, 0x1a, 0x02, 0x11, 0x8e, 0xef, 0x0c, 0x0d, 0x05, 0x16, 0xeb, 0x01,
  0x0e, 0xa8, 0x48, 0xdb, 0xe0, 0x1c, 0xd5, 0xc8, 0xd2, 0xef, 0xe4, 0xf4,
  0xea, 0x12, 0x05, 0xd9, 0xf9, 0xc3, 0x0f, 0xff, 0x13, 0x19, 0x0e, 0x18,
  0x0e, 0xf1, 0x01, 0xf3, 0x06, 0x0e, 0xd3, 0xe2, 0xdc, 0x1a, 0x2e, 0x22,
  0x0b, 0x0b, 0x29, 0x0b, 0xdc, 0xef, 0xfe, 0x04, 0xe6, 0xe6, 0xea, 0xd3,
  0x0b, 0xef, 0xde, 0xf9, 0xdc, 0xf9, 0xf1, 0x13, 0xcf, 0xed, 0xfb, 0xc1,
  0xf6, 0xec, 0x06, 0x19, 0x01, 0x03, 0xf2, 0x00, 0xd6, 0x09, 0x25, 0x18,
  0xfb, 0x0f, 0xfc, 0xe2, 0xeb, 0xfd, 0xfe, 0xcc, 0xf5, 0xdd, 0xe6, 0x11,
  0x1d, 0x23, 0xf1, 0xdf, 0xf6, 0xee, 0x0a, 0xc9, 0x02, 0x01, 0xd0, 0x21,
  0x08, 0x23, 0xf6, 0x02, 0x15, 0x12, 0x29, 0x2a, 0xbb, 0xfc, 0xf8, 0xe3,
  0xc8, 0xe8, 0x10, 0xcc, 0xdb, 0x07, 0xdf, 0xe3, 0x1d, 0x08, 0xe5, 0xf6,
  0xdb, 0x14, 0x1f, 0xf4, 0x1b, 0x14, 0xdd, 0xfe, 0xe9, 0x05, 0x2a, 0x0f,
  0xf8, 0x11, 0xf1, 0x1a, 0x01, 0x15, 0xf7, 0x0a, 0xc1, 0xe6, 0xe9, 0xd2,
  0x07, 0xf1, 0x10, 0xf2, 0x14, 0x12, 0xe1, 0x21, 0xf8, 0xe6, 0x02, 0xfd,
  0x30, 0x10, 0xc3, 0xff, 0x00, 0x25, 0x0b, 0x28, 0xfe, 0x04, 0x08, 0x24,
  0xd4, 0xee, 0xf2, 0xf8, 0xe9, 0xea, 0x11, 0xf8, 0x0e, 0xe4, 0xe5, 0x00,
  0x0e, 0x14, 0xec, 0xea, 0xe3, 0x04, 0xf9, 0xd0, 0x00, 0xf6, 0xfb, 0x19,
  0x0b, 0xf8, 0x2e, 0xfd, 0x20, 0x00, 0x2c, 0x2f, 0xc4, 0x17, 0x06, 0xd0,
  0xbb, 0x0e, 0x04, 0xdc, 0xd3, 0xe9, 0xd8, 0xf9, 0x02, 0x18, 0xde, 0x1b,
  0xe4, 0x20, 0xf1, 0xd2, 0x0a, 0x0f, 0xdb, 0xf0, 0x07, 0xfb, 0x0f, 0x1d,
  0x14, 0xf7, 0x15, 0x0c, 0xd1, 0x09, 0xf8, 0xeb, 0xb7, 0xfe, 0x23, 0xde,
  0xfc, 0xc9, 0xd0, 0xfc, 0x0a, 0xeb, 0x07, 0xf5, 0xea, 0x0b, 0x1e, 0xd3,
  0xf4, 0xe6, 0x13, 0x0d, 0xf1, 0xfe, 0xef, 0x0c, 0x16, 0x04, 0xfe, 0xfd,
  0xdf, 0x14, 0x09, 0xfe, 0xde, 0xf5, 0xfc, 0x0a, 0xdb, 0xd7, 0xc8, 0xff,
  0xf6, 0x0a, 0xcc, 0x0b, 0x0e, 0x04, 0x24, 0xd8, 0x1c, 0xde, 0xe5, 0x06,
  0x11, 0xed, 0xe8, 0xf8, 0x07, 0x1e, 0x0b, 0x1e, 0xe3, 0x34, 0x1a, 0xb5,
  0xcf, 0x24, 0x0c, 0x04, 0xe4, 0xdc, 0xe8, 0x1b, 0x0f, 0xf7, 0x0f, 0xf8,
  0x0b, 0xe8, 0xf0, 0xd0, 0xfc, 0xfc, 0xd2, 0x10, 0x05, 0xe2, 0x07, 0x1b,
  0xe0, 0x17, 0xf9, 0xef, 0xa8, 0x26, 0xf3, 0xc6, 0xf0, 0xeb, 0x2d, 0xc5,
  0x02, 0xdc, 0xfa, 0x07, 0xf1, 0xfc, 0x0b, 0xf0, 0xfa, 0xfe, 0x21, 0xd8,
  0x2e, 0xe1, 0xd0, 0x05, 0x0c, 0x06, 0xf6, 0x39, 0x13, 0xe5, 0x05, 0x2c,
  0xb6, 0x2a, 0x0a, 0xac, 0xec, 0xea, 0x49, 0xfa, 0x06, 0xea, 0xf2, 0x11,
  0x0b, 0xe8, 0xfb, 0xf3, 0xe1, 0x0c, 0x12, 0xe5, 0x06, 0x01, 0xc8, 0xf1,
  0x1a, 0x2c, 0xca, 0x31, 0xea, 0xf5, 0x10, 0x22, 0x9a, 0x28, 0xed, 0xa4,
  0xb5, 0xe1, 0x3c, 0xd7, 0xe0, 0xc4, 0xd3, 0xf5, 0xef, 0xfd, 0xd3, 0x1c,
  0xed, 0xef, 0x10, 0xd2, 0x3e, 0x0c, 0xe6, 0xf3, 0x06, 0x15, 0xda, 0x30,
  0xf4, 0x23, 0x3d, 0x17, 0xa4, 0x2f, 0xf8, 0xb0, 0xad, 0x1e, 0x0a, 0xfb,
  0xda, 0xb8, 0xe1, 0x10, 0xe1, 0xe2, 0xdf, 0xe1, 0xdf, 0x1d, 0xf0, 0xb7,
  0x41, 0xe7, 0xc3, 0x11, 0xe6, 0xf5, 0xfb, 0x17, 0xe1, 0xef, 0x28, 0x07,
  0xbf, 0x0b, 0x08, 0xc8, 0xba, 0xea, 0x31, 0xee, 0xc4, 0xd3, 0xa9, 0x1c,
  0xfc, 0xbd, 0xe4, 0x02, 0x23, 0x0c, 0xfe, 0xc8, 0x19, 0xee, 0xc4, 0x0d,
  0xf3, 0xff, 0x10, 0x3b, 0xee, 0x16, 0x1d, 0x1c, 0x93, 0x2f, 0x0b, 0x9d,
  0xcb, 0x21, 0x34, 0xea, 0xc4, 0xe1, 0xc5, 0xf0, 0x0b, 0xba, 0xf3, 0xe8,
  0xf3, 0x12, 0x10, 0xc9, 0x47, 0x14, 0xd7, 0xf6, 0xeb, 0x1e, 0xe3, 0x3a,
  0xdd, 0x03, 0x2d, 0x3e, 0xb8, 0x0f, 0x0b, 0x9b, 0xc2, 0xf4, 0x32, 0xd5,
  0xce, 0xe8, 0xab, 0x1e, 0xd2, 0x9a, 0xdf, 0x1c, 0xed, 0x14, 0x07, 0xd4,
  0x38, 0xef, 0xb2, 0x1f, 0x1d, 0x37, 0x93, 0x26, 0xe9, 0x0b, 0x46, 0x24,
  0x9c, 0x3d, 0xf0, 0x99, 0xbd, 0x10, 0x13, 0xf9, 0xc3, 0xc6, 0xa8, 0xf6,
  0xd3, 0xae, 0x03, 0xf0, 0xfe, 0xee, 0xef, 0xa5, 0x53, 0xdd, 0x9c, 0xf5,
  0x1e, 0x23, 0xbc, 0x43, 0x1c, 0xe4, 0x1a, 0x42, 0x9b, 0x37, 0x14, 0x97,
  0xbc, 0x14, 0x2f, 0xe5, 0xe0, 0xe0, 0xe1, 0x0b, 0xff, 0xaf, 0xc4, 0x12,
  0x1c, 0xf0, 0x23, 0xad, 0x4e, 0xed, 0xc0, 0xed, 0x06, 0x2c, 0x8c, 0x27,
  0xfb, 0x01, 0x31, 0x18, 0x97, 0x1f, 0xfb, 0xc4, 0xbb, 0xdd, 0x1f, 0xd2,
  0xc8, 0xe8, 0xda, 0x02, 0xed, 0xb4, 0x06, 0xfd, 0xe4, 0x13, 0x07, 0xd7,
  0x22, 0x0e, 0x9b, 0xf0, 0x27, 0x16, 0x99, 0x12, 0xee, 0x0e, 0x25, 0x2f,
  0xda, 0xf4, 0xff, 0xff, 0x04, 0x00, 0x00, 0x00, 0x80, 0x00, 0x00, 0x00,
  0x93, 0x19, 0x00, 0x00, 0x1f, 0x1d, 0x00, 0x00, 0x23, 0xf7, 0xff, 0xff,
  0x3e, 0x22, 0x00, 0x00, 0x67, 0x0b, 0x00, 0x00, 0x00, 0x00, 0x00, 0x00,
  0x60, 0x0c, 0x00, 0x00, 0x59, 0x00, 0x00, 0x00, 0x72, 0x00, 0x00, 0x00,
  0x21, 0x0e, 0x00, 0x00, 0x52, 0x0d, 0x00, 0x00, 0x51, 0xf7, 0xff, 0xff,
  0x85, 0xfe, 0xff, 0xff, 0xe3, 0x27, 0x00, 0x00, 0x2c, 0x0a, 0x00, 0x00,
  0x00, 0x00, 0x00, 0x00, 0xc0, 0x16, 0x00, 0x00, 0x98, 0xf8, 0xff, 0xff,
  0x41, 0xf9, 0xff, 0xff, 0x96, 0x28, 0x00, 0x00, 0xef, 0x24, 0x00, 0x00,
  0x93, 0xfb, 0xff, 0xff, 0xed, 0x03, 0x00, 0x00, 0x00, 0x00, 0x00, 0x00,
  0x80, 0xf8, 0xff, 0xff, 0x41, 0x0c, 0x00, 0x00, 0x41, 0x1e, 0x00, 0x00,
  0xcc, 0x1b, 0x00, 0x00, 0xa9, 0xf3, 0xff, 0xff, 0x00, 0x00, 0x00, 0x00,
  0x9f, 0x1f, 0x00, 0x00, 0x7d, 0x1b, 0x00, 0x00, 0x66, 0xf5, 0xff, 0xff,
  0x04, 0x00, 0x00, 0x00, 0x00, 0x06, 0x00, 0x00, 0xd4, 0x12, 0x3a, 0xb8,
  0x38, 0xf2, 0x21, 0xe6, 0xd5, 0xea, 0x36, 0xb7, 0xf8, 0x4a, 0xf6, 0x04,
  0x02, 0xb9, 0xba, 0xd6, 0x35, 0xdd, 0x07, 0x55, 0xaa, 0x33, 0x7f, 0x6f,
  0x14, 0x39, 0x59, 0xe6, 0xfd, 0x38, 0xce, 0x45, 0x10, 0xba, 0x21, 0x3f,
  0xf7, 0xc8, 0xd9, 0xc6, 0x31, 0xe6, 0x26, 0x0b, 0xc2, 0x37, 0x2e, 0xd6,
  0x16, 0xbe, 0x2d, 0x3a, 0xcd, 0x30, 0xc4, 0x40, 0x08, 0x1d, 0xdf, 0x0d,
  0xb1, 0x32, 0x7f, 0x15, 0x3d, 0xcf, 0x36, 0xc2, 0x64, 0x9c, 0xa3, 0x4d,
  0xfc, 0x60, 0xe8, 0x31, 0xf3, 0x21, 0xd6, 0x38, 0xbe, 0x29, 0xe6, 0x38,
  0x3b, 0xc1, 0x42, 0xbd, 0xf1, 0x27, 0x3a, 0xce, 0xf3, 0xec, 0x27, 0x13,
  0x90, 0xb7, 0x87, 0x43, 0xaa, 0x1a, 0x57, 0x6f, 0x02, 0xc9, 0x96, 0x94,
  0xc4, 0xb8, 0x2f, 0xd7, 0x22, 0xb3, 0x69, 0xe3, 0xfe, 0x22, 0x78, 0x04,
  0xa0, 0x16, 0xf8, 0x2a, 0x08, 0x71, 0x20, 0x61, 0x1d, 0x57, 0xf7, 0x2d,
  0x7f, 0x07, 0x00, 0x96, 0x1d, 0xb3, 0x54, 0x75, 0x20, 0x26, 0xe1, 0xc3,
  0x08, 0x2c, 0x14, 0xef, 0xed, 0xe6, 0x10, 0xcd, 0x3f, 0x45, 0x0f, 0x18,
  0x0a, 0x93, 0xce, 0xab, 0x40, 0x28, 0xc8, 0x32, 0xb3, 0x58, 0x5d, 0x33,
  0x55, 0x54, 0x7f, 0xbc, 0x2a, 0xbe, 0xe1, 0xdd, 0x1e, 0x22, 0x3c, 0x25,
  0x12, 0xc2, 0x3b, 0xe7, 0x40, 0xd2, 0xea, 0xeb, 0x0d, 0xf7, 0xc0, 0x43,
  0xe8, 0xcd, 0x2d, 0x1f, 0xf9, 0x17, 0xd3, 0xff, 0xe0, 0x2c, 0x27, 0xdc,
  0x7b, 0x0f, 0x3d, 0x41, 0xd8, 0xe1, 0x35, 0x6a, 0xd3, 0x7f, 0xe6, 0xd0,
  0xcf, 0x1b, 0x58, 0xd5, 0xdb, 0xf0, 0xec, 0x3c, 0x32, 0xfe, 0xd6, 0xf5,
  0x04, 0x1d, 0x0f, 0x3a, 0xcc, 0x24, 0xfe, 0xcc, 0x20, 0xb1, 0x29, 0x56,
  0xf5, 0x5e, 0x18, 0xf8, 0xf7, 0x46, 0x5e, 0xf7, 0x7e, 0x1d, 0x64, 0xac,
  0x93, 0x13, 0xe8, 0xfa, 0xf5, 0xa9, 0x9c, 0xca, 0x89, 0x4f, 0x50, 0x39,
  0xb8, 0xe3, 0xf6, 0xac, 0xd4, 0x47, 0xae, 0xdd, 0x07, 0xae, 0x9c, 0x19,
  0x6a, 0x81, 0x4a, 0xd2, 0x98, 0x55, 0x31, 0x5e, 0x0e, 0x44, 0x4c, 0x52,
  0x3f, 0x4e, 0xab, 0xac, 0x36, 0x1c, 0x33, 0xfe, 0xac, 0xc8, 0x12, 0xb6,
  0x87, 0x7f, 0x71, 0x23, 0x02, 0xd8, 0xf8, 0xfa, 0x41, 0x8e, 0x13, 0x2f,
  0x36, 0x07, 0xa9, 0x3c, 0xb1, 0xb9, 0x36, 0xb3, 0x2e, 0x0a, 0x51, 0x21,
  0x43, 0xd3, 0xd1, 0x23, 0xbb, 0xfe, 0xc5, 0xb9, 0x1e, 0xe8, 0xe3, 0xba,
  0xb0, 0xd9, 0xba, 0x45, 0x24, 0x0c, 0x09, 0x2a, 0x2f, 0x1b, 0xfa, 0xf3,
  0x7f, 0xe4, 0x15, 0x17, 0xcc, 0x1a, 0x3c, 0x67, 0xec, 0x7f, 0xe0, 0xd6,
  0xce, 0x2d, 0x5e, 0xf4, 0x35, 0xb1, 0x4c, 0x2f, 0xd9, 0xfd, 0xe5, 0xfe,
  0x3d, 0xcb, 0xb4, 0xd8, 0x4c, 0x3c, 0xf8, 0x52, 0xe4, 0x47, 0x1b, 0x33,
  0xc4, 0x3e, 0xc0, 0xcb, 0xe5, 0x2a, 0x3e, 0xf9, 0xc3, 0xce, 0xc9, 0x2b,
  0xb6, 0xf9, 0xab, 0x8c, 0x2a, 0xe2, 0xf4, 0xdb, 0xbb, 0x00, 0x7f, 0x58,
  0x42, 0x55, 0x65, 0x24, 0xd6, 0xda, 0xf1, 0xbe, 0xe0, 0xc7, 0x05, 0xe4,
  0x14, 0x19, 0x4c, 0xc4, 0xe7, 0xd1, 0x46, 0x0b, 0xac, 0xce, 0xe6, 0x55,
  0x07, 0x26, 0xd1, 0xfd, 0x12, 0x21, 0xe0, 0xb5, 0x27, 0x0e, 0x00, 0xc6,
  0x0f, 0x81, 0xcf, 0xba, 0xc2, 0xc7, 0x1e, 0x43, 0xb7, 0xc9, 0x00, 0x63,
  0x2c, 0x56, 0x62, 0xf7, 0x4f, 0x48, 0xb3, 0xe2, 0x02, 0xe3, 0x41, 0x0d,
  0x01, 0x10, 0x3e, 0xc5, 0xba, 0xc0, 0xea, 0x21, 0xd9, 0x3e, 0xfc, 0x00,
  0xba, 0x0f, 0x10, 0xc0, 0xd3, 0xbc, 0x17, 0xf4, 0x15, 0x03, 0xbc, 0x43,
  0x09, 0xf8, 0xac, 0xd7, 0xe9, 0xd7, 0xc7, 0x59, 0xad, 0xd7, 0x7f, 0x4f,
  0x35, 0x19, 0x24, 0xbd, 0xd1, 0xbc, 0xea, 0x2f, 0xe2, 0xcb, 0x17, 0x30,
  0xed, 0x11, 0xd7, 0xc0, 0xbc, 0x26, 0x0f, 0x36, 0xdf, 0xa6, 0x04, 0x7d,
  0x3e, 0xf6, 0x44, 0x65, 0x31, 0x0d, 0x2d, 0x48, 0x1e, 0x8c, 0xbd, 0xea,
  0x54, 0xbc, 0xcf, 0x41, 0x24, 0x81, 0x5e, 0x65, 0x1c, 0x31, 0xd7, 0xc3,
  0x83, 0x8b, 0x1d, 0x3a, 0xe6, 0x31, 0x22, 0xb6, 0x99, 0xd8, 0xba, 0x44,
  0xde, 0x6a, 0xdd, 0xfc, 0x4a, 0x14, 0xd1, 0x2f, 0x2e, 0xa5, 0x05, 0xf3,
  0xbd, 0xcf, 0x12, 0x39, 0xdb, 0x5c, 0x1e, 0x05, 0x21, 0x0b, 0x28, 0x3a,
  0xe6, 0x4a, 0x81, 0x1a, 0xb0, 0xd7, 0x1a, 0xe9, 0x41, 0x6d, 0x5a, 0x9b,
  0x3d, 0xf2, 0x46, 0x07, 0x01, 0xcd, 0x63, 0xd7, 0xc4, 0x2d, 0xa6, 0xb6,
  0xc2, 0x1d, 0xed, 0xfe, 0xb5, 0x09, 0x1a, 0xc8, 0x37, 0xc7, 0xbc, 0xf7,
  0x38, 0x18, 0xfb, 0x29, 0xc1, 0x25, 0xf7, 0x1e, 0x3f, 0xff, 0xba, 0xf2,
  0xa7, 0xd7, 0x9b, 0xe6, 0xd5, 0xe6, 0xa4, 0xe8, 0xdb, 0xe0, 0x3e, 0x25,
  0x7f, 0xf4, 0x3f, 0xcb, 0x49, 0xda, 0xc3, 0x14, 0x0f, 0x45, 0x3b, 0xd9,
  0xbc, 0x28, 0xc8, 0x1b, 0xc9, 0x3d, 0xd8, 0xd5, 0x24, 0xff, 0xe2, 0x32,
  0xfd, 0x12, 0xef, 0xd4, 0xfa, 0xdd, 0x24, 0xe7, 0x26, 0x40, 0xba, 0xcd,
  0xd3, 0xea, 0xee, 0x81, 0x1a, 0xec, 0xa7, 0xf2, 0xb1, 0xa6, 0x01, 0x3f,
  0x5d, 0x58, 0x25, 0x1e, 0x43, 0x0a, 0x1f, 0x01, 0x28, 0xef, 0xed, 0xd6,
  0xbd, 0xb7, 0xf5, 0x10, 0x11, 0x2d, 0x0d, 0x05, 0xdf, 0xd7, 0x79, 0x93,
  0xf1, 0x79, 0xe4, 0x17, 0x51, 0xfd, 0x65, 0xfe, 0x27, 0x62, 0x51, 0x8e,
  0x35, 0xb8, 0xbc, 0xf9, 0xe1, 0x1d, 0x40, 0xaa, 0xea, 0x1e, 0x54, 0xe7,
  0xb4, 0x48, 0x99, 0x05, 0xab, 0x75, 0xe0, 0xb3, 0x3d, 0x8f, 0x65, 0x35,
  0x8c, 0x56, 0xd0, 0x29, 0x5f, 0xdc, 0x0d, 0x7f, 0x21, 0xd9, 0xec, 0x0a,
  0x33, 0xec, 0x33, 0x30, 0x24, 0x12, 0xc7, 0x36, 0xea, 0xce, 0x03, 0x13,
  0x16, 0x4a, 0x4c, 0x58, 0xf2, 0xe2, 0x7f, 0x54, 0x0b, 0x58, 0xdb, 0xe5,
  0xdb, 0xfb, 0x42, 0x06, 0xdb, 0x08, 0x25, 0xf6, 0xe0, 0xcd, 0x2f, 0x39,
  0xec, 0x35, 0xc9, 0x22, 0xee, 0x28, 0xd9, 0x0a, 0xc0, 0xa2, 0xef, 0x1b,
  0x90, 0x95, 0x1b, 0x23, 0x94, 0x27, 0xef, 0xee, 0xb7, 0x0a, 0xb5, 0x2a,
  0x37, 0x65, 0x68, 0xcf, 0xe8, 0x00, 0xd8, 0xb9, 0xfe, 0x10, 0x98, 0xde,
  0x81, 0xc7, 0x00, 0x3f, 0x50, 0xf8, 0x32, 0xc9, 0xe3, 0x8a, 0x13, 0xaa,
  0x71, 0xf3, 0xe7, 0xd0, 0xde, 0xe1, 0xcd, 0x2a, 0xfb, 0x1e, 0xde, 0x42,
  0xdb, 0xb8, 0xff, 0xd1, 0x01, 0x3a, 0xd6, 0x27, 0x0a, 0x17, 0xdd, 0x46,
  0xbb, 0x2d, 0x34, 0xfe, 0xc9, 0xd2, 0xdd, 0x81, 0x3a, 0xd5, 0x3e, 0x23,
  0x59, 0x12, 0xf5, 0x35, 0x29, 0x12, 0x3d, 0xcc, 0xec, 0xe4, 0x18, 0x0d,
  0xf6, 0xc3, 0xb9, 0x3f, 0x3d, 0x0c, 0xc2, 0x06, 0xd1, 0xec, 0xc0, 0x24,
  0x27, 0x17, 0x2a, 0xce, 0xd2, 0xe2, 0xf1, 0xcc, 0x3f, 0x3d, 0xd9, 0xb4,
  0xd3, 0x81, 0x98, 0xba, 0x0e, 0xe5, 0x9d, 0x44, 0xa4, 0xfa, 0x54, 0x7b,
  0x5e, 0x1d, 0x7f, 0xce, 0x20, 0xe6, 0xc0, 0xc7, 0x37, 0x49, 0xf3, 0x47,
  0x32, 0xb4, 0xea, 0xd3, 0xf1, 0x15, 0x2f, 0xc5, 0xd1, 0xdb, 0x16, 0x1a,
  0xfa, 0xc1, 0x23, 0xcd, 0xcd, 0xc8, 0x19, 0xf1, 0xee, 0xf2, 0x34, 0x18,
  0x81, 0x3b, 0x5f, 0x3e, 0xed, 0xe6, 0x02, 0xc9, 0x6d, 0xd9, 0x23, 0x05,
  0x0e, 0x28, 0xb4, 0x0a, 0xd3, 0x16, 0xd6, 0x19, 0x39, 0x37, 0x2b, 0xf6,
  0xf2, 0xd6, 0x30, 0xd0, 0xe7, 0xcf, 0x22, 0xd5, 0x92, 0xe0, 0x70, 0x8c,
  0xa8, 0xdf, 0x9a, 0xf8, 0x8b, 0xd0, 0x4b, 0x72, 0x21, 0x64, 0x1f, 0xe2,
  0x76, 0xb3, 0xb2, 0x9a, 0x66, 0x81, 0x21, 0xc0, 0x38, 0xb9, 0xb9, 0x5d,
  0x9b, 0x26, 0x90, 0x5d, 0xa2, 0x91, 0xa5, 0x03, 0x9b, 0xd9, 0x3b, 0x7e,
  0x87, 0xd1, 0x87, 0xc1, 0xcb, 0x42, 0xf6, 0xa2, 0x43, 0xd1, 0x30, 0x46,
  0xb9, 0xe9, 0x17, 0x0b, 0x2f, 0x3d, 0xb9, 0x48, 0x25, 0x46, 0x1f, 0xf5,
  0x7f, 0x20, 0xd8, 0x16, 0xda, 0xee, 0xe7, 0x5a, 0xdf, 0xfb, 0x5d, 0x20,
  0xc3, 0x18, 0x7e, 0xda, 0x23, 0x2d, 0xec, 0x0a, 0x1a, 0xf1, 0x3b, 0x18,
  0x47, 0xe3, 0x3a, 0xfd, 0xec, 0x4d, 0xbb, 0x53, 0x46, 0x5c, 0x30, 0x7a,
  0xb8, 0x52, 0x97, 0xce, 0x33, 0x39, 0xd8, 0xd5, 0xc7, 0x88, 0x07, 0xaa,
  0xdd, 0x2b, 0x81, 0xf5, 0x6f, 0x68, 0x67, 0x36, 0xb2, 0xda, 0x18, 0xfd,
  0xdb, 0xd3, 0xd1, 0xad, 0x48, 0x3b, 0x9f, 0x28, 0x03, 0x08, 0xd6, 0x25,
  0x3b, 0x67, 0xef, 0x16, 0x28, 0x0f, 0xc3, 0x8c, 0x0e, 0xbe, 0xd4, 0xf7,
  0x3b, 0x21, 0x50, 0xce, 0xb2, 0xc7, 0x2f, 0x23, 0x33, 0x4d, 0xb8, 0xed,
  0xa0, 0x6b, 0x57, 0xe3, 0xfc, 0x52, 0xe1, 0x47, 0x29, 0x81, 0xea, 0x59,
  0x30, 0xeb, 0xd3, 0xeb, 0xd0, 0xce, 0x0a, 0x0e, 0xb5, 0x38, 0xeb, 0xdb,
  0xb4, 0x29, 0x0d, 0x18, 0x44, 0xd9, 0x20, 0x45, 0x0c, 0x10, 0x12, 0x34,
  0x20, 0xf3, 0x04, 0x20, 0xcf, 0x29, 0xeb, 0xe2, 0x39, 0x1c, 0x35, 0x27,
  0xf2, 0x34, 0x7f, 0x72, 0xe6, 0xfb, 0x18, 0x40, 0x41, 0x3b, 0xc9, 0xdb,
  0x18, 0x1e, 0xdb, 0x37, 0xff, 0xde, 0xf7, 0xe7, 0xee, 0x2c, 0x39, 0x1a,
  0xe0, 0xe9, 0x0e, 0xec, 0xfc, 0x0d, 0x0b, 0xf5, 0x2e, 0x47, 0x2e, 0x26,
  0xb5, 0xe1, 0x11, 0xc8, 0x08, 0x0b, 0xb4, 0x32, 0x1c, 0x48, 0x3e, 0xda,
  0xb8, 0x8f, 0x81, 0x10, 0xbb, 0x4a, 0x84, 0xdd, 0x2e, 0xeb, 0x54, 0xf9,
  0x56, 0x4e, 0x31, 0x10, 0xd4, 0xff, 0x11, 0x05, 0xfd, 0x00, 0x4b, 0x37,
  0xba, 0x20, 0x1f, 0x2b, 0x24, 0xf8, 0xb7, 0xd2, 0x3d, 0x23, 0xec, 0x40,
  0xfc, 0xc7, 0x30, 0xeb, 0xd3, 0x08, 0x30, 0xf1, 0x2e, 0xfd, 0xe3, 0x21,
  0x81, 0x6b, 0x0e, 0x7e, 0xd9, 0xbf, 0xea, 0xb7, 0x7c, 0x0d, 0x9f, 0x52,
  0x26, 0x5b, 0xb3, 0x1a, 0xf7, 0xb9, 0xf0, 0xeb, 0x0c, 0xfd, 0x27, 0xb8,
  0x18, 0x38, 0xc1, 0xf3, 0x06, 0x14, 0x1c, 0x30, 0x68, 0x34, 0xce, 0x35,
  0x55, 0x4e, 0xac, 0x02, 0xd2, 0x22, 0xaf, 0x82, 0xf8, 0xef, 0xfb, 0x6c,
  0x31, 0x38, 0xd1, 0x07, 0x9f, 0xca, 0xa5, 0xc3, 0x1d, 0xe1, 0xad, 0x0e,
  0x97, 0x3a, 0x57, 0xf1, 0x46, 0xba, 0x17, 0x7f, 0xf1, 0x28, 0x2e, 0xb4,
  0xef, 0xaa, 0xd4, 0x2c, 0x73, 0x5d, 0x19, 0x8f, 0xe3, 0xb6, 0x85, 0x71,
  0xaa, 0x90, 0x1e, 0xb9, 0xf4, 0xba, 0x3e, 0xf7, 0x19, 0xc0, 0x0e, 0xe5,
  0xd6, 0xc7, 0xbb, 0x65, 0xf8, 0x07, 0x6e, 0x57, 0x25, 0x24, 0xe4, 0xe0,
  0x81, 0xcb, 0xb6, 0x7b, 0x7e, 0xd4, 0xb0, 0x66, 0x28, 0x66, 0x44, 0xd4,
  0xda, 0x33, 0x7e, 0xd4, 0x9b, 0x7a, 0x05, 0x5e, 0xee, 0x3a, 0xd7, 0xf4,
  0xf5, 0xbc, 0xc2, 0x05, 0x3f, 0xd0, 0xd4, 0xff, 0x19, 0x15, 0xd3, 0xd4,
  0x0b, 0x54, 0x24, 0x69, 0x3b, 0x20, 0x37, 0x0a, 0x7f, 0x6d, 0xc5, 0x05,
  0x05, 0x16, 0xd7, 0xc0, 0xf2, 0xfe, 0xbc, 0x0d, 0x44, 0xda, 0xcf, 0x06,
  0xdb, 0x05, 0x38, 0x09, 0x22, 0x43, 0x1e, 0xcb, 0xdd, 0xb3, 0xfa, 0xe7,
  0x03, 0x0b, 0x17, 0x12, 0xbd, 0xd9, 0xbd, 0x25, 0x48, 0x27, 0x23, 0x26,
  0xf8, 0x7f, 0x36, 0x5b, 0x06, 0xd3, 0x5c, 0x08, 0x7f, 0x21, 0xb9, 0x0d,
  0xfd, 0x49, 0xb8, 0x0a, 0x1e, 0x15, 0x46, 0xf7, 0xef, 0xb6, 0x1b, 0x18,
  0xbb, 0x3b, 0x07, 0xf0, 0xf3, 0xbf, 0x29, 0xcf, 0x72, 0xfb, 0xff, 0xff,
  0x04, 0x00, 0x00, 0x00, 0x40, 0x00, 0x00, 0x00, 0x24, 0x0b, 0x00, 0x00,
  0x19, 0x14, 0x00, 0x00, 0x77, 0x19, 0x00, 0x00, 0x30, 0x1a, 0x00, 0x00,
  0x00, 0x00, 0x00, 0x00, 0x00, 0x00, 0x00, 0x00, 0x1d, 0x10, 0x00, 0x00,
  0x74, 0x05, 0x00, 0x00, 0xb7, 0x0b, 0x00, 0x00, 0x7e, 0x0d, 0x00, 0x00,
  0xef, 0x0d, 0x00, 0x00, 0x72, 0x15, 0x00, 0x00, 0xa8, 0x0e, 0x00, 0x00,
  0xd3, 0x2b, 0x00, 0x00, 0x11, 0x11, 0x00, 0x00, 0x00, 0x00, 0x00, 0x00,
  0xbe, 0xfb, 0xff, 0xff, 0x04, 0x00, 0x00, 0x00, 0xb0, 0x01, 0x00, 0x00,
  0x08, 0x3b, 0xcb, 0x26, 0xf7, 0xd4, 0xe3, 0x0a, 0xa8, 0x38, 0xc9, 0xc8,
  0xcb, 0xca, 0x12, 0x7f, 0xbf, 0x62, 0xcb, 0xad, 0x29, 0xe3, 0x59, 0x34,
  0xed, 0x2c, 0x3e, 0xc8, 0x4a, 0xd0, 0xb4, 0xc4, 0xbe, 0x49, 0x2a, 0xbe,
  0xcd, 0x13, 0x70, 0xdb, 0xdf, 0xf8, 0xfa, 0xeb, 0x7f, 0xda, 0x25, 0xea,
  0xce, 0x0c, 0xdb, 0xf0, 0xe1, 0x3c, 0xf9, 0xc3, 0xd4, 0xc1, 0x21, 0xbf,
  0xc4, 0xdc, 0x06, 0x00, 0x51, 0xed, 0x06, 0x02, 0x25, 0xca, 0xd5, 0x7f,
  0xf9, 0xfa, 0xbb, 0x16, 0xbf, 0x3c, 0x0f, 0x27, 0x0a, 0xcd, 0xd0, 0x0d,
  0xe3, 0x33, 0x29, 0xe5, 0xe7, 0xe4, 0xdd, 0xdb, 0x30, 0x0a, 0x20, 0x6a,
  0xe5, 0xd8, 0x7f, 0x04, 0x35, 0xee, 0x11, 0xbf, 0xbb, 0x26, 0xf8, 0xe6,
  0x77, 0x93, 0xf4, 0x15, 0x75, 0xa3, 0x39, 0x57, 0xff, 0xa8, 0x83, 0x71,
  0x25, 0x85, 0x11, 0xea, 0xbf, 0x99, 0x58, 0x5d, 0xb7, 0x7f, 0xd2, 0x21,
  0x70, 0x78, 0x95, 0x50, 0x74, 0x0d, 0xd6, 0xd4, 0x8e, 0x5d, 0x32, 0xca,
  0xc2, 0x18, 0xd2, 0x1b, 0x2d, 0x0b, 0xd6, 0x19, 0x81, 0x63, 0x9e, 0xdf,
  0x10, 0x0a, 0xb6, 0xf9, 0x34, 0xc2, 0xeb, 0x15, 0xb8, 0xb4, 0xf6, 0x55,
  0x62, 0x2a, 0xcb, 0xb3, 0x40, 0xf8, 0xac, 0x13, 0x45, 0x7e, 0xb0, 0x7f,
  0x24, 0xb4, 0x94, 0x91, 0xc5, 0x12, 0x99, 0x66, 0x6b, 0x67, 0xe4, 0x0c,
  0x5e, 0x9d, 0x64, 0x91, 0x48, 0xd1, 0x31, 0x13, 0xa0, 0x52, 0xe9, 0x68,
  0x7f, 0xad, 0x24, 0x61, 0x3b, 0x6b, 0xf9, 0xe9, 0x3c, 0xb8, 0xfd, 0xa9,
  0x09, 0x49, 0x25, 0x0a, 0xb9, 0xf8, 0xfd, 0xf5, 0x03, 0xee, 0x4a, 0x55,
  0xe1, 0x02, 0x1d, 0xa2, 0x0e, 0x7f, 0x37, 0xc0, 0x1d, 0xae, 0x2b, 0xdd,
  0xd8, 0xe6, 0x2f, 0xf4, 0xd7, 0x28, 0xec, 0xac, 0x9a, 0xd6, 0xd3, 0x9c,
  0x61, 0x24, 0xec, 0xa2, 0x7f, 0x6d, 0x18, 0xa0, 0x0a, 0xf5, 0x39, 0xf4,
  0x65, 0xdf, 0x2c, 0xa2, 0xe9, 0x70, 0xa7, 0xad, 0xfa, 0x4d, 0x3b, 0x3a,
  0x24, 0x37, 0x34, 0x2f, 0xeb, 0x11, 0x16, 0xf3, 0x0e, 0x61, 0x7f, 0xb4,
  0x3c, 0xee, 0x4b, 0xe3, 0x55, 0x4b, 0xc1, 0x17, 0x25, 0x3d, 0x19, 0x02,
  0x11, 0x0a, 0xde, 0xea, 0x34, 0x0c, 0x07, 0x35, 0xe3, 0x1e, 0xe0, 0xbf,
  0x1b, 0x7f, 0x40, 0x48, 0xbf, 0xc4, 0x4c, 0xd1, 0xc6, 0x17, 0xc4, 0xea,
  0xc3, 0x4d, 0x13, 0xf4, 0x47, 0x17, 0x1c, 0xb8, 0xe0, 0x59, 0x27, 0x5b,
  0x4f, 0xd7, 0x4f, 0x0b, 0x7f, 0xcc, 0x23, 0x3c, 0xb5, 0x1a, 0x19, 0xc6,
  0xbd, 0x26, 0x00, 0x4d, 0x36, 0x10, 0xe4, 0x45, 0xcd, 0x1a, 0xe6, 0xe3,
  0xe6, 0x62, 0xd0, 0x47, 0x11, 0x45, 0x13, 0x7f, 0x68, 0x1b, 0xc6, 0xd0,
  0x05, 0x35, 0xe2, 0x17, 0xb0, 0xd2, 0xb4, 0x32, 0x23, 0x46, 0xf0, 0xce,
  0x1a, 0x1e, 0xc4, 0x2a, 0x11, 0x2a, 0x08, 0xf5, 0x5c, 0x7f, 0xe3, 0xb5,
  0xcd, 0x34, 0x25, 0xb7, 0x4b, 0xd2, 0x27, 0xfe, 0x0c, 0x21, 0xc1, 0x63,
  0x3e, 0xb8, 0xfa, 0xbf, 0xb8, 0x8b, 0x81, 0x99, 0x57, 0xed, 0x90, 0xf3,
  0x8c, 0xad, 0x39, 0xdd, 0x7b, 0xef, 0x28, 0x1a, 0x73, 0x4a, 0x93, 0xd1,
  0x7a, 0xfd, 0xff, 0xff, 0x04, 0x00, 0x00, 0x00, 0x08, 0x00, 0x00, 0x00,
  0xff, 0xff, 0xff, 0xff, 0x80, 0x02, 0x00, 0x00, 0x8e, 0xfd, 0xff, 0xff,
  0x04, 0x00, 0x00, 0x00, 0x04, 0x00, 0x00, 0x00, 0x09, 0x00, 0x00, 0x00,
  0x9e, 0xfd, 0xff, 0xff, 0x04, 0x00, 0x00, 0x00, 0x04, 0x00, 0x00, 0x00,
  0x14, 0x00, 0x00, 0x00, 0xc4, 0xee, 0xff, 0xff, 0xb2, 0xfd, 0xff, 0xff,
  0x04, 0x00, 0x00, 0x00, 0x04, 0x00, 0x00, 0x00, 0x01, 0x00, 0x00, 0x00,
  0xc2, 0xfd, 0xff, 0xff, 0x04, 0x00, 0x00, 0x00, 0x04, 0x00, 0x00, 0x00,
  0x00, 0x00, 0x00, 0x00, 0xe8, 0xee, 0xff, 0xff, 0xec, 0xee, 0xff, 0xff,
  0x0f, 0x00, 0x00, 0x00, 0x4d, 0x4c, 0x49, 0x52, 0x20, 0x43, 0x6f, 0x6e,
  0x76, 0x65, 0x72, 0x74, 0x65, 0x64, 0x2e, 0x00, 0x01, 0x00, 0x00, 0x00,
  0x14, 0x00, 0x00, 0x00, 0x00, 0x00, 0x0e, 0x00, 0x18, 0x00, 0x14, 0x00,
  0x10, 0x00, 0x0c, 0x00, 0x08, 0x00, 0x04, 0x00, 0x0e, 0x00, 0x00, 0x00,
  0x14, 0x00, 0x00, 0x00, 0x1c, 0x00, 0x00, 0x00, 0xb8, 0x02, 0x00, 0x00,
  0xbc, 0x02, 0x00, 0x00, 0xc0, 0x02, 0x00, 0x00, 0x04, 0x00, 0x00, 0x00,
  0x6d, 0x61, 0x69, 0x6e, 0x00, 0x00, 0x00, 0x00, 0x0a, 0x00, 0x00, 0x00,
  0x68, 0x02, 0x00, 0x00, 0x08, 0x02, 0x00, 0x00, 0xb0, 0x01, 0x00, 0x00,
  0x88, 0x01, 0x00, 0x00, 0x2c, 0x01, 0x00, 0x00, 0xe8, 0x00, 0x00, 0x00,
  0x98, 0x00, 0x00, 0x00, 0x70, 0x00, 0x00, 0x00, 0x38, 0x00, 0x00, 0x00,
  0x04, 0x00, 0x00, 0x00, 0x2a, 0xfe, 0xff, 0xff, 0x14, 0x00, 0x00, 0x00,
  0x00, 0x00, 0x00, 0x09, 0x14, 0x00, 0x00, 0x00, 0x18, 0x00, 0x00, 0x00,
  0x07, 0x00, 0x00, 0x00, 0x6e, 0xfe, 0xff, 0xff, 0x00, 0x00, 0x80, 0x3f,
  0x01, 0x00, 0x00, 0x00, 0x16, 0x00, 0x00, 0x00, 0x01, 0x00, 0x00, 0x00,
  0x15, 0x00, 0x00, 0x00, 0x5a, 0xfe, 0xff, 0xff, 0x14, 0x00, 0x00, 0x00,
  0x00, 0x00, 0x00, 0x08, 0x10, 0x00, 0x00, 0x00, 0x14, 0x00, 0x00, 0x00,
  0x06, 0x00, 0x00, 0x00, 0xb4, 0xef, 0xff, 0xff, 0x01, 0x00, 0x00, 0x00,
  0x15, 0x00, 0x00, 0x00, 0x03, 0x00, 0x00, 0x00, 0x14, 0x00, 0x00, 0x00,
  0x0b, 0x00, 0x00, 0x00, 0x0c, 0x00, 0x00, 0x00, 0x02, 0xff, 0xff, 0xff,
  0x0c, 0x00, 0x00, 0x00, 0x10, 0x00, 0x00, 0x00, 0x03, 0x00, 0x00, 0x00,
  0x01, 0x00, 0x00, 0x00, 0x14, 0x00, 0x00, 0x00, 0x02, 0x00, 0x00, 0x00,
  0x13, 0x00, 0x00, 0x00, 0x06, 0x00, 0x00, 0x00, 0xb2, 0xfe, 0xff, 0xff,
  0x24, 0x00, 0x00, 0x00, 0x00, 0x00, 0x00, 0x05, 0x30, 0x00, 0x00, 0x00,
  0x34, 0x00, 0x00, 0x00, 0x05, 0x00, 0x00, 0x00, 0x00, 0x00, 0x0e, 0x00,
  0x14, 0x00, 0x00, 0x00, 0x10, 0x00, 0x0c, 0x00, 0x08, 0x00, 0x04, 0x00,
  0x0e, 0x00, 0x00, 0x00, 0x02, 0x00, 0x00, 0x00, 0x01, 0x00, 0x00, 0x00,
  0x02, 0x00, 0x00, 0x00, 0x01, 0x00, 0x00, 0x00, 0x01, 0x00, 0x00, 0x00,
  0x13, 0x00, 0x00, 0x00, 0x01, 0x00, 0x00, 0x00, 0x12, 0x00, 0x00, 0x00,
  0xfe, 0xfe, 0xff, 0xff, 0x14, 0x00, 0x00, 0x00, 0x00, 0x00, 0x00, 0x01,
  0x1c, 0x00, 0x00, 0x00, 0x20, 0x00, 0x00, 0x00, 0x04, 0x00, 0x00, 0x00,
  0xc0, 0xff, 0xff, 0xff, 0x00, 0x00, 0x00, 0x01, 0x01, 0x00, 0x00, 0x00,
  0x01, 0x00, 0x00, 0x00, 0x01, 0x00, 0x00, 0x00, 0x12, 0x00, 0x00, 0x00,
  0x03, 0x00, 0x00, 0x00, 0x11, 0x00, 0x00, 0x00, 0x09, 0x00, 0x00, 0x00,
  0x0a, 0x00, 0x00, 0x00, 0x3e, 0xff, 0xff, 0xff, 0x20, 0x00, 0x00, 0x00,
  0x00, 0x00, 0x00, 0x01, 0x28, 0x00, 0x00, 0x00, 0x2c, 0x00, 0x00, 0x00,
  0x04, 0x00, 0x00, 0x00, 0x0c, 0x00, 0x10, 0x00, 0x00, 0x00, 0x0c, 0x00,
  0x08, 0x00, 0x07, 0x00, 0x0c, 0x00, 0x00, 0x00, 0x00, 0x00, 0x00, 0x01,
  0x01, 0x00, 0x00, 0x00, 0x01, 0x00, 0x00, 0x00, 0x01, 0x00, 0x00, 0x00,
  0x11, 0x00, 0x00, 0x00, 0x03, 0x00, 0x00, 0x00, 0x10, 0x00, 0x00, 0x00,
  0x07, 0x00, 0x00, 0x00, 0x08, 0x00, 0x00, 0x00, 0x00, 0x00, 0x0a, 0x00,
  0x10, 0x00, 0x0c, 0x00, 0x08, 0x00, 0x04, 0x00, 0x0a, 0x00, 0x00, 0x00,
  0x0c, 0x00, 0x00, 0x00, 0x10, 0x00, 0x00, 0x00, 0x03, 0x00, 0x00, 0x00,
  0x01, 0x00, 0x00, 0x00, 0x10, 0x00, 0x00, 0x00, 0x02, 0x00, 0x00, 0x00,
  0x00, 0x00, 0x00, 0x00, 0x0f, 0x00, 0x00, 0x00, 0xba, 0xff, 0xff, 0xff,
  0x1c, 0x00, 0x00, 0x00, 0x00, 0x00, 0x00, 0x3b, 0x1c, 0x00, 0x00, 0x00,
  0x20, 0x00, 0x00, 0x00, 0x02, 0x00, 0x00, 0x00, 0x00, 0x00, 0x06, 0x00,
  0x08, 0x00, 0x04, 0x00, 0x06, 0x00, 0x00, 0x00, 0x04, 0x00, 0x00, 0x00,
  0x01, 0x00, 0x00, 0x00, 0x0f, 0x00, 0x00, 0x00, 0x04, 0x00, 0x00, 0x00,
  0x0e, 0x00, 0x00, 0x00, 0x03, 0x00, 0x00, 0x00, 0x04, 0x00, 0x00, 0x00,
  0x05, 0x00, 0x00, 0x00, 0x00, 0x00, 0x0e, 0x00, 0x1a, 0x00, 0x14, 0x00,
  0x10, 0x00, 0x0c, 0x00, 0x0b, 0x00, 0x04, 0x00, 0x0e, 0x00, 0x00, 0x00,
  0x24, 0x00, 0x00, 0x00, 0x00, 0x00, 0x00, 0x20, 0x24, 0x00, 0x00, 0x00,
  0x28, 0x00, 0x00, 0x00, 0x01, 0x00, 0x00, 0x00, 0x00, 0x00, 0x0e, 0x00,
  0x08, 0x00, 0x00, 0x00, 0x00, 0x00, 0x00, 0x00, 0x00, 0x00, 0x04, 0x00,
  0x0e, 0x00, 0x00, 0x00, 0x01, 0x00, 0x00, 0x00, 0x01, 0x00, 0x00, 0x00,
  0x0e, 0x00, 0x00, 0x00, 0x04, 0x00, 0x00, 0x00, 0x0d, 0x00, 0x00, 0x00,
  0x01, 0x00, 0x00, 0x00, 0x02, 0x00, 0x00, 0x00, 0x02, 0x00, 0x00, 0x00,
  0x00, 0x00, 0x0e, 0x00, 0x16, 0x00, 0x00, 0x00, 0x10, 0x00, 0x0c, 0x00,
  0x0b, 0x00, 0x04, 0x00, 0x0e, 0x00, 0x00, 0x00, 0x18, 0x00, 0x00, 0x00,
  0x00, 0x00, 0x00, 0x37, 0x18, 0x00, 0x00, 0x00, 0x1c, 0x00, 0x00, 0x00,
  0x00, 0x00, 0x06, 0x00, 0x08, 0x00, 0x07, 0x00, 0x06, 0x00, 0x00, 0x00,
  0x00, 0x00, 0x00, 0x02, 0x01, 0x00, 0x00, 0x00, 0x0d, 0x00, 0x00, 0x00,
  0x01, 0x00, 0x00, 0x00, 0x00, 0x00, 0x00, 0x00, 0x01, 0x00, 0x00, 0x00,
  0x16, 0x00, 0x00, 0x00, 0x01, 0x00, 0x00, 0x00, 0x00, 0x00, 0x00, 0x00,
  0x17, 0x00, 0x00, 0x00, 0x5c, 0x0e, 0x00, 0x00, 0xf0, 0x0d, 0x00, 0x00,
  0x88, 0x0d, 0x00, 0x00, 0x3c, 0x0d, 0x00, 0x00, 0xf0, 0x0c, 0x00, 0x00,
  0xa4, 0x0c, 0x00, 0x00, 0x5c, 0x0c, 0x00, 0x00, 0x38, 0x0b, 0x00, 0x00,
  0x0c, 0x0a, 0x00, 0x00, 0x28, 0x08, 0x00, 0x00, 0x3c, 0x06, 0x00, 0x00,
  0xd8, 0x05, 0x00, 0x00, 0x64, 0x05, 0x00, 0x00, 0x1c, 0x05, 0x00, 0x00,
  0xd0, 0x04, 0x00, 0x00, 0x80, 0x04, 0x00, 0x00, 0xf4, 0x03, 0x00, 0x00,
  0x10, 0x03, 0x00, 0x00, 0x24, 0x02, 0x00, 0x00, 0x90, 0x01, 0x00, 0x00,
  0x14, 0x01, 0x00, 0x00, 0x80, 0x00, 0x00, 0x00, 0x04, 0x00, 0x00, 0x00,
  0x14, 0xf2, 0xff, 0xff, 0x18, 0x00, 0x00, 0x00, 0x20, 0x00, 0x00, 0x00,
  0x40, 0x00, 0x00, 0x00, 0x17, 0x00, 0x00, 0x00, 0x00, 0x00, 0x00, 0x09,
  0x54, 0x00, 0x00, 0x00, 0x02, 0x00, 0x00, 0x00, 0xff, 0xff, 0xff, 0xff,
  0x04, 0x00, 0x00, 0x00, 0xfc, 0xf1, 0xff, 0xff, 0x08, 0x00, 0x00, 0x00,
  0x14, 0x00, 0x00, 0x00, 0x01, 0x00, 0x00, 0x00, 0x80, 0xff, 0xff, 0xff,
  0xff, 0xff, 0xff, 0xff, 0x00, 0x00, 0x00, 0x00, 0x01, 0x00, 0x00, 0x00,
  0x00, 0x00, 0x80, 0x3b, 0x19, 0x00, 0x00, 0x00, 0x53, 0x74, 0x61, 0x74,
  0x65, 0x66, 0x75, 0x6c, 0x50, 0x61, 0x72, 0x74, 0x69, 0x74, 0x69, 0x6f,
  0x6e, 0x65, 0x64, 0x43, 0x61, 0x6c, 0x6c, 0x3a, 0x30, 0x00, 0x00, 0x00,
  0x02, 0x00, 0x00, 0x00, 0x01, 0x00, 0x00, 0x00, 0x04, 0x00, 0x00, 0x00,
  0x8c, 0xf2, 0xff, 0xff, 0x18, 0x00, 0x00, 0x00, 0x20, 0x00, 0x00, 0x00,
  0x40, 0x00, 0x00, 0x00, 0x16, 0x00, 0x00, 0x00, 0x00, 0x00, 0x00, 0x09,
  0x6c, 0x00, 0x00, 0x00, 0x02, 0x00, 0x00, 0x00, 0xff, 0xff, 0xff, 0xff,
  0x04, 0x00, 0x00, 0x00, 0x74, 0xf2, 0xff, 0xff, 0x08, 0x00, 0x00, 0x00,
  0x14, 0x00, 0x00, 0x00, 0x01, 0x00, 0x00, 0x00, 0x2c, 0x00, 0x00, 0x00,
  0x00, 0x00, 0x00, 0x00, 0x00, 0x00, 0x00, 0x00, 0x01, 0x00, 0x00, 0x00,
  0x92, 0x38, 0x6c, 0x3d, 0x30, 0x00, 0x00, 0x00, 0x73, 0x65, 0x71, 0x75,
  0x65, 0x6e, 0x74, 0x69, 0x61, 0x6c, 0x2f, 0x64, 0x65, 0x6e, 0x73, 0x65,
  0x2f, 0x4d, 0x61, 0x74, 0x4d, 0x75, 0x6c, 0x3b, 0x73, 0x65, 0x71, 0x75,
  0x65, 0x6e, 0x74, 0x69, 0x61, 0x6c, 0x2f, 0x64, 0x65, 0x6e, 0x73, 0x65,
  0x2f, 0x42, 0x69, 0x61, 0x73, 0x41, 0x64, 0x64, 0x00, 0x00, 0x00, 0x00,
  0x02, 0x00, 0x00, 0x00, 0x01, 0x00, 0x00, 0x00, 0x04, 0x00, 0x00, 0x00,
  0x1c, 0xf3, 0xff, 0xff, 0x18, 0x00, 0x00, 0x00, 0x20, 0x00, 0x00, 0x00,
  0x40, 0x00, 0x00, 0x00, 0x15, 0x00, 0x00, 0x00, 0x00, 0x00, 0x00, 0x09,
  0x54, 0x00, 0x00, 0x00, 0x02, 0x00, 0x00, 0x00, 0xff, 0xff, 0xff, 0xff,
  0x80, 0x02, 0x00, 0x00, 0x04, 0xf3, 0xff, 0xff, 0x08, 0x00, 0x00, 0x00,
  0x14, 0x00, 0x00, 0x00, 0x01, 0x00, 0x00, 0x00, 0x80, 0xff, 0xff, 0xff,
  0xff, 0xff, 0xff, 0xff, 0x00, 0x00, 0x00, 0x00, 0x01, 0x00, 0x00, 0x00,
  0x83, 0x2d, 0x8e, 0x3b, 0x1a, 0x00, 0x00, 0x00, 0x73, 0x65, 0x71, 0x75,
  0x65, 0x6e, 0x74, 0x69, 0x61, 0x6c, 0x2f, 0x66, 0x6c, 0x61, 0x74, 0x74,
  0x65, 0x6e, 0x2f, 0x52, 0x65, 0x73, 0x68, 0x61, 0x70, 0x65, 0x00, 0x00,
  0x02, 0x00, 0x00, 0x00, 0x01, 0x00, 0x00, 0x00, 0x80, 0x02, 0x00, 0x00,
  0x94, 0xf3, 0xff, 0xff, 0x18, 0x00, 0x00, 0x00, 0x28, 0x00, 0x00, 0x00,
  0x48, 0x00, 0x00, 0x00, 0x14, 0x00, 0x00, 0x00, 0x00, 0x00, 0x00, 0x09,
  0x64, 0x00, 0x00, 0x00, 0x04, 0x00, 0x00, 0x00, 0xff, 0xff, 0xff, 0xff,
  0x01, 0x00, 0x00, 0x00, 0x14, 0x00, 0x00, 0x00, 0x20, 0x00, 0x00, 0x00,
  0x84, 0xf3, 0xff, 0xff, 0x08, 0x00, 0x00, 0x00, 0x14, 0x00, 0x00, 0x00,
  0x01, 0x00, 0x00, 0x00, 0x80, 0xff, 0xff, 0xff, 0xff, 0xff, 0xff, 0xff,
  0x00, 0x00, 0x00, 0x00, 0x01, 0x00, 0x00, 0x00, 0x83, 0x2d, 0x8e, 0x3b,
  0x20, 0x00, 0x00, 0x00, 0x73, 0x65, 0x71, 0x75, 0x65, 0x6e, 0x74, 0x69,
  0x61, 0x6c, 0x2f, 0x6d, 0x61, 0x78, 0x5f, 0x70, 0x6f, 0x6f, 0x6c, 0x69,
  0x6e, 0x67, 0x32, 0x64, 0x2f, 0x4d, 0x61, 0x78, 0x50, 0x6f, 0x6f, 0x6c,
  0x00, 0x00, 0x00, 0x00, 0x04, 0x00, 0x00, 0x00, 0x01, 0x00, 0x00, 0x00,
  0x01, 0x00, 0x00, 0x00, 0x14, 0x00, 0x00, 0x00, 0x20, 0x00, 0x00, 0x00,
  0x24, 0xf4, 0xff, 0xff, 0x18, 0x00, 0x00, 0x00, 0x28, 0x00, 0x00, 0x00,
  0x48, 0x00, 0x00, 0x00, 0x13, 0x00, 0x00, 0x00, 0x00, 0x00, 0x00, 0x09,
  0xbc, 0x00, 0x00, 0x00, 0x04, 0x00, 0x00, 0x00, 0xff, 0xff, 0xff, 0xff,
  0x01, 0x00, 0x00, 0x00, 0x14, 0x00, 0x00, 0x00, 0x20, 0x00, 0x00, 0x00,
  0x14, 0xf4, 0xff, 0xff, 0x08, 0x00, 0x00, 0x00, 0x14, 0x00, 0x00, 0x00,
  0x01, 0x00, 0x00, 0x00, 0x80, 0xff, 0xff, 0xff, 0xff, 0xff, 0xff, 0xff,
  0x00, 0x00, 0x00, 0x00, 0x01, 0x00, 0x00, 0x00, 0x83, 0x2d, 0x8e, 0x3b,
  0x7a, 0x00, 0x00, 0x00, 0x73, 0x65, 0x71, 0x75, 0x65, 0x6e, 0x74, 0x69,
  0x61, 0x6c, 0x2f, 0x63, 0x6f, 0x6e, 0x76, 0x32, 0x64, 0x5f, 0x31, 0x2f,
  0x52, 0x65, 0x6c, 0x75, 0x3b, 0x73, 0x65, 0x71, 0x75, 0x65, 0x6e, 0x74,
  0x69, 0x61, 0x6c, 0x2f, 0x63, 0x6f, 0x6e, 0x76, 0x32, 0x64, 0x5f, 0x31,
  0x2f, 0x42, 0x69, 0x61, 0x73, 0x41, 0x64, 0x64, 0x3b, 0x73, 0x65, 0x71,
  0x75, 0x65, 0x6e, 0x74, 0x69, 0x61, 0x6c, 0x2f, 0x63, 0x6f, 0x6e, 0x76,
  0x32, 0x64, 0x5f, 0x31, 0x2f, 0x43, 0x6f, 0x6e, 0x76, 0x32, 0x44, 0x3b,
  0x73, 0x65, 0x71, 0x75, 0x65, 0x6e, 0x74, 0x69, 0x61, 0x6c, 0x2f, 0x63,
  0x6f, 0x6e, 0x76, 0x32, 0x64, 0x5f, 0x31, 0x2f, 0x42, 0x69, 0x61, 0x73,
  0x41, 0x64, 0x64, 0x2f, 0x52, 0x65, 0x61, 0x64, 0x56, 0x61, 0x72, 0x69,
  0x61, 0x62, 0x6c, 0x65, 0x4f, 0x70, 0x00, 0x00, 0x04, 0x00, 0x00, 0x00,
  0x01, 0x00, 0x00, 0x00, 0x01, 0x00, 0x00, 0x00, 0x14, 0x00, 0x00, 0x00,
  0x20, 0x00, 0x00, 0x00, 0x0c, 0xf5, 0xff, 0xff, 0x18, 0x00, 0x00, 0x00,
  0x28, 0x00, 0x00, 0x00, 0x48, 0x00, 0x00, 0x00, 0x12, 0x00, 0x00, 0x00,
  0x00, 0x00, 0x00, 0x09, 0xb4, 0x00, 0x00, 0x00, 0x04, 0x00, 0x00, 0x00,
  0xff, 0xff, 0xff, 0xff, 0x01, 0x00, 0x00, 0x00, 0x14, 0x00, 0x00, 0x00,
  0x10, 0x00, 0x00, 0x00, 0xfc, 0xf4, 0xff, 0xff, 0x08, 0x00, 0x00, 0x00,
  0x14, 0x00, 0x00, 0x00, 0x01, 0x00, 0x00, 0x00, 0x80, 0xff, 0xff, 0xff,
  0xff, 0xff, 0xff, 0xff, 0x00, 0x00, 0x00, 0x00, 0x01, 0x00, 0x00, 0x00,
  0x7a, 0xef, 0x64, 0x3b, 0x72, 0x00, 0x00, 0x00, 0x73, 0x65, 0x71, 0x75,
  0x65, 0x6e, 0x74, 0x69, 0x61, 0x6c, 0x2f, 0x63, 0x6f, 0x6e, 0x76, 0x32,
  0x64, 0x2f, 0x52, 0x65, 0x6c, 0x75, 0x3b, 0x73, 0x65, 0x71, 0x75, 0x65,
  0x6e, 0x74, 0x69, 0x61, 0x6c, 0x2f, 0x63, 0x6f, 0x6e, 0x76, 0x32, 0x64,
  0x2f, 0x42, 0x69, 0x61, 0x73, 0x41, 0x64, 0x64, 0x3b, 0x73, 0x65, 0x71,
  0x75, 0x65, 0x6e, 0x74, 0x69, 0x61, 0x6c, 0x2f, 0x63, 0x6f, 0x6e, 0x76,
  0x32, 0x64, 0x2f, 0x43, 0x6f, 0x6e, 0x76, 0x32, 0x44, 0x3b, 0x73, 0x65,
  0x71, 0x75, 0x65, 0x6e, 0x74, 0x69, 0x61, 0x6c, 0x2f, 0x63, 0x6f, 0x6e,
  0x76, 0x32, 0x64, 0x2f, 0x42, 0x69, 0x61, 0x73, 0x41, 0x64, 0x64, 0x2f,
  0x52, 0x65, 0x61, 0x64, 0x56, 0x61, 0x72, 0x69, 0x61, 0x62, 0x6c, 0x65,
  0x4f, 0x70, 0x00, 0x00, 0x04, 0x00, 0x00, 0x00, 0x01, 0x00, 0x00, 0x00,
  0x01, 0x00, 0x00, 0x00, 0x14, 0x00, 0x00, 0x00, 0x10, 0x00, 0x00, 0x00,
  0xec, 0xf5, 0xff, 0xff, 0x18, 0x00, 0x00, 0x00, 0x28, 0x00, 0x00, 0x00,
  0x48, 0x00, 0x00, 0x00, 0x11, 0x00, 0x00, 0x00, 0x00, 0x00, 0x00, 0x09,
  0x5c, 0x00, 0x00, 0x00, 0x04, 0x00, 0x00, 0x00, 0xff, 0xff, 0xff, 0xff,
  0x01, 0x00, 0x00, 0x00, 0x14, 0x00, 0x00, 0x00, 0x09, 0x00, 0x00, 0x00,
  0xdc, 0xf5, 0xff, 0xff, 0x08, 0x00, 0x00, 0x00, 0x14, 0x00, 0x00, 0x00,
  0x01, 0x00, 0x00, 0x00, 0x80, 0xff, 0xff, 0xff, 0xff, 0xff, 0xff, 0xff,
  0x00, 0x00, 0x00, 0x00, 0x01, 0x00, 0x00, 0x00, 0x81, 0x80, 0x80, 0x3b,
  0x1a, 0x00, 0x00, 0x00, 0x73, 0x65, 0x71, 0x75, 0x65, 0x6e, 0x74, 0x69,
  0x61, 0x6c, 0x2f, 0x72, 0x65, 0x73, 0x68, 0x61, 0x70, 0x65, 0x2f, 0x52,
  0x65, 0x73, 0x68, 0x61, 0x70, 0x65, 0x00, 0x00, 0x04, 0x00, 0x00, 0x00,
  0x01, 0x00, 0x00, 0x00, 0x01, 0x00, 0x00, 0x00, 0x14, 0x00, 0x00, 0x00,
  0x09, 0x00, 0x00, 0x00, 0xd6, 0xf6, 0xff, 0xff, 0x14, 0x00, 0x00, 0x00,
  0x14, 0x00, 0x00, 0x00, 0x10, 0x00, 0x00, 0x00, 0x00, 0x00, 0x00, 0x02,
  0x30, 0x00, 0x00, 0x00, 0xc8, 0xf6, 0xff, 0xff, 0x20, 0x00, 0x00, 0x00,
  0x73, 0x65, 0x71, 0x75, 0x65, 0x6e, 0x74, 0x69, 0x61, 0x6c, 0x2f, 0x72,
  0x65, 0x73, 0x68, 0x61, 0x70, 0x65, 0x2f, 0x52, 0x65, 0x73, 0x68, 0x61,
  0x70, 0x65, 0x2f, 0x73, 0x68, 0x61, 0x70, 0x65, 0x00, 0x00, 0x00, 0x00,
  0x01, 0x00, 0x00, 0x00, 0x04, 0x00, 0x00, 0x00, 0x22, 0xf7, 0xff, 0xff,
  0x14, 0x00, 0x00, 0x00, 0x14, 0x00, 0x00, 0x00, 0x0f, 0x00, 0x00, 0x00,
  0x00, 0x00, 0x00, 0x02, 0x30, 0x00, 0x00, 0x00, 0x14, 0xf7, 0xff, 0xff,
  0x20, 0x00, 0x00, 0x00, 0x73, 0x65, 0x71, 0x75, 0x65, 0x6e, 0x74, 0x69,
  0x61, 0x6c, 0x2f, 0x72, 0x65, 0x73, 0x68, 0x61, 0x70, 0x65, 0x2f, 0x73,
  0x74, 0x72, 0x69, 0x64, 0x65, 0x64, 0x5f, 0x73, 0x6c, 0x69, 0x63, 0x65,
  0x00, 0x00, 0x00, 0x00, 0x00, 0x00, 0x00, 0x00, 0x6a, 0xf7, 0xff, 0xff,
  0x14, 0x00, 0x00, 0x00, 0x14, 0x00, 0x00, 0x00, 0x0e, 0x00, 0x00, 0x00,
  0x00, 0x00, 0x00, 0x02, 0x28, 0x00, 0x00, 0x00, 0x5c, 0xf7, 0xff, 0xff,
  0x18, 0x00, 0x00, 0x00, 0x73, 0x65, 0x71, 0x75, 0x65, 0x6e, 0x74, 0x69,
  0x61, 0x6c, 0x2f, 0x72, 0x65, 0x73, 0x68, 0x61, 0x70, 0x65, 0x2f, 0x53,
  0x68, 0x61, 0x70, 0x65, 0x00, 0x00, 0x00, 0x00, 0x01, 0x00, 0x00, 0x00,
  0x03, 0x00, 0x00, 0x00, 0xae, 0xf7, 0xff, 0xff, 0x14, 0x00, 0x00, 0x00,
  0x34, 0x00, 0x00, 0x00, 0x0d, 0x00, 0x00, 0x00, 0x00, 0x00, 0x00, 0x02,
  0x54, 0x00, 0x00, 0x00, 0x24, 0xf7, 0xff, 0xff, 0x08, 0x00, 0x00, 0x00,
  0x14, 0x00, 0x00, 0x00, 0x01, 0x00, 0x00, 0x00, 0x00, 0x00, 0x00, 0x00,
  0x00, 0x00, 0x00, 0x00, 0x00, 0x00, 0x00, 0x00, 0x01, 0x00, 0x00, 0x00,
  0x12, 0xfa, 0x41, 0x37, 0x27, 0x00, 0x00, 0x00, 0x73, 0x65, 0x71, 0x75,
  0x65, 0x6e, 0x74, 0x69, 0x61, 0x6c, 0x2f, 0x64, 0x65, 0x6e, 0x73, 0x65,
  0x2f, 0x42, 0x69, 0x61, 0x73, 0x41, 0x64, 0x64, 0x2f, 0x52, 0x65, 0x61,
  0x64, 0x56, 0x61, 0x72, 0x69, 0x61, 0x62, 0x6c, 0x65, 0x4f, 0x70, 0x00,
  0x01, 0x00, 0x00, 0x00, 0x04, 0x00, 0x00, 0x00, 0x1e, 0xf8, 0xff, 0xff,
  0x14, 0x00, 0x00, 0x00, 0x30, 0x00, 0x00, 0x00, 0x0c, 0x00, 0x00, 0x00,
  0x00, 0x00, 0x00, 0x09, 0x40, 0x00, 0x00, 0x00, 0x94, 0xf7, 0xff, 0xff,
  0x08, 0x00, 0x00, 0x00, 0x10, 0x00, 0x00, 0x00, 0x01, 0x00, 0x00, 0x00,
  0x00, 0x00, 0x00, 0x00, 0x00, 0x00, 0x00, 0x00, 0x01, 0x00, 0x00, 0x00,
  0x3c, 0xa2, 0x2e, 0x3b, 0x17, 0x00, 0x00, 0x00, 0x73, 0x65, 0x71, 0x75,
  0x65, 0x6e, 0x74, 0x69, 0x61, 0x6c, 0x2f, 0x64, 0x65, 0x6e, 0x73, 0x65,
  0x2f, 0x4d, 0x61, 0x74, 0x4d, 0x75, 0x6c, 0x00, 0x02, 0x00, 0x00, 0x00,
  0x04, 0x00, 0x00, 0x00, 0x80, 0x02, 0x00, 0x00, 0x7e, 0xf8, 0xff, 0xff,
  0x14, 0x00, 0x00, 0x00, 0xa8, 0x01, 0x00, 0x00, 0x0b, 0x00, 0x00, 0x00,
  0x00, 0x00, 0x00, 0x02, 0xcc, 0x01, 0x00, 0x00, 0xf4, 0xf7, 0xff, 0xff,
  0x08, 0x00, 0x00, 0x00, 0x0c, 0x01, 0x00, 0x00, 0x20, 0x00, 0x00, 0x00,
  0x00, 0x00, 0x00, 0x00, 0x00, 0x00, 0x00, 0x00, 0x00, 0x00, 0x00, 0x00,
  0x00, 0x00, 0x00, 0x00, 0x00, 0x00, 0x00, 0x00, 0x00, 0x00, 0x00, 0x00,
  0x00, 0x00, 0x00, 0x00, 0x00, 0x00, 0x00, 0x00, 0x00, 0x00, 0x00, 0x00,
  0x00, 0x00, 0x00, 0x00, 0x00, 0x00, 0x00, 0x00, 0x00, 0x00, 0x00, 0x00,
  0x00, 0x00, 0x00, 0x00, 0x00, 0x00, 0x00, 0x00, 0x00, 0x00, 0x00, 0x00,
  0x00, 0x00, 0x00, 0x00, 0x00, 0x00, 0x00, 0x00, 0x00, 0x00, 0x00, 0x00,
  0x00, 0x00, 0x00, 0x00, 0x00, 0x00, 0x00, 0x00, 0x00, 0x00, 0x00, 0x00,
  0x00, 0x00, 0x00, 0x00, 0x00, 0x00, 0x00, 0x00, 0x00, 0x00, 0x00, 0x00,
  0x00, 0x00, 0x00, 0x00, 0x00, 0x00, 0x00, 0x00, 0x00, 0x00, 0x00, 0x00,
  0x00, 0x00, 0x00, 0x00, 0x00, 0x00, 0x00, 0x00, 0x00, 0x00, 0x00, 0x00,
  0x00, 0x00, 0x00, 0x00, 0x00, 0x00, 0x00, 0x00, 0x00, 0x00, 0x00, 0x00,
  0x00, 0x00, 0x00, 0x00, 0x00, 0x00, 0x00, 0x00, 0x00, 0x00, 0x00, 0x00,
  0x00, 0x00, 0x00, 0x00, 0x00, 0x00, 0x00, 0x00, 0x00, 0x00, 0x00, 0x00,
  0x00, 0x00, 0x00, 0x00, 0x00, 0x00, 0x00, 0x00, 0x00, 0x00, 0x00, 0x00,
  0x00, 0x00, 0x00, 0x00, 0x00, 0x00, 0x00, 0x00, 0x00, 0x00, 0x00, 0x00,
  0x00, 0x00, 0x00, 0x00, 0x00, 0x00, 0x00, 0x00, 0x00, 0x00, 0x00, 0x00,
  0x00, 0x00, 0x00, 0x00, 0x00, 0x00, 0x00, 0x00, 0x00, 0x00, 0x00, 0x00,
  0x00, 0x00, 0x00, 0x00, 0x00, 0x00, 0x00, 0x00, 0x00, 0x00, 0x00, 0x00,
  0x00, 0x00, 0x00, 0x00, 0x00, 0x00, 0x00, 0x00, 0x00, 0x00, 0x00, 0x00,
  0x00, 0x00, 0x00, 0x00, 0x00, 0x00, 0x00, 0x00, 0x00, 0x00, 0x00, 0x00,
  0x00, 0x00, 0x00, 0x00, 0x00, 0x00, 0x00, 0x00, 0x00, 0x00, 0x00, 0x00,
  0x00, 0x00, 0x00, 0x00, 0x00, 0x00, 0x00, 0x00, 0x20, 0x00, 0x00, 0x00,
  0xce, 0x1c, 0x22, 0x37, 0x6a, 0x3b, 0x32, 0x37, 0xf4, 0x74, 0xb7, 0x36,
  0xa2, 0xe6, 0x2a, 0x37, 0x47, 0xe3, 0x2f, 0x37, 0x41, 0xd3, 0xbb, 0x36,
  0x46, 0x45, 0x0d, 0x37, 0x19, 0xb7, 0x10, 0x37, 0x43, 0xce, 0x13, 0x37,
  0x45, 0x6a, 0x09, 0x37, 0x18, 0x1c, 0x2a, 0x37, 0xfd, 0xc5, 0xb7, 0x36,
  0xe3, 0x9b, 0xf0, 0x36, 0x9f, 0xf9, 0x23, 0x37, 0x44, 0xe5, 0x23, 0x37,
  0x0e, 0xc2, 0xba, 0x36, 0xc9, 0x77, 0x51, 0x37, 0xf7, 0x4e, 0xc6, 0x36,
  0xfc, 0xf3, 0x1c, 0x37, 0x41, 0xb3, 0x12, 0x37, 0xb7, 0x5f, 0x38, 0x37,
  0x26, 0xe9, 0xb1, 0x36, 0xa8, 0x11, 0x10, 0x37, 0x08, 0xfd, 0xbb, 0x36,
  0x79, 0x9f, 0x08, 0x37, 0x97, 0xf5, 0x4e, 0x37, 0xcb, 0x5b, 0x1c, 0x37,
  0x07, 0x87, 0x24, 0x37, 0xcf, 0xf7, 0xbb, 0x36, 0x9e, 0x13, 0xbb, 0x36,
  0x35, 0x6d, 0x27, 0x37, 0x53, 0x4a, 0x1a, 0x37, 0x2a, 0x00, 0x00, 0x00,
  0x73, 0x65, 0x71, 0x75, 0x65, 0x6e, 0x74, 0x69, 0x61, 0x6c, 0x2f, 0x63,
  0x6f, 0x6e, 0x76, 0x32, 0x64, 0x5f, 0x31, 0x2f, 0x42, 0x69, 0x61, 0x73,
  0x41, 0x64, 0x64, 0x2f, 0x52, 0x65, 0x61, 0x64, 0x56, 0x61, 0x72, 0x69,
  0x61, 0x62, 0x6c, 0x65, 0x4f, 0x70, 0x00, 0x00, 0x01, 0x00, 0x00, 0x00,
  0x20, 0x00, 0x00, 0x00, 0x66, 0xfa, 0xff, 0xff, 0x14, 0x00, 0x00, 0x00,
  0xa4, 0x01, 0x00, 0x00, 0x0a, 0x00, 0x00, 0x00, 0x00, 0x00, 0x00, 0x09,
  0xb8, 0x01, 0x00, 0x00, 0xdc, 0xf9, 0xff, 0xff, 0x08, 0x00, 0x00, 0x00,
  0x08, 0x01, 0x00, 0x00, 0x20, 0x00, 0x00, 0x00, 0x00, 0x00, 0x00, 0x00,
  0x00, 0x00, 0x00, 0x00, 0x00, 0x00, 0x00, 0x00, 0x00, 0x00, 0x00, 0x00,
  0x00, 0x00, 0x00, 0x00, 0x00, 0x00, 0x00, 0x00, 0x00, 0x00, 0x00, 0x00,
  0x00, 0x00, 0x00, 0x00, 0x00, 0x00, 0x00, 0x00, 0x00, 0x00, 0x00, 0x00,
  0x00, 0x00, 0x00, 0x00, 0x00, 0x00, 0x00, 0x00, 0x00, 0x00, 0x00, 0x00,
  0x00, 0x00, 0x00, 0x00, 0x00, 0x00, 0x00, 0x00, 0x00, 0x00, 0x00, 0x00,
  0x00, 0x00, 0x00, 0x00, 0x00, 0x00, 0x00, 0x00, 0x00, 0x00, 0x00, 0x00,
  0x00, 0x00, 0x00, 0x00, 0x00, 0x00, 0x00, 0x00, 0x00, 0x00, 0x00, 0x00,
  0x00, 0x00, 0x00, 0x00, 0x00, 0x00, 0x00, 0x00, 0x00, 0x00, 0x00, 0x00,
  0x00, 0x00, 0x00, 0x00, 0x00, 0x00, 0x00, 0x00, 0x00, 0x00, 0x00, 0x00,
  0x00, 0x00, 0x00, 0x00, 0x00, 0x00, 0x00, 0x00, 0x00, 0x00, 0x00, 0x00,
  0x00, 0x00, 0x00, 0x00, 0x00, 0x00, 0x00, 0x00, 0x00, 0x00, 0x00, 0x00,
  0x00, 0x00, 0x00, 0x00, 0x00, 0x00, 0x00, 0x00, 0x00, 0x00, 0x00, 0x00,
  0x00, 0x00, 0x00, 0x00, 0x00, 0x00, 0x00, 0x00, 0x00, 0x00, 0x00, 0x00,
  0x00, 0x00, 0x00, 0x00, 0x00, 0x00, 0x00, 0x00, 0x00, 0x00, 0x00, 0x00,
  0x00, 0x00, 0x00, 0x00, 0x00, 0x00, 0x00, 0x00, 0x00, 0x00, 0x00, 0x00,
  0x00, 0x00, 0x00, 0x00, 0x00, 0x00, 0x00, 0x00, 0x00, 0x00, 0x00, 0x00,
  0x00, 0x00, 0x00, 0x00, 0x00, 0x00, 0x00, 0x00, 0x00, 0x00, 0x00, 0x00,
  0x00, 0x00, 0x00, 0x00, 0x00, 0x00, 0x00, 0x00, 0x00, 0x00, 0x00, 0x00,
  0x00, 0x00, 0x00, 0x00, 0x00, 0x00, 0x00, 0x00, 0x00, 0x00, 0x00, 0x00,
  0x00, 0x00, 0x00, 0x00, 0x00, 0x00, 0x00, 0x00, 0x00, 0x00, 0x00, 0x00,
  0x00, 0x00, 0x00, 0x00, 0x00, 0x00, 0x00, 0x00, 0x00, 0x00, 0x00, 0x00,
  0x20, 0x00, 0x00, 0x00, 0xfe, 0x46, 0x35, 0x3b, 0x72, 0x4d, 0x47, 0x3b,
  0x1c, 0x25, 0xcd, 0x3a, 0xcb, 0x1a, 0x3f, 0x3b, 0x5d, 0xae, 0x44, 0x3b,
  0x9d, 0x07, 0xd2, 0x3a, 0xb3, 0xf8, 0x1d, 0x3b, 0xc6, 0xd2, 0x21, 0x3b,
  0x78, 0x47, 0x25, 0x3b, 0x03, 0xa9, 0x19, 0x3b, 0x4f, 0x38, 0x3e, 0x3b,
  0xb9, 0x7f, 0xcd, 0x3a, 0xd9, 0x86, 0x06, 0x3b, 0x2e, 0x5c, 0x37, 0x3b,
  0x6b, 0x45, 0x37, 0x3b, 0x1e, 0xd6, 0xd0, 0x3a, 0x24, 0x3b, 0x6a, 0x3b,
  0x97, 0xc0, 0xdd, 0x3a, 0x07, 0x82, 0x2f, 0x3b, 0x01, 0x0b, 0x24, 0x3b,
  0xa0, 0x2b, 0x4e, 0x3b, 0x75, 0xf1, 0xc6, 0x3a, 0xc6, 0x19, 0x21, 0x3b,
  0x54, 0x36, 0xd2, 0x3a, 0x3e, 0xc6, 0x18, 0x3b, 0x07, 0x6d, 0x67, 0x3b,
  0xd8, 0xd7, 0x2e, 0x3b, 0x4d, 0xfa, 0x37, 0x3b, 0x7d, 0x30, 0xd2, 0x3a,
  0x52, 0x31, 0xd1, 0x3a, 0x39, 0x38, 0x3b, 0x3b, 0xc8, 0x87, 0x2c, 0x3b,
  0x1a, 0x00, 0x00, 0x00, 0x73, 0x65, 0x71, 0x75, 0x65, 0x6e, 0x74, 0x69,
  0x61, 0x6c, 0x2f, 0x63, 0x6f, 0x6e, 0x76, 0x32, 0x64, 0x5f, 0x31, 0x2f,
  0x43, 0x6f, 0x6e, 0x76, 0x32, 0x44, 0x00, 0x00, 0x04, 0x00, 0x00, 0x00,
  0x20, 0x00, 0x00, 0x00, 0x03, 0x00, 0x00, 0x00, 0x01, 0x00, 0x00, 0x00,
  0x10, 0x00, 0x00, 0x00, 0x46, 0xfc, 0xff, 0xff, 0x14, 0x00, 0x00, 0x00,
  0xe8, 0x00, 0x00, 0x00, 0x09, 0x00, 0x00, 0x00, 0x00, 0x00, 0x00, 0x02,
  0x0c, 0x01, 0x00, 0x00, 0xbc, 0xfb, 0xff, 0xff, 0x08, 0x00, 0x00, 0x00,
  0x8c, 0x00, 0x00, 0x00, 0x10, 0x00, 0x00, 0x00, 0x00, 0x00, 0x00, 0x00,
  0x00, 0x00, 0x00, 0x00, 0x00, 0x00, 0x00, 0x00, 0x00, 0x00, 0x00, 0x00,
  0x00, 0x00, 0x00, 0x00, 0x00, 0x00, 0x00, 0x00, 0x00, 0x00, 0x00, 0x00,
  0x00, 0x00, 0x00, 0x00, 0x00, 0x00, 0x00, 0x00, 0x00, 0x00, 0x00, 0x00,
  0x00, 0x00, 0x00, 0x00, 0x00, 0x00, 0x00, 0x00, 0x00, 0x00, 0x00, 0x00,
  0x00, 0x00, 0x00, 0x00, 0x00, 0x00, 0x00, 0x00, 0x00, 0x00, 0x00, 0x00,
  0x00, 0x00, 0x00, 0x00, 0x00, 0x00, 0x00, 0x00, 0x00, 0x00, 0x00, 0x00,
  0x00, 0x00, 0x00, 0x00, 0x00, 0x00, 0x00, 0x00, 0x00, 0x00, 0x00, 0x00,
  0x00, 0x00, 0x00, 0x00, 0x00, 0x00, 0x00, 0x00, 0x00, 0x00, 0x00, 0x00,
  0x00, 0x00, 0x00, 0x00, 0x00, 0x00, 0x00, 0x00, 0x00, 0x00, 0x00, 0x00,
  0x00, 0x00, 0x00, 0x00, 0x00, 0x00, 0x00, 0x00, 0x00, 0x00, 0x00, 0x00,
  0x00, 0x00, 0x00, 0x00, 0x00, 0x00, 0x00, 0x00, 0x10, 0x00, 0x00, 0x00,
  0xf4, 0x1e, 0x48, 0x37, 0xcc, 0xdc, 0x71, 0x37, 0xa5, 0x92, 0x84, 0x37,
  0x5f, 0x08, 0x79, 0x37, 0x04, 0xfc, 0x10, 0x37, 0x22, 0x00, 0x12, 0x37,
  0xea, 0xd4, 0x22, 0x37, 0x70, 0xe0, 0x24, 0x37, 0x5a, 0x90, 0x60, 0x37,
  0x5b, 0x85, 0x1e, 0x37, 0x21, 0x41, 0x4a, 0x37, 0x93, 0xce, 0x5c, 0x37,
  0x46, 0x4d, 0x68, 0x37, 0xc4, 0x49, 0x45, 0x37, 0x57, 0x84, 0x6f, 0x37,
  0xb8, 0x26, 0x11, 0x37, 0x28, 0x00, 0x00, 0x00, 0x73, 0x65, 0x71, 0x75,
  0x65, 0x6e, 0x74, 0x69, 0x61, 0x6c, 0x2f, 0x63, 0x6f, 0x6e, 0x76, 0x32,
  0x64, 0x2f, 0x42, 0x69, 0x61, 0x73, 0x41, 0x64, 0x64, 0x2f, 0x52, 0x65,
  0x61, 0x64, 0x56, 0x61, 0x72, 0x69, 0x61, 0x62, 0x6c, 0x65, 0x4f, 0x70,
  0x00, 0x00, 0x00, 0x00, 0x01, 0x00, 0x00, 0x00, 0x10, 0x00, 0x00, 0x00,
  0x6e, 0xfd, 0xff, 0xff, 0x14, 0x00, 0x00, 0x00, 0xe4, 0x00, 0x00, 0x00,
  0x08, 0x00, 0x00, 0x00, 0x00, 0x00, 0x00, 0x09, 0xf8, 0x00, 0x00, 0x00,
  0xe4, 0xfc, 0xff, 0xff, 0x08, 0x00, 0x00, 0x00, 0x88, 0x00, 0x00, 0x00,
  0x10, 0x00, 0x00, 0x00, 0x00, 0x00, 0x00, 0x00, 0x00, 0x00, 0x00, 0x00,
  0x00, 0x00, 0x00, 0x00, 0x00, 0x00, 0x00, 0x00, 0x00, 0x00, 0x00, 0x00,
  0x00, 0x00, 0x00, 0x00, 0x00, 0x00, 0x00, 0x00, 0x00, 0x00, 0x00, 0x00,
  0x00, 0x00, 0x00, 0x00, 0x00, 0x00, 0x00, 0x00, 0x00, 0x00, 0x00, 0x00,
  0x00, 0x00, 0x00, 0x00, 0x00, 0x00, 0x00, 0x00, 0x00, 0x00, 0x00, 0x00,
  0x00, 0x00, 0x00, 0x00, 0x00, 0x00, 0x00, 0x00, 0x00, 0x00, 0x00, 0x00,
  0x00, 0x00, 0x00, 0x00, 0x00, 0x00, 0x00, 0x00, 0x00, 0x00, 0x00, 0x00,
  0x00, 0x00, 0x00, 0x00, 0x00, 0x00, 0x00, 0x00, 0x00, 0x00, 0x00, 0x00,
  0x00, 0x00, 0x00, 0x00, 0x00, 0x00, 0x00, 0x00, 0x00, 0x00, 0x00, 0x00,
  0x00, 0x00, 0x00, 0x00, 0x00, 0x00, 0x00, 0x00, 0x00, 0x00, 0x00, 0x00,
  0x00, 0x00, 0x00, 0x00, 0x00, 0x00, 0x00, 0x00, 0x00, 0x00, 0x00, 0x00,
  0x10, 0x00, 0x00, 0x00, 0xd4, 0x56, 0x47, 0x3b, 0xee, 0xea, 0x70, 0x3b,
  0x12, 0x0e, 0x84, 0x3b, 0x56, 0x0f, 0x78, 0x3b, 0x07, 0x6b, 0x10, 0x3b,
  0x21, 0x6e, 0x11, 0x3b, 0x14, 0x32, 0x22, 0x3b, 0x8f, 0x3b, 0x24, 0x3b,
  0xc9, 0xaf, 0x5f, 0x3b, 0xd5, 0xe6, 0x1d, 0x3b, 0xdf, 0x76, 0x49, 0x3b,
  0xc4, 0xf1, 0x5b, 0x3b, 0xf8, 0x64, 0x67, 0x3b, 0x79, 0x84, 0x44, 0x3b,
  0xd2, 0x94, 0x6e, 0x3b, 0x91, 0x95, 0x10, 0x3b, 0x18, 0x00, 0x00, 0x00,
  0x73, 0x65, 0x71, 0x75, 0x65, 0x6e, 0x74, 0x69, 0x61, 0x6c, 0x2f, 0x63,
  0x6f, 0x6e, 0x76, 0x32, 0x64, 0x2f, 0x43, 0x6f, 0x6e, 0x76, 0x32, 0x44,
  0x00, 0x00, 0x00, 0x00, 0x04, 0x00, 0x00, 0x00, 0x10, 0x00, 0x00, 0x00,
  0x03, 0x00, 0x00, 0x00, 0x01, 0x00, 0x00, 0x00, 0x09, 0x00, 0x00, 0x00,
  0x8e, 0xfe, 0xff, 0xff, 0x14, 0x00, 0x00, 0x00, 0x14, 0x00, 0x00, 0x00,
  0x07, 0x00, 0x00, 0x00, 0x00, 0x00, 0x00, 0x02, 0x28, 0x00, 0x00, 0x00,
  0x80, 0xfe, 0xff, 0xff, 0x18, 0x00, 0x00, 0x00, 0x73, 0x65, 0x71, 0x75,
  0x65, 0x6e, 0x74, 0x69, 0x61, 0x6c, 0x2f, 0x66, 0x6c, 0x61, 0x74, 0x74,
  0x65, 0x6e, 0x2f, 0x43, 0x6f, 0x6e, 0x73, 0x74, 0x00, 0x00, 0x00, 0x00,
  0x01, 0x00, 0x00, 0x00, 0x02, 0x00, 0x00, 0x00, 0xd2, 0xfe, 0xff, 0xff,
  0x14, 0x00, 0x00, 0x00, 0x14, 0x00, 0x00, 0x00, 0x06, 0x00, 0x00, 0x00,
  0x00, 0x00, 0x00, 0x02, 0x30, 0x00, 0x00, 0x00, 0xc4, 0xfe, 0xff, 0xff,
  0x22, 0x00, 0x00, 0x00, 0x73, 0x65, 0x71, 0x75, 0x65, 0x6e, 0x74, 0x69,
  0x61, 0x6c, 0x2f, 0x72, 0x65, 0x73, 0x68, 0x61, 0x70, 0x65, 0x2f, 0x52,
  0x65, 0x73, 0x68, 0x61, 0x70, 0x65, 0x2f, 0x73, 0x68, 0x61, 0x70, 0x65,
  0x2f, 0x33, 0x00, 0x00, 0x00, 0x00, 0x00, 0x00, 0x1a, 0xff, 0xff, 0xff,
  0x14, 0x00, 0x00, 0x00, 0x14, 0x00, 0x00, 0x00, 0x05, 0x00, 0x00, 0x00,
  0x00, 0x00, 0x00, 0x02, 0x30, 0x00, 0x00, 0x00, 0x0c, 0xff, 0xff, 0xff,
  0x22, 0x00, 0x00, 0x00, 0x73, 0x65, 0x71, 0x75, 0x65, 0x6e, 0x74, 0x69,
  0x61, 0x6c, 0x2f, 0x72, 0x65, 0x73, 0x68, 0x61, 0x70, 0x65, 0x2f, 0x52,
  0x65, 0x73, 0x68, 0x61, 0x70, 0x65, 0x2f, 0x73, 0x68, 0x61, 0x70, 0x65,
  0x2f, 0x32, 0x00, 0x00, 0x00, 0x00, 0x00, 0x00, 0x62, 0xff, 0xff, 0xff,
  0x14, 0x00, 0x00, 0x00, 0x14, 0x00, 0x00, 0x00, 0x03, 0x00, 0x00, 0x00,
  0x00, 0x00, 0x00, 0x02, 0x30, 0x00, 0x00, 0x00, 0x54, 0xff, 0xff, 0xff,
  0x22, 0x00, 0x00, 0x00, 0x73, 0x65, 0x71, 0x75, 0x65, 0x6e, 0x74, 0x69,
  0x61, 0x6c, 0x2f, 0x72, 0x65, 0x73, 0x68, 0x61, 0x70, 0x65, 0x2f, 0x52,
  0x65, 0x73, 0x68, 0x61, 0x70, 0x65, 0x2f, 0x73, 0x68, 0x61, 0x70, 0x65,
  0x2f, 0x31, 0x00, 0x00, 0x00, 0x00, 0x00, 0x00, 0xaa, 0xff, 0xff, 0xff,
  0x14, 0x00, 0x00, 0x00, 0x14, 0x00, 0x00, 0x00, 0x03, 0x00, 0x00, 0x00,
  0x00, 0x00, 0x00, 0x02, 0x38, 0x00, 0x00, 0x00, 0x9c, 0xff, 0xff, 0xff,
  0x28, 0x00, 0x00, 0x00, 0x73, 0x65, 0x71, 0x75, 0x65, 0x6e, 0x74, 0x69,
  0x61, 0x6c, 0x2f, 0x72, 0x65, 0x73, 0x68, 0x61, 0x70, 0x65, 0x2f, 0x73,
  0x74, 0x72, 0x69, 0x64, 0x65, 0x64, 0x5f, 0x73, 0x6c, 0x69, 0x63, 0x65,
  0x2f, 0x73, 0x74, 0x61, 0x63, 0x6b, 0x5f, 0x31, 0x00, 0x00, 0x00, 0x00,
  0x01, 0x00, 0x00, 0x00, 0x01, 0x00, 0x00, 0x00, 0x00, 0x00, 0x0e, 0x00,
  0x18, 0x00, 0x14, 0x00, 0x13, 0x00, 0x0c, 0x00, 0x08, 0x00, 0x04, 0x00,
  0x0e, 0x00, 0x00, 0x00, 0x18, 0x00, 0x00, 0x00, 0x18, 0x00, 0x00, 0x00,
  0x02, 0x00, 0x00, 0x00, 0x00, 0x00, 0x00, 0x02, 0x38, 0x00, 0x00, 0x00,
  0x04, 0x00, 0x04, 0x00, 0x04, 0x00, 0x00, 0x00, 0x26, 0x00, 0x00, 0x00,
  0x73, 0x65, 0x71, 0x75, 0x65, 0x6e, 0x74, 0x69, 0x61, 0x6c, 0x2f, 0x72,
  0x65, 0x73, 0x68, 0x61, 0x70, 0x65, 0x2f, 0x73, 0x74, 0x72, 0x69, 0x64,
  0x65, 0x64, 0x5f, 0x73, 0x6c, 0x69, 0x63, 0x65, 0x2f, 0x73, 0x74, 0x61,
  0x63, 0x6b, 0x00, 0x00, 0x01, 0x00, 0x00, 0x00, 0x01, 0x00, 0x00, 0x00,
  0x14, 0x00, 0x1c, 0x00, 0x18, 0x00, 0x17, 0x00, 0x10, 0x00, 0x0c, 0x00,
  0x08, 0x00, 0x00, 0x00, 0x00, 0x00, 0x04, 0x00, 0x14, 0x00, 0x00, 0x00,
  0x18, 0x00, 0x00, 0x00, 0x30, 0x00, 0x00, 0x00, 0x4c, 0x00, 0x00, 0x00,
  0x01, 0x00, 0x00, 0x00, 0x00, 0x00, 0x00, 0x09, 0x64, 0x00, 0x00, 0x00,
  0x03, 0x00, 0x00, 0x00, 0xff, 0xff, 0xff, 0xff, 0x14, 0x00, 0x00, 0x00,
  0x09, 0x00, 0x00, 0x00, 0x0c, 0x00, 0x0c, 0x00, 0x00, 0x00, 0x00, 0x00,
  0x08, 0x00, 0x04, 0x00, 0x0c, 0x00, 0x00, 0x00, 0x08, 0x00, 0x00, 0x00,
  0x10, 0x00, 0x00, 0x00, 0x01, 0x00, 0x00, 0x00, 0x80, 0xff, 0xff, 0xff,
  0xff, 0xff, 0xff, 0xff, 0x01, 0x00, 0x00, 0x00, 0x81, 0x80, 0x80, 0x3b,
  0x1f, 0x00, 0x00, 0x00, 0x73, 0x65, 0x72, 0x76, 0x69, 0x6e, 0x67, 0x5f,
  0x64, 0x65, 0x66, 0x61, 0x75, 0x6c, 0x74, 0x5f, 0x72, 0x65, 0x73, 0x68,
  0x61, 0x70, 0x65, 0x5f, 0x69, 0x6e, 0x70, 0x75, 0x74, 0x3a, 0x30, 0x00,
  0x03, 0x00, 0x00, 0x00, 0x01, 0x00, 0x00, 0x00, 0x14, 0x00, 0x00, 0x00,
  0x09, 0x00, 0x00, 0x00, 0x08, 0x00, 0x00, 0x00, 0x9c, 0x00, 0x00, 0x00,
  0x80, 0x00, 0x00, 0x00, 0x70, 0x00, 0x00, 0x00, 0x60, 0x00, 0x00, 0x00,
  0x4c, 0x00, 0x00, 0x00, 0x2c, 0x00, 0x00, 0x00, 0x18, 0x00, 0x00, 0x00,
  0x04, 0x00, 0x00, 0x00, 0xd0, 0xff, 0xff, 0xff, 0x19, 0x00, 0x00, 0x00,
  0x02, 0x00, 0x00, 0x00, 0x00, 0x00, 0x00, 0x19, 0xe0, 0xff, 0xff, 0xff,
  0x09, 0x00, 0x00, 0x00, 0x04, 0x00, 0x00, 0x00, 0x00, 0x00, 0x00, 0x09,
  0xf0, 0xff, 0xff, 0xff, 0x11, 0x00, 0x00, 0x00, 0x02, 0x00, 0x00, 0x00,
  0x00, 0x00, 0x00, 0x11, 0x0c, 0x00, 0x10, 0x00, 0x0f, 0x00, 0x00, 0x00,
  0x08, 0x00, 0x04, 0x00, 0x0c, 0x00, 0x00, 0x00, 0x03, 0x00, 0x00, 0x00,
  0x03, 0x00, 0x00, 0x00, 0x00, 0x00, 0x00, 0x03, 0xdc, 0xff, 0xff, 0xff,
  0x16, 0x00, 0x00, 0x00, 0x00, 0x00, 0x00, 0x16, 0xe8, 0xff, 0xff, 0xff,
  0x53, 0x00, 0x00, 0x00, 0x00, 0x00, 0x00, 0x53, 0xf4, 0xff, 0xff, 0xff,
  0x2d, 0x00, 0x00, 0x00, 0x00, 0x00, 0x00, 0x2d, 0x0c, 0x00, 0x0c, 0x00,
  0x0b, 0x00, 0x00, 0x00, 0x00, 0x00, 0x04, 0x00, 0x0c, 0x00, 0x00, 0x00,
  0x4d, 0x00, 0x00, 0x00, 0x00, 0x00, 0x00, 0x4d
};
unsigned int model_len = 10208;
