unsigned char model[] = {
  0x20, 0x00, 0x00, 0x00, 0x54, 0x46, 0x4c, 0x33, 0x00, 0x00, 0x00, 0x00,
  0x14, 0x00, 0x20, 0x00, 0x1c, 0x00, 0x18, 0x00, 0x14, 0x00, 0x10, 0x00,
  0x0c, 0x00, 0x00, 0x00, 0x08, 0x00, 0x04, 0x00, 0x14, 0x00, 0x00, 0x00,
  0x1c, 0x00, 0x00, 0x00, 0x88, 0x00, 0x00, 0x00, 0xe0, 0x00, 0x00, 0x00,
  0x98, 0x0d, 0x00, 0x00, 0xa8, 0x0d, 0x00, 0x00, 0x7c, 0x1f, 0x00, 0x00,
  0x03, 0x00, 0x00, 0x00, 0x01, 0x00, 0x00, 0x00, 0x04, 0x00, 0x00, 0x00,
  0xa2, 0xf0, 0xff, 0xff, 0x0c, 0x00, 0x00, 0x00, 0x1c, 0x00, 0x00, 0x00,
  0x38, 0x00, 0x00, 0x00, 0x0f, 0x00, 0x00, 0x00, 0x73, 0x65, 0x72, 0x76,
  0x69, 0x6e, 0x67, 0x5f, 0x64, 0x65, 0x66, 0x61, 0x75, 0x6c, 0x74, 0x00,
  0x01, 0x00, 0x00, 0x00, 0x04, 0x00, 0x00, 0x00, 0x94, 0xff, 0xff, 0xff,
  0x16, 0x00, 0x00, 0x00, 0x04, 0x00, 0x00, 0x00, 0x05, 0x00, 0x00, 0x00,
  0x64, 0x65, 0x6e, 0x73, 0x65, 0x00, 0x00, 0x00, 0x01, 0x00, 0x00, 0x00,
  0x04, 0x00, 0x00, 0x00, 0xa6, 0xf0, 0xff, 0xff, 0x04, 0x00, 0x00, 0x00,
  0x0d, 0x00, 0x00, 0x00, 0x72, 0x65, 0x73, 0x68, 0x61, 0x70, 0x65, 0x5f,
  0x69, 0x6e, 0x70, 0x75, 0x74, 0x00, 0x00, 0x00, 0x02, 0x00, 0x00, 0x00,
  0x34, 0x00, 0x00, 0x00, 0x04, 0x00, 0x00, 0x00, 0xdc, 0xff, 0xff, 0xff,
  0x19, 0x00, 0x00, 0x00, 0x04, 0x00, 0x00, 0x00, 0x13, 0x00, 0x00, 0x00,
  0x43, 0x4f, 0x4e, 0x56, 0x45, 0x52, 0x53, 0x49, 0x4f, 0x4e, 0x5f, 0x4d,
  0x45, 0x54, 0x41, 0x44, 0x41, 0x54, 0x41, 0x00, 0x08, 0x00, 0x0c, 0x00,
  0x08, 0x00, 0x04, 0x00, 0x08, 0x00, 0x00, 0x00, 0x18, 0x00, 0x00, 0x00,
  0x04, 0x00, 0x00, 0x00, 0x13, 0x00, 0x00, 0x00, 0x6d, 0x69, 0x6e, 0x5f,
  0x72, 0x75, 0x6e, 0x74, 0x69, 0x6d, 0x65, 0x5f, 0x76, 0x65, 0x72, 0x73,
  0x69, 0x6f, 0x6e, 0x00, 0x1a, 0x00, 0x00, 0x00, 0xb4, 0x0c, 0x00, 0x00,
  0xac, 0x0c, 0x00, 0x00, 0x98, 0x0c, 0x00, 0x00, 0x84, 0x0c, 0x00, 0x00,
  0x7c, 0x0c, 0x00, 0x00, 0x68, 0x0c, 0x00, 0x00, 0x54, 0x0c, 0x00, 0x00,
  0x3c, 0x0c, 0x00, 0x00, 0x7c, 0x0a, 0x00, 0x00, 0x2c, 0x0a, 0x00, 0x00,
  0x1c, 0x04, 0x00, 0x00, 0x8c, 0x03, 0x00, 0x00, 0xfc, 0x00, 0x00, 0x00,
  0xdc, 0x00, 0x00, 0x00, 0xd4, 0x00, 0x00, 0x00, 0xcc, 0x00, 0x00, 0x00,
  0xc4, 0x00, 0x00, 0x00, 0xbc, 0x00, 0x00, 0x00, 0xb4, 0x00, 0x00, 0x00,
  0xac, 0x00, 0x00, 0x00, 0xa4, 0x00, 0x00, 0x00, 0x9c, 0x00, 0x00, 0x00,
  0x94, 0x00, 0x00, 0x00, 0x8c, 0x00, 0x00, 0x00, 0x6c, 0x00, 0x00, 0x00,
  0x04, 0x00, 0x00, 0x00, 0x8a, 0xf1, 0xff, 0xff, 0x04, 0x00, 0x00, 0x00,
  0x58, 0x00, 0x00, 0x00, 0x0c, 0x00, 0x00, 0x00, 0x08, 0x00, 0x0e, 0x00,
  0x08, 0x00, 0x04, 0x00, 0x08, 0x00, 0x00, 0x00, 0x10, 0x00, 0x00, 0x00,
  0x28, 0x00, 0x00, 0x00, 0x00, 0x00, 0x06, 0x00, 0x08, 0x00, 0x04, 0x00,
  0x06, 0x00, 0x00, 0x00, 0x04, 0x00, 0x00, 0x00, 0x01, 0x00, 0x00, 0x00,
  0xeb, 0x03, 0x00, 0x00, 0x00, 0x00, 0x0a, 0x00, 0x10, 0x00, 0x0c, 0x00,
  0x08, 0x00, 0x04, 0x00, 0x0a, 0x00, 0x00, 0x00, 0x01, 0x00, 0x00, 0x00,
  0x02, 0x00, 0x00, 0x00, 0x04, 0x00, 0x00, 0x00, 0x05, 0x00, 0x00, 0x00,
  0x32, 0x2e, 0x39, 0x2e, 0x30, 0x00, 0x00, 0x00, 0xee, 0xf1, 0xff, 0xff,
  0x04, 0x00, 0x00, 0x00, 0x10, 0x00, 0x00, 0x00, 0x31, 0x2e, 0x31, 0x34,
  0x2e, 0x30, 0x00, 0x00, 0x00, 0x00, 0x00, 0x00, 0x00, 0x00, 0x00, 0x00,
  0x20, 0xe3, 0xff, 0xff, 0x24, 0xe3, 0xff, 0xff, 0x28, 0xe3, 0xff, 0xff,
  0x2c, 0xe3, 0xff, 0xff, 0x30, 0xe3, 0xff, 0xff, 0x34, 0xe3, 0xff, 0xff,
  0x38, 0xe3, 0xff, 0xff, 0x3c, 0xe3, 0xff, 0xff, 0x40, 0xe3, 0xff, 0xff,
  0x44, 0xe3, 0xff, 0xff, 0x32, 0xf2, 0xff, 0xff, 0x04, 0x00, 0x00, 0x00,
  0x10, 0x00, 0x00, 0x00, 0x96, 0x01, 0x00, 0x00, 0x77, 0x00, 0x00, 0x00,
  0xd9, 0xfc, 0xff, 0xff, 0x4e, 0x00, 0x00, 0x00, 0x4e, 0xf2, 0xff, 0xff,
  0x04, 0x00, 0x00, 0x00, 0x80, 0x02, 0x00, 0x00, 0xdb, 0xf6, 0xf0, 0xd9,
  0xcd, 0xf2, 0x09, 0xe2, 0xf2, 0xd6, 0x03, 0xf1, 0x0e, 0x07, 0xe4, 0xfb,
  0x0b, 0xf3, 0xe2, 0xe6, 0x09, 0x0a, 0xf1, 0xe1, 0xea, 0x15, 0x12, 0x17,
  0xfb, 0x0c, 0x12, 0x0a, 0xde, 0x08, 0x0b, 0xee, 0xd5, 0xfb, 0xfd, 0xf7,
  0xef, 0xf3, 0xf8, 0xf6, 0x14, 0xf8, 0xfb, 0x08, 0x0c, 0x07, 0xed, 0xff,
  0x0d, 0xf7, 0x02, 0xef, 0xf6, 0x02, 0x07, 0x1b, 0x02, 0x14, 0x0d, 0x0b,
  0xe7, 0x0a, 0x07, 0xf4, 0xc8, 0xf4, 0x06, 0xf0, 0xfe, 0xf1, 0xff, 0x03,
  0x14, 0xf1, 0xf5, 0x0d, 0xff, 0x0d, 0xe0, 0xf6, 0x02, 0xfb, 0xfe, 0x01,
  0xfe, 0x0e, 0x11, 0x09, 0x08, 0xfb, 0x0b, 0x01, 0xf5, 0x05, 0x07, 0xf1,
  0xe3, 0xf5, 0x1f, 0x0a, 0x05, 0xfe, 0x17, 0x02, 0xfc, 0x02, 0x0e, 0xf6,
  0xf6, 0x01, 0xd7, 0xf2, 0xfa, 0x06, 0xfd, 0xf8, 0x08, 0x12, 0x0d, 0x00,
  0xfc, 0x00, 0x11, 0x08, 0xef, 0xff, 0x07, 0xf6, 0xf5, 0x0b, 0x1b, 0x16,
  0xfe, 0xf0, 0x00, 0x0f, 0xfa, 0xf5, 0x00, 0xf4, 0x03, 0x08, 0xaf, 0xfa,
  0x0c, 0x05, 0xfd, 0x12, 0xfb, 0xec, 0xf5, 0x05, 0x0e, 0x01, 0xfb, 0xfb,
  0x21, 0xf6, 0x0c, 0x10, 0x34, 0x00, 0xdb, 0x03, 0x0d, 0x09, 0xda, 0x1b,
  0xb4, 0x08, 0x09, 0xfa, 0x1b, 0x0e, 0xf5, 0xfe, 0xfb, 0x05, 0x1e, 0x01,
  0x15, 0xa9, 0xe5, 0xaa, 0xf2, 0x03, 0x9b, 0x93, 0x1d, 0x00, 0xf8, 0x03,
  0x32, 0xf4, 0xe4, 0x04, 0x03, 0x0c, 0xe1, 0x1c, 0xbd, 0x06, 0xfd, 0x06,
  0x1b, 0x02, 0xf2, 0x07, 0x0d, 0xff, 0x03, 0x04, 0x0e, 0x8f, 0xf6, 0xae,
  0xf3, 0xf6, 0xa9, 0xa3, 0x29, 0x09, 0xf3, 0xeb, 0x3e, 0x0b, 0xcc, 0xf8,
  0x07, 0xfb, 0xcd, 0x25, 0xce, 0xf1, 0xe3, 0x0c, 0x22, 0xfb, 0xfd, 0xf2,
  0x0d, 0x02, 0x17, 0x0a, 0x0a, 0x9e, 0x07, 0xba, 0x0c, 0x00, 0xb1, 0xa9,
  0x13, 0xf8, 0xf9, 0xfa, 0x24, 0xf5, 0xd4, 0xed, 0xef, 0xf5, 0xd1, 0x23,
  0xe5, 0x01, 0xdb, 0x0d, 0x1a, 0x03, 0xfd, 0xe8, 0x00, 0x00, 0x0a, 0x07,
  0xf7, 0xab, 0x05, 0xca, 0x02, 0x03, 0xba, 0xc1, 0x22, 0x0b, 0x0d, 0xf0,
  0x3c, 0xf2, 0xba, 0xf1, 0xfd, 0xe4, 0xcd, 0x30, 0xe3, 0x09, 0xe4, 0xf6,
  0x3a, 0xf6, 0xf2, 0xe3, 0x0b, 0xf5, 0x0d, 0x0b, 0xfe, 0xa4, 0x0d, 0xdb,
  0xf1, 0x2a, 0xe4, 0xb9, 0x08, 0x08, 0xf5, 0x19, 0x00, 0x03, 0x26, 0x11,
  0x0c, 0x21, 0x12, 0xe1, 0xd9, 0x01, 0x20, 0xf8, 0xed, 0x00, 0x61, 0x10,
  0x04, 0x0b, 0xfb, 0x17, 0x17, 0xe1, 0xce, 0xcc, 0xfc, 0xd1, 0xcd, 0xcd,
  0xfc, 0xf1, 0x0a, 0x15, 0x02, 0xf7, 0x16, 0x0b, 0x07, 0x0f, 0x24, 0xe0,
  0xf1, 0xfc, 0x0c, 0x00, 0xf3, 0xfa, 0x57, 0x18, 0x06, 0xfe, 0x02, 0x0f,
  0xfd, 0xfb, 0xd7, 0xe0, 0x00, 0xe4, 0xed, 0xe5, 0xfa, 0xfb, 0xfe, 0x1c,
  0xff, 0x07, 0x23, 0x0e, 0x0c, 0x1c, 0x18, 0xf6, 0xe8, 0xfe, 0x1b, 0x0e,
  0xec, 0x0b, 0x6d, 0x0a, 0xf8, 0xff, 0x08, 0x14, 0x0a, 0xf3, 0xce, 0xe1,
  0xf1, 0xce, 0xe3, 0xe2, 0xfe, 0xfe, 0x08, 0x17, 0x03, 0xfc, 0x24, 0x02,
  0x19, 0x22, 0x21, 0xde, 0xf0, 0x09, 0x16, 0x02, 0xf6, 0x09, 0x64, 0x24,
  0x06, 0x0d, 0x06, 0x17, 0x13, 0xea, 0xc4, 0xe9, 0x0a, 0xe1, 0xdb, 0xe1,
  0x11, 0x04, 0xf9, 0x1e, 0xf8, 0xf9, 0x26, 0x14, 0x11, 0x12, 0x36, 0xd7,
  0xda, 0x0d, 0x1a, 0x09, 0xcd, 0xf4, 0x6f, 0x27, 0x07, 0xfb, 0xf9, 0x14,
  0x12, 0xef, 0xae, 0xc8, 0xfb, 0xc0, 0xce, 0xd5, 0x85, 0xf8, 0xf9, 0xdf,
  0x90, 0x07, 0xe5, 0xfa, 0xe3, 0xc5, 0xdc, 0xec, 0x0a, 0x09, 0xfb, 0x0a,
  0xfb, 0xfa, 0x0a, 0xda, 0xfd, 0x06, 0xeb, 0x9e, 0xbd, 0x16, 0x10, 0x12,
  0x06, 0x05, 0x15, 0x0a, 0x92, 0xf8, 0xfe, 0xe3, 0x9b, 0xf6, 0xd5, 0xf7,
  0xea, 0xd3, 0xca, 0xe7, 0xf3, 0xfd, 0xf1, 0x07, 0xdf, 0xf9, 0x07, 0xc5,
  0xf7, 0xf9, 0xfe, 0xb1, 0xcd, 0x0c, 0xf8, 0x04, 0xf1, 0x04, 0x13, 0x0f,
  0xa9, 0x05, 0xfe, 0xd5, 0xb0, 0xff, 0xdd, 0xee, 0xd9, 0xca, 0xc8, 0xf6,
  0x0e, 0x0d, 0xeb, 0xf3, 0xf4, 0xf9, 0x0c, 0xc5, 0xfb, 0x00, 0xee, 0xb8,
  0xce, 0x1a, 0xfc, 0x06, 0x0a, 0x0a, 0x16, 0x16, 0x82, 0xfd, 0xfc, 0xce,
  0x95, 0xf6, 0xda, 0xe3, 0xcd, 0xd4, 0xbf, 0xe2, 0x11, 0x03, 0xe5, 0xfc,
  0xe9, 0x08, 0x24, 0xd1, 0x05, 0x08, 0xee, 0x9a, 0xbe, 0x10, 0x12, 0x0d,
  0xfe, 0x0a, 0x01, 0x12, 0x8b, 0x07, 0xfd, 0xd8, 0x83, 0xf6, 0xcc, 0xbf,
  0xbc, 0xc6, 0xcc, 0xdc, 0x1a, 0x06, 0xdf, 0x0d, 0xec, 0xf6, 0x4a, 0xcf,
  0x0e, 0x07, 0xce, 0x81, 0xc3, 0x29, 0x0b, 0x20, 0x00, 0x07, 0x12, 0x21,
  0xda, 0xf4, 0xff, 0xff, 0x04, 0x00, 0x00, 0x00, 0x80, 0x00, 0x00, 0x00,
  0x12, 0x02, 0x00, 0x00, 0x3d, 0xf1, 0xff, 0xff, 0xf0, 0xec, 0xff, 0xff,
  0x45, 0xf9, 0xff, 0xff, 0x98, 0x00, 0x00, 0x00, 0x00, 0x00, 0x00, 0x00,
  0x4e, 0x07, 0x00, 0x00, 0x03, 0x08, 0x00, 0x00, 0x6e, 0xfd, 0xff, 0xff,
  0x53, 0xfd, 0xff, 0xff, 0xbd, 0xfc, 0xff, 0xff, 0x8b, 0x0d, 0x00, 0x00,
  0x53, 0x06, 0x00, 0x00, 0xf4, 0xfc, 0xff, 0xff, 0x42, 0x02, 0x00, 0x00,
  0x00, 0x00, 0x00, 0x00, 0xb8, 0x12, 0x00, 0x00, 0x03, 0xef, 0xff, 0xff,
  0x34, 0xff, 0xff, 0xff, 0x97, 0xfc, 0xff, 0xff, 0x08, 0xf5, 0xff, 0xff,
  0x09, 0x01, 0x00, 0x00, 0x79, 0xff, 0xff, 0xff, 0x01, 0xfc, 0xff, 0xff,
  0x54, 0xfc, 0xff, 0xff, 0xa4, 0x04, 0x00, 0x00, 0xa3, 0x0e, 0x00, 0x00,
  0x39, 0x0b, 0x00, 0x00, 0xb1, 0xe0, 0xff, 0xff, 0x92, 0x1a, 0x00, 0x00,
  0x76, 0x10, 0x00, 0x00, 0x43, 0x0d, 0x00, 0x00, 0x66, 0xf5, 0xff, 0xff,
  0x04, 0x00, 0x00, 0x00, 0x00, 0x06, 0x00, 0x00, 0xe9, 0x09, 0x1f, 0xda,
  0x1d, 0xf8, 0x11, 0xf2, 0xe9, 0xf4, 0x1c, 0xd9, 0xfc, 0x27, 0xfb, 0x02,
  0xea, 0xf4, 0x97, 0x09, 0x1c, 0xed, 0x7f, 0x53, 0xd5, 0x10, 0x18, 0xb1,
  0xb3, 0x8c, 0x67, 0xf2, 0xfe, 0x1d, 0xe5, 0x24, 0x08, 0xdb, 0x11, 0x22,
  0xfb, 0xe2, 0xeb, 0xe1, 0x1a, 0xf2, 0x14, 0x06, 0x8f, 0x64, 0x54, 0xb4,
  0x27, 0x88, 0x52, 0x69, 0xa4, 0x56, 0x92, 0x74, 0x0e, 0x35, 0xc4, 0x17,
  0xe4, 0xc7, 0x58, 0x96, 0x6e, 0xa8, 0xdc, 0xa0, 0x34, 0x81, 0xa5, 0x34,
  0xcc, 0x34, 0x18, 0x59, 0xe9, 0x3b, 0xb4, 0x66, 0x87, 0x4a, 0xd1, 0x66,
  0x6b, 0x8d, 0x78, 0x86, 0xe5, 0x47, 0x6a, 0xa5, 0xf3, 0xec, 0x27, 0x13,
  0x90, 0xb7, 0x87, 0x43, 0xaa, 0x1a, 0x57, 0x6f, 0x02, 0xc9, 0x96, 0x94,
  0xc6, 0xad, 0x31, 0xce, 0x22, 0xb3, 0x5e, 0xd5, 0xf7, 0x20, 0x63, 0xf3,
  0x94, 0x0b, 0xe6, 0x2a, 0x08, 0x71, 0x20, 0x61, 0x1d, 0x57, 0xf7, 0x2d,
  0x7f, 0x07, 0x00, 0x96, 0x1d, 0xb3, 0x54, 0x75, 0x17, 0x1b, 0xea, 0xd4,
  0x06, 0x20, 0x0e, 0xf4, 0xf2, 0xed, 0x0c, 0xdb, 0x2d, 0x32, 0x0b, 0x11,
  0xe0, 0x96, 0x0c, 0xa3, 0x2e, 0x1d, 0x16, 0x1d, 0x81, 0xd4, 0x43, 0x4f,
  0x33, 0x58, 0x4d, 0xcf, 0x1e, 0xd1, 0xea, 0xe7, 0x16, 0x19, 0x2b, 0x1a,
  0x0d, 0xd4, 0x2a, 0xee, 0x2e, 0xdf, 0xf0, 0xf1, 0x07, 0xfb, 0xdc, 0x26,
  0xf2, 0xe4, 0x19, 0x12, 0xfc, 0x0d, 0xe7, 0x00, 0xee, 0x19, 0x16, 0xec,
  0x1e, 0xda, 0x81, 0x22, 0xe9, 0xee, 0x5b, 0x58, 0xcb, 0x37, 0xee, 0x84,
  0xb3, 0x89, 0x68, 0xe8, 0xeb, 0xf7, 0xf5, 0x22, 0x1c, 0xff, 0xe9, 0xfa,
  0x02, 0x10, 0x09, 0x20, 0xe3, 0x14, 0xff, 0xe3, 0x20, 0xb1, 0x29, 0x56,
  0xf5, 0x5e, 0x18, 0xf8, 0xf7, 0x46, 0x5e, 0xf7, 0x7e, 0x1d, 0x64, 0xac,
  0x93, 0x13, 0xe8, 0xfa, 0xf5, 0xa9, 0x9c, 0xca, 0x89, 0x4f, 0x50, 0x39,
  0xb8, 0xe3, 0xf6, 0xac, 0xd4, 0x47, 0xae, 0xdd, 0x07, 0xae, 0x9c, 0x19,
  0x6a, 0x81, 0x4a, 0xd2, 0x98, 0x55, 0x31, 0x5e, 0x06, 0x1e, 0x21, 0x23,
  0x1b, 0x22, 0xdb, 0xdc, 0x17, 0x0c, 0x16, 0xff, 0xdc, 0xe8, 0x08, 0xe0,
  0xeb, 0x15, 0x82, 0xb9, 0x01, 0xef, 0xf4, 0x1d, 0xf1, 0xae, 0x47, 0x7f,
  0x37, 0x7f, 0xe5, 0x1a, 0xde, 0xe1, 0x17, 0xdf, 0x14, 0x05, 0x23, 0x0e,
  0x1d, 0xed, 0xeb, 0x0f, 0xe2, 0xff, 0xe6, 0xe1, 0x0e, 0xf5, 0xf2, 0xe0,
  0xdb, 0xee, 0xe0, 0x20, 0x10, 0x05, 0x04, 0x13, 0x16, 0x0c, 0xfd, 0xfa,
  0xfd, 0xdd, 0x81, 0xf7, 0xe8, 0x0c, 0x36, 0x3e, 0xfb, 0xef, 0x33, 0x2d,
  0xe2, 0x50, 0x2f, 0xfb, 0x18, 0xdc, 0x23, 0x15, 0xee, 0xfe, 0xf4, 0xff,
  0x1c, 0xe8, 0xdd, 0xed, 0x23, 0x1b, 0xfc, 0x26, 0xf4, 0x1f, 0x0c, 0x16,
  0xe5, 0x1b, 0xe4, 0xe9, 0xf4, 0x12, 0x1b, 0xfd, 0xe5, 0xea, 0xe8, 0x13,
  0x01, 0xff, 0x8c, 0xe5, 0x12, 0xf3, 0x7f, 0x25, 0xdc, 0xf5, 0x43, 0x42,
  0xfd, 0x31, 0x4f, 0x10, 0xee, 0xef, 0xf9, 0xe3, 0xf2, 0xe7, 0x02, 0xf4,
  0x09, 0x0b, 0x21, 0xe5, 0xf5, 0xec, 0x1f, 0x05, 0xd0, 0xe4, 0xf1, 0x31,
  0x04, 0x16, 0xe5, 0xfe, 0x0a, 0x13, 0xee, 0xd5, 0x16, 0x08, 0x00, 0xdf,
  0x02, 0x83, 0xf9, 0xa6, 0xdd, 0xe0, 0x52, 0x45, 0x81, 0xa0, 0x2e, 0x6e,
  0x2b, 0x4c, 0x57, 0xfb, 0x2d, 0x29, 0xd4, 0xef, 0x01, 0xef, 0x25, 0x07,
  0x01, 0x09, 0x23, 0xde, 0xd8, 0xdb, 0xf3, 0x13, 0xf0, 0x19, 0xff, 0x00,
  0xe4, 0x06, 0x06, 0xe6, 0xee, 0xe4, 0x09, 0xfb, 0x09, 0x01, 0xe4, 0x1b,
  0xf4, 0x27, 0x81, 0xd2, 0xf7, 0xef, 0xec, 0x23, 0xd9, 0xbe, 0x3a, 0x63,
  0x1c, 0x66, 0xf7, 0xe5, 0xed, 0xe4, 0xf7, 0x13, 0xf4, 0xeb, 0x09, 0x13,
  0xf8, 0x07, 0xef, 0xe6, 0xe4, 0x0f, 0x06, 0x16, 0xfb, 0xf3, 0x01, 0x13,
  0x09, 0xff, 0x0a, 0x0f, 0x07, 0x02, 0x07, 0x0b, 0x04, 0xef, 0xf6, 0xfd,
  0x0f, 0xf0, 0x81, 0x1d, 0x05, 0xed, 0x2e, 0x20, 0x0d, 0x35, 0xfa, 0xd3,
  0xed, 0xcb, 0x1e, 0x09, 0xfc, 0x07, 0x05, 0xf5, 0xf1, 0xfa, 0xf6, 0x0a,
  0xfb, 0x10, 0xfb, 0xff, 0x0b, 0x03, 0xf9, 0x07, 0x08, 0xf1, 0x01, 0xfe,
  0xf5, 0xf8, 0x03, 0x0a, 0xfa, 0x10, 0x05, 0x01, 0x06, 0x02, 0x07, 0x0a,
  0x01, 0x3c, 0x7f, 0x17, 0xf2, 0xf9, 0xed, 0xef, 0x31, 0x0b, 0xf8, 0x0b,
  0x0c, 0x25, 0xec, 0x01, 0x00, 0xf7, 0x11, 0xf9, 0xf6, 0x08, 0xf1, 0xf3,
  0xf5, 0x05, 0xfd, 0x00, 0xf3, 0x02, 0x04, 0xf6, 0x61, 0x9c, 0x89, 0xf0,
  0x61, 0x29, 0xf7, 0x48, 0x92, 0x41, 0xf1, 0x34, 0x6f, 0xff, 0x86, 0xe7,
  0xb1, 0xfa, 0xb9, 0x27, 0xb4, 0xd3, 0xdb, 0xaf, 0xdc, 0x9b, 0xb4, 0xcd,
  0x69, 0xa5, 0xfa, 0xa3, 0x7f, 0xbd, 0x96, 0x22, 0x1b, 0x79, 0x67, 0xbc,
  0x8a, 0x46, 0x9e, 0x2e, 0xa0, 0x6b, 0xb9, 0xb5, 0x14, 0xff, 0xef, 0x1c,
  0xff, 0x0a, 0xf6, 0xe8, 0xfd, 0xec, 0x14, 0xf2, 0x15, 0x24, 0xd9, 0xe4,
  0xfa, 0xec, 0xcb, 0xa2, 0x0f, 0xf5, 0x08, 0x1e, 0xaa, 0xab, 0x37, 0x78,
  0x4d, 0x7f, 0x32, 0x10, 0x25, 0x05, 0x11, 0x00, 0x16, 0xf7, 0xf5, 0xe9,
  0xdb, 0xd8, 0xfa, 0x09, 0x0a, 0x19, 0x07, 0x03, 0xdf, 0xd7, 0x79, 0x93,
  0xf1, 0x79, 0xe4, 0x17, 0x51, 0xfd, 0x65, 0xfe, 0x27, 0x62, 0x51, 0x8e,
  0x35, 0xb8, 0xbc, 0xf9, 0xe1, 0x1d, 0x40, 0xaa, 0xea, 0x1e, 0x54, 0xe7,
  0xb4, 0x48, 0x99, 0x05, 0xab, 0x75, 0xe0, 0xb3, 0x3d, 0x8f, 0x65, 0x35,
  0x8c, 0x56, 0xd0, 0x29, 0x5f, 0xdc, 0x0d, 0x7f, 0x12, 0xec, 0xf5, 0x05,
  0x1b, 0xf5, 0x1b, 0x1a, 0x13, 0x09, 0xe2, 0x1c, 0xf5, 0xe6, 0x01, 0x0a,
  0xef, 0x12, 0x81, 0x32, 0xf9, 0xf0, 0x31, 0x30, 0x0b, 0x49, 0xe4, 0xab,
  0xe2, 0xb9, 0x38, 0x03, 0xec, 0x04, 0x14, 0xfb, 0xef, 0xe5, 0x19, 0x1e,
  0xf5, 0x1c, 0xe3, 0x12, 0xf7, 0x15, 0xeb, 0x05, 0xc3, 0xa5, 0xef, 0x1a,
  0x94, 0x99, 0x1a, 0x21, 0x97, 0x26, 0xf0, 0xee, 0xba, 0x09, 0xb7, 0x28,
  0x3b, 0x59, 0x5b, 0xc7, 0xe9, 0x00, 0xd1, 0xb4, 0xf4, 0x03, 0x9e, 0xd8,
  0x81, 0xc0, 0x06, 0x3d, 0x4e, 0xf8, 0x31, 0xca, 0xe4, 0x8e, 0x12, 0xad,
  0x6e, 0xf4, 0xe7, 0xd2, 0xdf, 0xe2, 0xcf, 0x28, 0xff, 0x06, 0xfa, 0x0c,
  0xf9, 0xf3, 0x00, 0xf7, 0x00, 0x0b, 0xf8, 0x07, 0x02, 0x04, 0xf9, 0x0d,
  0x06, 0x0d, 0x7f, 0x04, 0xf6, 0xf7, 0xed, 0xde, 0x0c, 0x04, 0xfa, 0x1a,
  0x23, 0x09, 0xef, 0x0a, 0x08, 0x03, 0x0b, 0xf6, 0xfc, 0xfb, 0x04, 0x02,
  0xfe, 0xf5, 0xf3, 0x0c, 0x0b, 0x02, 0xf4, 0x01, 0xe9, 0xf6, 0xe1, 0x12,
  0x13, 0x0b, 0x15, 0xe7, 0xea, 0xf1, 0xf8, 0xe6, 0x1f, 0x1e, 0xed, 0xdb,
  0xeb, 0xa2, 0xe1, 0xa5, 0x07, 0xf3, 0xf1, 0x2d, 0x95, 0xb3, 0x3b, 0x7f,
  0x32, 0x55, 0x34, 0xe8, 0x10, 0xf3, 0xe1, 0xe4, 0x1b, 0x23, 0xf9, 0x23,
  0x18, 0xdb, 0xf5, 0xea, 0xf9, 0x0a, 0x17, 0xe3, 0xa2, 0xb5, 0x2d, 0x35,
  0xf4, 0x81, 0x47, 0x99, 0x99, 0x8f, 0x34, 0xe1, 0xdc, 0xe3, 0x6a, 0x31,
  0x9f, 0xe0, 0x4c, 0xee, 0xd9, 0xcb, 0xbe, 0x95, 0x65, 0x8f, 0x73, 0xb7,
  0xd6, 0xe4, 0x82, 0x14, 0xa6, 0x2c, 0xab, 0x32, 0x74, 0x70, 0x56, 0xed,
  0xe3, 0xab, 0x62, 0x9e, 0xcd, 0x9d, 0x44, 0xa9, 0x92, 0xe0, 0x70, 0x8c,
  0xa8, 0xdf, 0x9a, 0xf8, 0x8b, 0xd0, 0x4b, 0x72, 0x21, 0x64, 0x1f, 0xe2,
  0x76, 0xb9, 0xb8, 0x99, 0x66, 0x81, 0x28, 0xc4, 0x3d, 0xb9, 0xc1, 0x61,
  0xa0, 0x2a, 0x94, 0x5d, 0xa2, 0x91, 0xa5, 0x03, 0x9b, 0xd9, 0x3b, 0x7e,
  0x87, 0xd1, 0x87, 0xc1, 0xcb, 0x42, 0xf6, 0xa2, 0x19, 0xef, 0x12, 0x1a,
  0xe6, 0xf7, 0x08, 0x04, 0x11, 0x17, 0xe6, 0x1b, 0x0e, 0x1a, 0x0c, 0xfc,
  0x01, 0x06, 0x81, 0x0f, 0xf2, 0xf9, 0x17, 0x22, 0xfa, 0x12, 0x12, 0xb8,
  0xc6, 0xfa, 0x36, 0xf2, 0x0d, 0x11, 0xf9, 0x04, 0x0a, 0xfb, 0x16, 0x09,
  0x1a, 0xf5, 0x15, 0xff, 0xf9, 0x1c, 0xe7, 0x1f, 0x13, 0x18, 0x0d, 0x20,
  0xed, 0x16, 0xe4, 0xf3, 0x0d, 0x0f, 0xf5, 0xf5, 0xf1, 0xe0, 0x02, 0xe9,
  0xf7, 0x04, 0xbe, 0x04, 0x1d, 0x1c, 0x7f, 0x35, 0xdb, 0xf6, 0x1d, 0x06,
  0xc9, 0xf3, 0x1c, 0xea, 0x13, 0x10, 0xe6, 0x0b, 0x01, 0x02, 0xf5, 0x0a,
  0x10, 0x1b, 0xfb, 0x06, 0x0b, 0x04, 0xf0, 0xe2, 0x08, 0xda, 0xe7, 0xfb,
  0x22, 0x13, 0x2e, 0xe4, 0xd4, 0xdf, 0x1b, 0x14, 0x1d, 0x2c, 0xd7, 0xf5,
  0xdf, 0x1b, 0xca, 0xd4, 0xfe, 0x2f, 0x6f, 0x7f, 0xe4, 0xa9, 0x67, 0x44,
  0x16, 0xd1, 0x64, 0xf4, 0xe4, 0xe4, 0x06, 0x08, 0xd5, 0x20, 0xf4, 0xeb,
  0xd5, 0x18, 0x08, 0x0d, 0x27, 0xea, 0x12, 0x27, 0x03, 0x04, 0x05, 0x0f,
  0x09, 0xfc, 0x01, 0x09, 0xf2, 0x0b, 0xfa, 0xf8, 0x10, 0x08, 0x0f, 0x0b,
  0xf3, 0x16, 0x7f, 0x18, 0xf9, 0xff, 0xe0, 0x01, 0x1e, 0xf9, 0xf4, 0x23,
  0x14, 0x3a, 0xda, 0x0f, 0x00, 0xf6, 0xfd, 0xf9, 0xfb, 0x0c, 0x10, 0x07,
  0xf7, 0xfa, 0x04, 0xfa, 0xff, 0x04, 0x03, 0xfd, 0x0b, 0x11, 0x0b, 0x09,
  0xee, 0xf9, 0x04, 0xf2, 0x02, 0x03, 0xed, 0x0c, 0x07, 0x11, 0x0f, 0xf7,
  0x01, 0x2a, 0x7f, 0x3c, 0xef, 0x12, 0xfb, 0xf7, 0x44, 0x0f, 0xe6, 0xdb,
  0x03, 0xf6, 0x01, 0x04, 0xf5, 0x00, 0x04, 0x01, 0xff, 0x00, 0x12, 0x0d,
  0xef, 0x08, 0x07, 0x0a, 0x09, 0xfe, 0xee, 0xf5, 0x10, 0x09, 0xfb, 0x11,
  0xff, 0xf1, 0x0d, 0xfa, 0xf4, 0x02, 0x0d, 0xfc, 0x0c, 0xff, 0xf8, 0x09,
  0xf4, 0x4b, 0x7f, 0x38, 0xf6, 0xef, 0xe2, 0xe6, 0x50, 0x1a, 0xdc, 0x21,
  0x09, 0x3b, 0xdb, 0x07, 0xfe, 0xed, 0xfc, 0xfa, 0x03, 0xff, 0x0a, 0xed,
  0x06, 0x0f, 0xef, 0xfd, 0x02, 0x05, 0x07, 0x0d, 0x68, 0x34, 0xce, 0x35,
  0x55, 0x4e, 0xac, 0x02, 0xd2, 0x22, 0xaf, 0x82, 0xf8, 0xef, 0xfb, 0x6c,
  0x22, 0x28, 0xcf, 0xf8, 0x9f, 0xca, 0x8e, 0xb2, 0x0a, 0xe3, 0xa1, 0x01,
  0x86, 0x24, 0x3f, 0xf1, 0x46, 0xba, 0x17, 0x7f, 0xf1, 0x28, 0x2e, 0xb4,
  0xef, 0xaa, 0xd4, 0x2c, 0x73, 0x5d, 0x19, 0x8f, 0xf9, 0xef, 0xe3, 0x1b,
  0xec, 0xe6, 0x07, 0xef, 0xfd, 0xf0, 0x0f, 0xfe, 0x06, 0xf1, 0x03, 0xfa,
  0xf9, 0x1e, 0x7f, 0x56, 0xfe, 0x02, 0x19, 0x15, 0x4e, 0x54, 0xe0, 0xda,
  0xf0, 0xe3, 0xf0, 0x1d, 0x1e, 0xf6, 0xed, 0x18, 0x09, 0x18, 0x10, 0xf6,
  0xf7, 0x0c, 0x1e, 0xf6, 0xe8, 0x1d, 0x01, 0x16, 0xf9, 0x17, 0xef, 0xfb,
  0xfb, 0xe5, 0xe7, 0x02, 0x19, 0xed, 0xee, 0x00, 0x0a, 0x08, 0xee, 0xee,
  0xfd, 0x3f, 0x7f, 0x37, 0x18, 0x0d, 0xd6, 0xed, 0x64, 0x1a, 0xde, 0x2e,
  0x09, 0x4f, 0xc2, 0xe6, 0xfa, 0xff, 0xe5, 0x05, 0x1b, 0xf1, 0xec, 0x02,
  0xf1, 0x02, 0x16, 0x03, 0x0e, 0x1b, 0x0c, 0xeb, 0xf5, 0xe9, 0xfe, 0xf8,
  0x01, 0x03, 0x07, 0x06, 0xec, 0xf4, 0xec, 0x0b, 0x16, 0x0c, 0x0b, 0x0b,
  0x02, 0x2f, 0x7f, 0x1d, 0x02, 0xf2, 0xe7, 0xf6, 0x3a, 0x0a, 0xe7, 0x2b,
  0x0c, 0x42, 0xce, 0x03, 0x09, 0x07, 0x15, 0xfd, 0xfb, 0xe9, 0x08, 0x07,
  0xeb, 0x12, 0x02, 0xfb, 0xfc, 0xec, 0x0c, 0xf1, 0x72, 0xfb, 0xff, 0xff,
  0x04, 0x00, 0x00, 0x00, 0x40, 0x00, 0x00, 0x00, 0x76, 0xf0, 0xff, 0xff,
  0x95, 0x16, 0x00, 0x00, 0x8f, 0x00, 0x00, 0x00, 0xfc, 0x2b, 0x00, 0x00,
  0x00, 0x00, 0x00, 0x00, 0x00, 0x00, 0x00, 0x00, 0xb4, 0x02, 0x00, 0x00,
  0x8a, 0x01, 0x00, 0x00, 0x44, 0x19, 0x00, 0x00, 0x0b, 0x15, 0x00, 0x00,
  0x29, 0xe4, 0xff, 0xff, 0x90, 0xfd, 0xff, 0xff, 0x44, 0xf8, 0xff, 0xff,
  0x95, 0x01, 0x00, 0x00, 0xdb, 0xfd, 0xff, 0xff, 0x00, 0x00, 0x00, 0x00,
  0xbe, 0xfb, 0xff, 0xff, 0x04, 0x00, 0x00, 0x00, 0xb0, 0x01, 0x00, 0x00,
  0x0c, 0x54, 0xb4, 0x36, 0xf4, 0xc2, 0xd7, 0x0e, 0x84, 0x0a, 0x94, 0xcd,
  0x9a, 0x8b, 0xf5, 0x64, 0xf4, 0x4d, 0xb4, 0x8b, 0x3b, 0xd6, 0x7f, 0x4a,
  0xe6, 0x3f, 0x58, 0xcd, 0x44, 0xd4, 0xba, 0xc9, 0xc4, 0x43, 0x26, 0xc4,
  0xf3, 0xfc, 0x66, 0xcc, 0xd5, 0xde, 0xd0, 0x45, 0x7f, 0xdd, 0x22, 0xec,
  0xd2, 0x0b, 0xde, 0xf2, 0xe4, 0x37, 0xf9, 0xc1, 0xd3, 0xbf, 0x21, 0xbd,
  0xc3, 0xdb, 0x06, 0x3f, 0x22, 0xbd, 0xaa, 0xe9, 0x62, 0x81, 0x3b, 0x58,
  0xf8, 0xfa, 0xb9, 0x17, 0xbd, 0x3d, 0x10, 0x28, 0x0a, 0xc4, 0xc8, 0x0f,
  0xde, 0x3c, 0x30, 0xe1, 0xe3, 0xdf, 0xf7, 0xd1, 0x7b, 0x03, 0x76, 0x72,
  0xa6, 0xba, 0x7f, 0x05, 0x3e, 0xeb, 0x14, 0xb4, 0xaf, 0x2d, 0xf7, 0xe2,
  0x77, 0x93, 0xf4, 0x15, 0x75, 0xa3, 0x39, 0x57, 0xff, 0xa8, 0x83, 0x71,
  0x25, 0x85, 0x11, 0xea, 0xbf, 0x99, 0x58, 0x5d, 0xb7, 0x7f, 0xd2, 0x21,
  0x70, 0x78, 0x95, 0x50, 0x74, 0x0d, 0xd6, 0xd4, 0x8e, 0x5d, 0x32, 0xca,
  0xc2, 0x18, 0xd2, 0x1b, 0x2d, 0x0b, 0xd6, 0x19, 0x81, 0x63, 0x9e, 0xdf,
  0x10, 0x0a, 0xb6, 0xf9, 0x34, 0xc2, 0xf9, 0x07, 0xe7, 0xe5, 0xfc, 0x1e,
  0x22, 0x0f, 0xed, 0xd6, 0x26, 0x0b, 0xe7, 0x29, 0x22, 0x2e, 0x81, 0x1e,
  0x0d, 0xe5, 0xda, 0xd9, 0xeb, 0x06, 0xdc, 0x24, 0x25, 0x32, 0xf3, 0x06,
  0x2d, 0xd0, 0x31, 0xca, 0x23, 0xe9, 0xea, 0x3e, 0xd1, 0x43, 0x05, 0x3f,
  0x78, 0x81, 0x09, 0x2f, 0x1d, 0x34, 0xfd, 0xf5, 0x1d, 0xdd, 0xfe, 0xd6,
  0x08, 0x3f, 0x1f, 0x09, 0xc3, 0xf9, 0xfd, 0xf7, 0x03, 0x1d, 0x30, 0x69,
  0xdc, 0x36, 0x0b, 0x8b, 0x35, 0x7f, 0x2f, 0xc9, 0x19, 0xba, 0x25, 0xe2,
  0xdd, 0xea, 0x28, 0xfa, 0xeb, 0x14, 0xf5, 0xd4, 0xcc, 0xea, 0xe9, 0xcc,
  0x3c, 0x13, 0x42, 0xd5, 0x7f, 0x34, 0xe4, 0xad, 0xdf, 0xfa, 0x1d, 0xfa,
  0x34, 0xef, 0x17, 0xcf, 0xf4, 0x3a, 0xab, 0xb1, 0xfa, 0x49, 0x39, 0x37,
  0x22, 0x34, 0x32, 0xe8, 0xea, 0xb9, 0x08, 0xa4, 0x01, 0x7f, 0x57, 0xdd,
  0x39, 0xef, 0x47, 0xe5, 0x51, 0x48, 0xc4, 0x16, 0x23, 0x1e, 0x0c, 0x01,
  0x08, 0x05, 0xef, 0xf5, 0x19, 0x06, 0xfa, 0x12, 0xb9, 0x0c, 0xcc, 0xd6,
  0x1e, 0x7f, 0x35, 0x23, 0xe0, 0xe3, 0x25, 0xe9, 0xe4, 0x0b, 0xe3, 0xf5,
  0xe6, 0x21, 0x08, 0xfb, 0x1f, 0x0a, 0x0c, 0xe1, 0xf2, 0x20, 0xf7, 0x01,
  0x12, 0xba, 0x12, 0x02, 0x7f, 0xef, 0x0f, 0x1a, 0xe0, 0x0b, 0x0b, 0xe7,
  0xe3, 0x10, 0x00, 0x18, 0x11, 0x05, 0xf7, 0x15, 0xf0, 0x08, 0xf8, 0xf7,
  0xea, 0x11, 0xd1, 0x0b, 0xe2, 0xfc, 0xf5, 0x7f, 0x2a, 0x08, 0xee, 0xf1,
  0x02, 0x10, 0xf7, 0x07, 0xe7, 0xf2, 0xd3, 0x1d, 0x14, 0x29, 0xf7, 0xe3,
  0x0f, 0x11, 0xdd, 0xed, 0x1f, 0x16, 0x0b, 0xf1, 0x3c, 0x64, 0x81, 0xce,
  0xe2, 0x1e, 0x15, 0xd5, 0x2c, 0xe5, 0x17, 0xff, 0x07, 0x21, 0xc1, 0x63,
  0x3e, 0xb8, 0xfa, 0xbf, 0xb8, 0x8b, 0x81, 0x99, 0x57, 0xed, 0x90, 0xf3,
  0x8c, 0xad, 0x39, 0xdd, 0x7b, 0xef, 0x28, 0x1a, 0x73, 0x4a, 0x93, 0xd1,
  0x7a, 0xfd, 0xff, 0xff, 0x04, 0x00, 0x00, 0x00, 0x08, 0x00, 0x00, 0x00,
  0xff, 0xff, 0xff, 0xff, 0xa0, 0x00, 0x00, 0x00, 0x8e, 0xfd, 0xff, 0xff,
  0x04, 0x00, 0x00, 0x00, 0x04, 0x00, 0x00, 0x00, 0x09, 0x00, 0x00, 0x00,
  0x9e, 0xfd, 0xff, 0xff, 0x04, 0x00, 0x00, 0x00, 0x04, 0x00, 0x00, 0x00,
  0x05, 0x00, 0x00, 0x00, 0xc4, 0xee, 0xff, 0xff, 0xb2, 0xfd, 0xff, 0xff,
  0x04, 0x00, 0x00, 0x00, 0x04, 0x00, 0x00, 0x00, 0x01, 0x00, 0x00, 0x00,
  0xc2, 0xfd, 0xff, 0xff, 0x04, 0x00, 0x00, 0x00, 0x04, 0x00, 0x00, 0x00,
  0x00, 0x00, 0x00, 0x00, 0xe8, 0xee, 0xff, 0xff, 0xec, 0xee, 0xff, 0xff,
  0x0f, 0x00, 0x00, 0x00, 0x4d, 0x4c, 0x49, 0x52, 0x20, 0x43, 0x6f, 0x6e,
  0x76, 0x65, 0x72, 0x74, 0x65, 0x64, 0x2e, 0x00, 0x01, 0x00, 0x00, 0x00,
  0x14, 0x00, 0x00, 0x00, 0x00, 0x00, 0x0e, 0x00, 0x18, 0x00, 0x14, 0x00,
  0x10, 0x00, 0x0c, 0x00, 0x08, 0x00, 0x04, 0x00, 0x0e, 0x00, 0x00, 0x00,
  0x14, 0x00, 0x00, 0x00, 0x1c, 0x00, 0x00, 0x00, 0xb8, 0x02, 0x00, 0x00,
  0xbc, 0x02, 0x00, 0x00, 0xc0, 0x02, 0x00, 0x00, 0x04, 0x00, 0x00, 0x00,
  0x6d, 0x61, 0x69, 0x6e, 0x00, 0x00, 0x00, 0x00, 0x0a, 0x00, 0x00, 0x00,
  0x68, 0x02, 0x00, 0x00, 0x08, 0x02, 0x00, 0x00, 0xb0, 0x01, 0x00, 0x00,
  0x88, 0x01, 0x00, 0x00, 0x2c, 0x01, 0x00, 0x00, 0xe8, 0x00, 0x00, 0x00,
  0x98, 0x00, 0x00, 0x00, 0x70, 0x00, 0x00, 0x00, 0x38, 0x00, 0x00, 0x00,
  0x04, 0x00, 0x00, 0x00, 0x2a, 0xfe, 0xff, 0xff, 0x14, 0x00, 0x00, 0x00,
  0x00, 0x00, 0x00, 0x09, 0x14, 0x00, 0x00, 0x00, 0x18, 0x00, 0x00, 0x00,
  0x07, 0x00, 0x00, 0x00, 0x6e, 0xfe, 0xff, 0xff, 0x00, 0x00, 0x80, 0x3f,
  0x01, 0x00, 0x00, 0x00, 0x16, 0x00, 0x00, 0x00, 0x01, 0x00, 0x00, 0x00,
  0x15, 0x00, 0x00, 0x00, 0x5a, 0xfe, 0xff, 0xff, 0x14, 0x00, 0x00, 0x00,
  0x00, 0x00, 0x00, 0x08, 0x10, 0x00, 0x00, 0x00, 0x14, 0x00, 0x00, 0x00,
  0x06, 0x00, 0x00, 0x00, 0xb4, 0xef, 0xff, 0xff, 0x01, 0x00, 0x00, 0x00,
  0x15, 0x00, 0x00, 0x00, 0x03, 0x00, 0x00, 0x00, 0x14, 0x00, 0x00, 0x00,
  0x0b, 0x00, 0x00, 0x00, 0x0c, 0x00, 0x00, 0x00, 0x02, 0xff, 0xff, 0xff,
  0x0c, 0x00, 0x00, 0x00, 0x10, 0x00, 0x00, 0x00, 0x03, 0x00, 0x00, 0x00,
  0x01, 0x00, 0x00, 0x00, 0x14, 0x00, 0x00, 0x00, 0x02, 0x00, 0x00, 0x00,
  0x13, 0x00, 0x00, 0x00, 0x06, 0x00, 0x00, 0x00, 0xb2, 0xfe, 0xff, 0xff,
  0x24, 0x00, 0x00, 0x00, 0x00, 0x00, 0x00, 0x05, 0x30, 0x00, 0x00, 0x00,
  0x34, 0x00, 0x00, 0x00, 0x05, 0x00, 0x00, 0x00, 0x00, 0x00, 0x0e, 0x00,
  0x14, 0x00, 0x00, 0x00, 0x10, 0x00, 0x0c, 0x00, 0x08, 0x00, 0x04, 0x00,
  0x0e, 0x00, 0x00, 0x00, 0x02, 0x00, 0x00, 0x00, 0x01, 0x00, 0x00, 0x00,
  0x02, 0x00, 0x00, 0x00, 0x01, 0x00, 0x00, 0x00, 0x01, 0x00, 0x00, 0x00,
  0x13, 0x00, 0x00, 0x00, 0x01, 0x00, 0x00, 0x00, 0x12, 0x00, 0x00, 0x00,
  0xfe, 0xfe, 0xff, 0xff, 0x14, 0x00, 0x00, 0x00, 0x00, 0x00, 0x00, 0x01,
  0x1c, 0x00, 0x00, 0x00, 0x20, 0x00, 0x00, 0x00, 0x04, 0x00, 0x00, 0x00,
  0xc0, 0xff, 0xff, 0xff, 0x00, 0x00, 0x00, 0x01, 0x01, 0x00, 0x00, 0x00,
  0x01, 0x00, 0x00, 0x00, 0x01, 0x00, 0x00, 0x00, 0x12, 0x00, 0x00, 0x00,
  0x03, 0x00, 0x00, 0x00, 0x11, 0x00, 0x00, 0x00, 0x09, 0x00, 0x00, 0x00,
  0x0a, 0x00, 0x00, 0x00, 0x3e, 0xff, 0xff, 0xff, 0x20, 0x00, 0x00, 0x00,
  0x00, 0x00, 0x00, 0x01, 0x28, 0x00, 0x00, 0x00, 0x2c, 0x00, 0x00, 0x00,
  0x04, 0x00, 0x00, 0x00, 0x0c, 0x00, 0x10, 0x00, 0x00, 0x00, 0x0c, 0x00,
  0x08, 0x00, 0x07, 0x00, 0x0c, 0x00, 0x00, 0x00, 0x00, 0x00, 0x00, 0x01,
  0x01, 0x00, 0x00, 0x00, 0x01, 0x00, 0x00, 0x00, 0x01, 0x00, 0x00, 0x00,
  0x11, 0x00, 0x00, 0x00, 0x03, 0x00, 0x00, 0x00, 0x10, 0x00, 0x00, 0x00,
  0x07, 0x00, 0x00, 0x00, 0x08, 0x00, 0x00, 0x00, 0x00, 0x00, 0x0a, 0x00,
  0x10, 0x00, 0x0c, 0x00, 0x08, 0x00, 0x04, 0x00, 0x0a, 0x00, 0x00, 0x00,
  0x0c, 0x00, 0x00, 0x00, 0x10, 0x00, 0x00, 0x00, 0x03, 0x00, 0x00, 0x00,
  0x01, 0x00, 0x00, 0x00, 0x10, 0x00, 0x00, 0x00, 0x02, 0x00, 0x00, 0x00,
  0x00, 0x00, 0x00, 0x00, 0x0f, 0x00, 0x00, 0x00, 0xba, 0xff, 0xff, 0xff,
  0x1c, 0x00, 0x00, 0x00, 0x00, 0x00, 0x00, 0x3b, 0x1c, 0x00, 0x00, 0x00,
  0x20, 0x00, 0x00, 0x00, 0x02, 0x00, 0x00, 0x00, 0x00, 0x00, 0x06, 0x00,
  0x08, 0x00, 0x04, 0x00, 0x06, 0x00, 0x00, 0x00, 0x04, 0x00, 0x00, 0x00,
  0x01, 0x00, 0x00, 0x00, 0x0f, 0x00, 0x00, 0x00, 0x04, 0x00, 0x00, 0x00,
  0x0e, 0x00, 0x00, 0x00, 0x03, 0x00, 0x00, 0x00, 0x04, 0x00, 0x00, 0x00,
  0x05, 0x00, 0x00, 0x00, 0x00, 0x00, 0x0e, 0x00, 0x1a, 0x00, 0x14, 0x00,
  0x10, 0x00, 0x0c, 0x00, 0x0b, 0x00, 0x04, 0x00, 0x0e, 0x00, 0x00, 0x00,
  0x24, 0x00, 0x00, 0x00, 0x00, 0x00, 0x00, 0x20, 0x24, 0x00, 0x00, 0x00,
  0x28, 0x00, 0x00, 0x00, 0x01, 0x00, 0x00, 0x00, 0x00, 0x00, 0x0e, 0x00,
  0x08, 0x00, 0x00, 0x00, 0x00, 0x00, 0x00, 0x00, 0x00, 0x00, 0x04, 0x00,
  0x0e, 0x00, 0x00, 0x00, 0x01, 0x00, 0x00, 0x00, 0x01, 0x00, 0x00, 0x00,
  0x0e, 0x00, 0x00, 0x00, 0x04, 0x00, 0x00, 0x00, 0x0d, 0x00, 0x00, 0x00,
  0x01, 0x00, 0x00, 0x00, 0x02, 0x00, 0x00, 0x00, 0x02, 0x00, 0x00, 0x00,
  0x00, 0x00, 0x0e, 0x00, 0x16, 0x00, 0x00, 0x00, 0x10, 0x00, 0x0c, 0x00,
  0x0b, 0x00, 0x04, 0x00, 0x0e, 0x00, 0x00, 0x00, 0x18, 0x00, 0x00, 0x00,
  0x00, 0x00, 0x00, 0x37, 0x18, 0x00, 0x00, 0x00, 0x1c, 0x00, 0x00, 0x00,
  0x00, 0x00, 0x06, 0x00, 0x08, 0x00, 0x07, 0x00, 0x06, 0x00, 0x00, 0x00,
  0x00, 0x00, 0x00, 0x02, 0x01, 0x00, 0x00, 0x00, 0x0d, 0x00, 0x00, 0x00,
  0x01, 0x00, 0x00, 0x00, 0x00, 0x00, 0x00, 0x00, 0x01, 0x00, 0x00, 0x00,
  0x16, 0x00, 0x00, 0x00, 0x01, 0x00, 0x00, 0x00, 0x00, 0x00, 0x00, 0x00,
  0x17, 0x00, 0x00, 0x00, 0x5c, 0x0e, 0x00, 0x00, 0xf0, 0x0d, 0x00, 0x00,
  0x88, 0x0d, 0x00, 0x00, 0x3c, 0x0d, 0x00, 0x00, 0xf0, 0x0c, 0x00, 0x00,
  0xa4, 0x0c, 0x00, 0x00, 0x5c, 0x0c, 0x00, 0x00, 0x38, 0x0b, 0x00, 0x00,
  0x0c, 0x0a, 0x00, 0x00, 0x28, 0x08, 0x00, 0x00, 0x3c, 0x06, 0x00, 0x00,
  0xd8, 0x05, 0x00, 0x00, 0x64, 0x05, 0x00, 0x00, 0x1c, 0x05, 0x00, 0x00,
  0xd0, 0x04, 0x00, 0x00, 0x80, 0x04, 0x00, 0x00, 0xf4, 0x03, 0x00, 0x00,
  0x10, 0x03, 0x00, 0x00, 0x24, 0x02, 0x00, 0x00, 0x90, 0x01, 0x00, 0x00,
  0x14, 0x01, 0x00, 0x00, 0x80, 0x00, 0x00, 0x00, 0x04, 0x00, 0x00, 0x00,
  0x14, 0xf2, 0xff, 0xff, 0x18, 0x00, 0x00, 0x00, 0x20, 0x00, 0x00, 0x00,
  0x40, 0x00, 0x00, 0x00, 0x17, 0x00, 0x00, 0x00, 0x00, 0x00, 0x00, 0x09,
  0x54, 0x00, 0x00, 0x00, 0x02, 0x00, 0x00, 0x00, 0xff, 0xff, 0xff, 0xff,
  0x04, 0x00, 0x00, 0x00, 0xfc, 0xf1, 0xff, 0xff, 0x08, 0x00, 0x00, 0x00,
  0x14, 0x00, 0x00, 0x00, 0x01, 0x00, 0x00, 0x00, 0x80, 0xff, 0xff, 0xff,
  0xff, 0xff, 0xff, 0xff, 0x00, 0x00, 0x00, 0x00, 0x01, 0x00, 0x00, 0x00,
  0x00, 0x00, 0x80, 0x3b, 0x19, 0x00, 0x00, 0x00, 0x53, 0x74, 0x61, 0x74,
  0x65, 0x66, 0x75, 0x6c, 0x50, 0x61, 0x72, 0x74, 0x69, 0x74, 0x69, 0x6f,
  0x6e, 0x65, 0x64, 0x43, 0x61, 0x6c, 0x6c, 0x3a, 0x30, 0x00, 0x00, 0x00,
  0x02, 0x00, 0x00, 0x00, 0x01, 0x00, 0x00, 0x00, 0x04, 0x00, 0x00, 0x00,
  0x8c, 0xf2, 0xff, 0xff, 0x18, 0x00, 0x00, 0x00, 0x20, 0x00, 0x00, 0x00,
  0x40, 0x00, 0x00, 0x00, 0x16, 0x00, 0x00, 0x00, 0x00, 0x00, 0x00, 0x09,
  0x6c, 0x00, 0x00, 0x00, 0x02, 0x00, 0x00, 0x00, 0xff, 0xff, 0xff, 0xff,
  0x04, 0x00, 0x00, 0x00, 0x74, 0xf2, 0xff, 0xff, 0x08, 0x00, 0x00, 0x00,
  0x14, 0x00, 0x00, 0x00, 0x01, 0x00, 0x00, 0x00, 0x5b, 0x00, 0x00, 0x00,
  0x00, 0x00, 0x00, 0x00, 0x00, 0x00, 0x00, 0x00, 0x01, 0x00, 0x00, 0x00,
  0x32, 0x47, 0xcd, 0x3d, 0x30, 0x00, 0x00, 0x00, 0x73, 0x65, 0x71, 0x75,
  0x65, 0x6e, 0x74, 0x69, 0x61, 0x6c, 0x2f, 0x64, 0x65, 0x6e, 0x73, 0x65,
  0x2f, 0x4d, 0x61, 0x74, 0x4d, 0x75, 0x6c, 0x3b, 0x73, 0x65, 0x71, 0x75,
  0x65, 0x6e, 0x74, 0x69, 0x61, 0x6c, 0x2f, 0x64, 0x65, 0x6e, 0x73, 0x65,
  0x2f, 0x42, 0x69, 0x61, 0x73, 0x41, 0x64, 0x64, 0x00, 0x00, 0x00, 0x00,
  0x02, 0x00, 0x00, 0x00, 0x01, 0x00, 0x00, 0x00, 0x04, 0x00, 0x00, 0x00,
  0x1c, 0xf3, 0xff, 0xff, 0x18, 0x00, 0x00, 0x00, 0x20, 0x00, 0x00, 0x00,
  0x40, 0x00, 0x00, 0x00, 0x15, 0x00, 0x00, 0x00, 0x00, 0x00, 0x00, 0x09,
  0x54, 0x00, 0x00, 0x00, 0x02, 0x00, 0x00, 0x00, 0xff, 0xff, 0xff, 0xff,
  0xa0, 0x00, 0x00, 0x00, 0x04, 0xf3, 0xff, 0xff, 0x08, 0x00, 0x00, 0x00,
  0x14, 0x00, 0x00, 0x00, 0x01, 0x00, 0x00, 0x00, 0x80, 0xff, 0xff, 0xff,
  0xff, 0xff, 0xff, 0xff, 0x00, 0x00, 0x00, 0x00, 0x01, 0x00, 0x00, 0x00,
  0x72, 0xdf, 0xeb, 0x3b, 0x1a, 0x00, 0x00, 0x00, 0x73, 0x65, 0x71, 0x75,
  0x65, 0x6e, 0x74, 0x69, 0x61, 0x6c, 0x2f, 0x66, 0x6c, 0x61, 0x74, 0x74,
  0x65, 0x6e, 0x2f, 0x52, 0x65, 0x73, 0x68, 0x61, 0x70, 0x65, 0x00, 0x00,
  0x02, 0x00, 0x00, 0x00, 0x01, 0x00, 0x00, 0x00, 0xa0, 0x00, 0x00, 0x00,
  0x94, 0xf3, 0xff, 0xff, 0x18, 0x00, 0x00, 0x00, 0x28, 0x00, 0x00, 0x00,
  0x48, 0x00, 0x00, 0x00, 0x14, 0x00, 0x00, 0x00, 0x00, 0x00, 0x00, 0x09,
  0x64, 0x00, 0x00, 0x00, 0x04, 0x00, 0x00, 0x00, 0xff, 0xff, 0xff, 0xff,
  0x01, 0x00, 0x00, 0x00, 0x05, 0x00, 0x00, 0x00, 0x20, 0x00, 0x00, 0x00,
  0x84, 0xf3, 0xff, 0xff, 0x08, 0x00, 0x00, 0x00, 0x14, 0x00, 0x00, 0x00,
  0x01, 0x00, 0x00, 0x00, 0x80, 0xff, 0xff, 0xff, 0xff, 0xff, 0xff, 0xff,
  0x00, 0x00, 0x00, 0x00, 0x01, 0x00, 0x00, 0x00, 0x72, 0xdf, 0xeb, 0x3b,
  0x20, 0x00, 0x00, 0x00, 0x73, 0x65, 0x71, 0x75, 0x65, 0x6e, 0x74, 0x69,
  0x61, 0x6c, 0x2f, 0x6d, 0x61, 0x78, 0x5f, 0x70, 0x6f, 0x6f, 0x6c, 0x69,
  0x6e, 0x67, 0x32, 0x64, 0x2f, 0x4d, 0x61, 0x78, 0x50, 0x6f, 0x6f, 0x6c,
  0x00, 0x00, 0x00, 0x00, 0x04, 0x00, 0x00, 0x00, 0x01, 0x00, 0x00, 0x00,
  0x01, 0x00, 0x00, 0x00, 0x05, 0x00, 0x00, 0x00, 0x20, 0x00, 0x00, 0x00,
  0x24, 0xf4, 0xff, 0xff, 0x18, 0x00, 0x00, 0x00, 0x28, 0x00, 0x00, 0x00,
  0x48, 0x00, 0x00, 0x00, 0x13, 0x00, 0x00, 0x00, 0x00, 0x00, 0x00, 0x09,
  0xbc, 0x00, 0x00, 0x00, 0x04, 0x00, 0x00, 0x00, 0xff, 0xff, 0xff, 0xff,
  0x01, 0x00, 0x00, 0x00, 0x05, 0x00, 0x00, 0x00, 0x20, 0x00, 0x00, 0x00,
  0x14, 0xf4, 0xff, 0xff, 0x08, 0x00, 0x00, 0x00, 0x14, 0x00, 0x00, 0x00,
  0x01, 0x00, 0x00, 0x00, 0x80, 0xff, 0xff, 0xff, 0xff, 0xff, 0xff, 0xff,
  0x00, 0x00, 0x00, 0x00, 0x01, 0x00, 0x00, 0x00, 0x72, 0xdf, 0xeb, 0x3b,
  0x7a, 0x00, 0x00, 0x00, 0x73, 0x65, 0x71, 0x75, 0x65, 0x6e, 0x74, 0x69,
  0x61, 0x6c, 0x2f, 0x63, 0x6f, 0x6e, 0x76, 0x32, 0x64, 0x5f, 0x31, 0x2f,
  0x52, 0x65, 0x6c, 0x75, 0x3b, 0x73, 0x65, 0x71, 0x75, 0x65, 0x6e, 0x74,
  0x69, 0x61, 0x6c, 0x2f, 0x63, 0x6f, 0x6e, 0x76, 0x32, 0x64, 0x5f, 0x31,
  0x2f, 0x42, 0x69, 0x61, 0x73, 0x41, 0x64, 0x64, 0x3b, 0x73, 0x65, 0x71,
  0x75, 0x65, 0x6e, 0x74, 0x69, 0x61, 0x6c, 0x2f, 0x63, 0x6f, 0x6e, 0x76,
  0x32, 0x64, 0x5f, 0x31, 0x2f, 0x43, 0x6f, 0x6e, 0x76, 0x32, 0x44, 0x3b,
  0x73, 0x65, 0x71, 0x75, 0x65, 0x6e, 0x74, 0x69, 0x61, 0x6c, 0x2f, 0x63,
  0x6f, 0x6e, 0x76, 0x32, 0x64, 0x5f, 0x31, 0x2f, 0x42, 0x69, 0x61, 0x73,
  0x41, 0x64, 0x64, 0x2f, 0x52, 0x65, 0x61, 0x64, 0x56, 0x61, 0x72, 0x69,
  0x61, 0x62, 0x6c, 0x65, 0x4f, 0x70, 0x00, 0x00, 0x04, 0x00, 0x00, 0x00,
  0x01, 0x00, 0x00, 0x00, 0x01, 0x00, 0x00, 0x00, 0x05, 0x00, 0x00, 0x00,
  0x20, 0x00, 0x00, 0x00, 0x0c, 0xf5, 0xff, 0xff, 0x18, 0x00, 0x00, 0x00,
  0x28, 0x00, 0x00, 0x00, 0x48, 0x00, 0x00, 0x00, 0x12, 0x00, 0x00, 0x00,
  0x00, 0x00, 0x00, 0x09, 0xb4, 0x00, 0x00, 0x00, 0x04, 0x00, 0x00, 0x00,
  0xff, 0xff, 0xff, 0xff, 0x01, 0x00, 0x00, 0x00, 0x05, 0x00, 0x00, 0x00,
  0x10, 0x00, 0x00, 0x00, 0xfc, 0xf4, 0xff, 0xff, 0x08, 0x00, 0x00, 0x00,
  0x14, 0x00, 0x00, 0x00, 0x01, 0x00, 0x00, 0x00, 0x80, 0xff, 0xff, 0xff,
  0xff, 0xff, 0xff, 0xff, 0x00, 0x00, 0x00, 0x00, 0x01, 0x00, 0x00, 0x00,
  0x85, 0x12, 0x78, 0x3b, 0x72, 0x00, 0x00, 0x00, 0x73, 0x65, 0x71, 0x75,
  0x65, 0x6e, 0x74, 0x69, 0x61, 0x6c, 0x2f, 0x63, 0x6f, 0x6e, 0x76, 0x32,
  0x64, 0x2f, 0x52, 0x65, 0x6c, 0x75, 0x3b, 0x73, 0x65, 0x71, 0x75, 0x65,
  0x6e, 0x74, 0x69, 0x61, 0x6c, 0x2f, 0x63, 0x6f, 0x6e, 0x76, 0x32, 0x64,
  0x2f, 0x42, 0x69, 0x61, 0x73, 0x41, 0x64, 0x64, 0x3b, 0x73, 0x65, 0x71,
  0x75, 0x65, 0x6e, 0x74, 0x69, 0x61, 0x6c, 0x2f, 0x63, 0x6f, 0x6e, 0x76,
  0x32, 0x64, 0x2f, 0x43, 0x6f, 0x6e, 0x76, 0x32, 0x44, 0x3b, 0x73, 0x65,
  0x71, 0x75, 0x65, 0x6e, 0x74, 0x69, 0x61, 0x6c, 0x2f, 0x63, 0x6f, 0x6e,
  0x76, 0x32, 0x64, 0x2f, 0x42, 0x69, 0x61, 0x73, 0x41, 0x64, 0x64, 0x2f,
  0x52, 0x65, 0x61, 0x64, 0x56, 0x61, 0x72, 0x69, 0x61, 0x62, 0x6c, 0x65,
  0x4f, 0x70, 0x00, 0x00, 0x04, 0x00, 0x00, 0x00, 0x01, 0x00, 0x00, 0x00,
  0x01, 0x00, 0x00, 0x00, 0x05, 0x00, 0x00, 0x00, 0x10, 0x00, 0x00, 0x00,
  0xec, 0xf5, 0xff, 0xff, 0x18, 0x00, 0x00, 0x00, 0x28, 0x00, 0x00, 0x00,
  0x48, 0x00, 0x00, 0x00, 0x11, 0x00, 0x00, 0x00, 0x00, 0x00, 0x00, 0x09,
  0x5c, 0x00, 0x00, 0x00, 0x04, 0x00, 0x00, 0x00, 0xff, 0xff, 0xff, 0xff,
  0x01, 0x00, 0x00, 0x00, 0x05, 0x00, 0x00, 0x00, 0x09, 0x00, 0x00, 0x00,
  0xdc, 0xf5, 0xff, 0xff, 0x08, 0x00, 0x00, 0x00, 0x14, 0x00, 0x00, 0x00,
  0x01, 0x00, 0x00, 0x00, 0x80, 0xff, 0xff, 0xff, 0xff, 0xff, 0xff, 0xff,
  0x00, 0x00, 0x00, 0x00, 0x01, 0x00, 0x00, 0x00, 0x81, 0x80, 0x80, 0x3b,
  0x1a, 0x00, 0x00, 0x00, 0x73, 0x65, 0x71, 0x75, 0x65, 0x6e, 0x74, 0x69,
  0x61, 0x6c, 0x2f, 0x72, 0x65, 0x73, 0x68, 0x61, 0x70, 0x65, 0x2f, 0x52,
  0x65, 0x73, 0x68, 0x61, 0x70, 0x65, 0x00, 0x00, 0x04, 0x00, 0x00, 0x00,
  0x01, 0x00, 0x00, 0x00, 0x01, 0x00, 0x00, 0x00, 0x05, 0x00, 0x00, 0x00,
  0x09, 0x00, 0x00, 0x00, 0xd6, 0xf6, 0xff, 0xff, 0x14, 0x00, 0x00, 0x00,
  0x14, 0x00, 0x00, 0x00, 0x10, 0x00, 0x00, 0x00, 0x00, 0x00, 0x00, 0x02,
  0x30, 0x00, 0x00, 0x00, 0xc8, 0xf6, 0xff, 0xff, 0x20, 0x00, 0x00, 0x00,
  0x73, 0x65, 0x71, 0x75, 0x65, 0x6e, 0x74, 0x69, 0x61, 0x6c, 0x2f, 0x72,
  0x65, 0x73, 0x68, 0x61, 0x70, 0x65, 0x2f, 0x52, 0x65, 0x73, 0x68, 0x61,
  0x70, 0x65, 0x2f, 0x73, 0x68, 0x61, 0x70, 0x65, 0x00, 0x00, 0x00, 0x00,
  0x01, 0x00, 0x00, 0x00, 0x04, 0x00, 0x00, 0x00, 0x22, 0xf7, 0xff, 0xff,
  0x14, 0x00, 0x00, 0x00, 0x14, 0x00, 0x00, 0x00, 0x0f, 0x00, 0x00, 0x00,
  0x00, 0x00, 0x00, 0x02, 0x30, 0x00, 0x00, 0x00, 0x14, 0xf7, 0xff, 0xff,
  0x20, 0x00, 0x00, 0x00, 0x73, 0x65, 0x71, 0x75, 0x65, 0x6e, 0x74, 0x69,
  0x61, 0x6c, 0x2f, 0x72, 0x65, 0x73, 0x68, 0x61, 0x70, 0x65, 0x2f, 0x73,
  0x74, 0x72, 0x69, 0x64, 0x65, 0x64, 0x5f, 0x73, 0x6c, 0x69, 0x63, 0x65,
  0x00, 0x00, 0x00, 0x00, 0x00, 0x00, 0x00, 0x00, 0x6a, 0xf7, 0xff, 0xff,
  0x14, 0x00, 0x00, 0x00, 0x14, 0x00, 0x00, 0x00, 0x0e, 0x00, 0x00, 0x00,
  0x00, 0x00, 0x00, 0x02, 0x28, 0x00, 0x00, 0x00, 0x5c, 0xf7, 0xff, 0xff,
  0x18, 0x00, 0x00, 0x00, 0x73, 0x65, 0x71, 0x75, 0x65, 0x6e, 0x74, 0x69,
  0x61, 0x6c, 0x2f, 0x72, 0x65, 0x73, 0x68, 0x61, 0x70, 0x65, 0x2f, 0x53,
  0x68, 0x61, 0x70, 0x65, 0x00, 0x00, 0x00, 0x00, 0x01, 0x00, 0x00, 0x00,
  0x03, 0x00, 0x00, 0x00, 0xae, 0xf7, 0xff, 0xff, 0x14, 0x00, 0x00, 0x00,
  0x34, 0x00, 0x00, 0x00, 0x0d, 0x00, 0x00, 0x00, 0x00, 0x00, 0x00, 0x02,
  0x54, 0x00, 0x00, 0x00, 0x24, 0xf7, 0xff, 0xff, 0x08, 0x00, 0x00, 0x00,
  0x14, 0x00, 0x00, 0x00, 0x01, 0x00, 0x00, 0x00, 0x00, 0x00, 0x00, 0x00,
  0x00, 0x00, 0x00, 0x00, 0x00, 0x00, 0x00, 0x00, 0x01, 0x00, 0x00, 0x00,
  0x51, 0xa9, 0xcb, 0x38, 0x27, 0x00, 0x00, 0x00, 0x73, 0x65, 0x71, 0x75,
  0x65, 0x6e, 0x74, 0x69, 0x61, 0x6c, 0x2f, 0x64, 0x65, 0x6e, 0x73, 0x65,
  0x2f, 0x42, 0x69, 0x61, 0x73, 0x41, 0x64, 0x64, 0x2f, 0x52, 0x65, 0x61,
  0x64, 0x56, 0x61, 0x72, 0x69, 0x61, 0x62, 0x6c, 0x65, 0x4f, 0x70, 0x00,
  0x01, 0x00, 0x00, 0x00, 0x04, 0x00, 0x00, 0x00, 0x1e, 0xf8, 0xff, 0xff,
  0x14, 0x00, 0x00, 0x00, 0x30, 0x00, 0x00, 0x00, 0x0c, 0x00, 0x00, 0x00,
  0x00, 0x00, 0x00, 0x09, 0x40, 0x00, 0x00, 0x00, 0x94, 0xf7, 0xff, 0xff,
  0x08, 0x00, 0x00, 0x00, 0x10, 0x00, 0x00, 0x00, 0x01, 0x00, 0x00, 0x00,
  0x00, 0x00, 0x00, 0x00, 0x00, 0x00, 0x00, 0x00, 0x01, 0x00, 0x00, 0x00,
  0x39, 0x0a, 0x5d, 0x3c, 0x17, 0x00, 0x00, 0x00, 0x73, 0x65, 0x71, 0x75,
  0x65, 0x6e, 0x74, 0x69, 0x61, 0x6c, 0x2f, 0x64, 0x65, 0x6e, 0x73, 0x65,
  0x2f, 0x4d, 0x61, 0x74, 0x4d, 0x75, 0x6c, 0x00, 0x02, 0x00, 0x00, 0x00,
  0x04, 0x00, 0x00, 0x00, 0xa0, 0x00, 0x00, 0x00, 0x7e, 0xf8, 0xff, 0xff,
  0x14, 0x00, 0x00, 0x00, 0xa8, 0x01, 0x00, 0x00, 0x0b, 0x00, 0x00, 0x00,
  0x00, 0x00, 0x00, 0x02, 0xcc, 0x01, 0x00, 0x00, 0xf4, 0xf7, 0xff, 0xff,
  0x08, 0x00, 0x00, 0x00, 0x0c, 0x01, 0x00, 0x00, 0x20, 0x00, 0x00, 0x00,
  0x00, 0x00, 0x00, 0x00, 0x00, 0x00, 0x00, 0x00, 0x00, 0x00, 0x00, 0x00,
  0x00, 0x00, 0x00, 0x00, 0x00, 0x00, 0x00, 0x00, 0x00, 0x00, 0x00, 0x00,
  0x00, 0x00, 0x00, 0x00, 0x00, 0x00, 0x00, 0x00, 0x00, 0x00, 0x00, 0x00,
  0x00, 0x00, 0x00, 0x00, 0x00, 0x00, 0x00, 0x00, 0x00, 0x00, 0x00, 0x00,
  0x00, 0x00, 0x00, 0x00, 0x00, 0x00, 0x00, 0x00, 0x00, 0x00, 0x00, 0x00,
  0x00, 0x00, 0x00, 0x00, 0x00, 0x00, 0x00, 0x00, 0x00, 0x00, 0x00, 0x00,
  0x00, 0x00, 0x00, 0x00, 0x00, 0x00, 0x00, 0x00, 0x00, 0x00, 0x00, 0x00,
  0x00, 0x00, 0x00, 0x00, 0x00, 0x00, 0x00, 0x00, 0x00, 0x00, 0x00, 0x00,
  0x00, 0x00, 0x00, 0x00, 0x00, 0x00, 0x00, 0x00, 0x00, 0x00, 0x00, 0x00,
  0x00, 0x00, 0x00, 0x00, 0x00, 0x00, 0x00, 0x00, 0x00, 0x00, 0x00, 0x00,
  0x00, 0x00, 0x00, 0x00, 0x00, 0x00, 0x00, 0x00, 0x00, 0x00, 0x00, 0x00,
  0x00, 0x00, 0x00, 0x00, 0x00, 0x00, 0x00, 0x00, 0x00, 0x00, 0x00, 0x00,
  0x00, 0x00, 0x00, 0x00, 0x00, 0x00, 0x00, 0x00, 0x00, 0x00, 0x00, 0x00,
  0x00, 0x00, 0x00, 0x00, 0x00, 0x00, 0x00, 0x00, 0x00, 0x00, 0x00, 0x00,
  0x00, 0x00, 0x00, 0x00, 0x00, 0x00, 0x00, 0x00, 0x00, 0x00, 0x00, 0x00,
  0x00, 0x00, 0x00, 0x00, 0x00, 0x00, 0x00, 0x00, 0x00, 0x00, 0x00, 0x00,
  0x00, 0x00, 0x00, 0x00, 0x00, 0x00, 0x00, 0x00, 0x00, 0x00, 0x00, 0x00,
  0x00, 0x00, 0x00, 0x00, 0x00, 0x00, 0x00, 0x00, 0x00, 0x00, 0x00, 0x00,
  0x00, 0x00, 0x00, 0x00, 0x00, 0x00, 0x00, 0x00, 0x00, 0x00, 0x00, 0x00,
  0x00, 0x00, 0x00, 0x00, 0x00, 0x00, 0x00, 0x00, 0x00, 0x00, 0x00, 0x00,
  0x00, 0x00, 0x00, 0x00, 0x00, 0x00, 0x00, 0x00, 0x00, 0x00, 0x00, 0x00,
  0x00, 0x00, 0x00, 0x00, 0x00, 0x00, 0x00, 0x00, 0x20, 0x00, 0x00, 0x00,
  0x71, 0xbd, 0xa5, 0x37, 0xd4, 0x93, 0xd4, 0x36, 0xca, 0xca, 0xc6, 0x36,
  0x61, 0x7d, 0x81, 0x37, 0x32, 0x93, 0xa9, 0x37, 0x92, 0x86, 0xcb, 0x36,
  0xc9, 0xe5, 0xb0, 0x37, 0xdf, 0x3b, 0xaa, 0x37, 0xd0, 0xd7, 0xb5, 0x37,
  0x69, 0x59, 0x82, 0x37, 0x6f, 0xc9, 0xe2, 0x37, 0x68, 0xe6, 0x27, 0x38,
  0x84, 0x19, 0x3f, 0x38, 0x3f, 0x38, 0xcb, 0x36, 0x84, 0xfb, 0x9f, 0x37,
  0x89, 0x5e, 0xca, 0x36, 0x8a, 0xf4, 0xd6, 0x37, 0x85, 0x40, 0xde, 0x36,
  0x42, 0x72, 0x64, 0x38, 0x8e, 0x68, 0xa2, 0x37, 0xbc, 0x56, 0xc5, 0x36,
  0x4e, 0xc8, 0xc0, 0x36, 0xea, 0xe6, 0xd3, 0x37, 0x23, 0x51, 0xc1, 0x37,
  0x69, 0x23, 0x82, 0x37, 0xcb, 0xbc, 0x46, 0x38, 0x43, 0xaa, 0x2e, 0x38,
  0xcc, 0x23, 0x27, 0x38, 0x2e, 0xae, 0xcb, 0x36, 0xcc, 0x98, 0xd7, 0x37,
  0x74, 0xad, 0xe2, 0x37, 0x2d, 0xb5, 0x09, 0x38, 0x2a, 0x00, 0x00, 0x00,
  0x73, 0x65, 0x71, 0x75, 0x65, 0x6e, 0x74, 0x69, 0x61, 0x6c, 0x2f, 0x63,
  0x6f, 0x6e, 0x76, 0x32, 0x64, 0x5f, 0x31, 0x2f, 0x42, 0x69, 0x61, 0x73,
  0x41, 0x64, 0x64, 0x2f, 0x52, 0x65, 0x61, 0x64, 0x56, 0x61, 0x72, 0x69,
  0x61, 0x62, 0x6c, 0x65, 0x4f, 0x70, 0x00, 0x00, 0x01, 0x00, 0x00, 0x00,
  0x20, 0x00, 0x00, 0x00, 0x66, 0xfa, 0xff, 0xff, 0x14, 0x00, 0x00, 0x00,
  0xa4, 0x01, 0x00, 0x00, 0x0a, 0x00, 0x00, 0x00, 0x00, 0x00, 0x00, 0x09,
  0xb8, 0x01, 0x00, 0x00, 0xdc, 0xf9, 0xff, 0xff, 0x08, 0x00, 0x00, 0x00,
  0x08, 0x01, 0x00, 0x00, 0x20, 0x00, 0x00, 0x00, 0x00, 0x00, 0x00, 0x00,
  0x00, 0x00, 0x00, 0x00, 0x00, 0x00, 0x00, 0x00, 0x00, 0x00, 0x00, 0x00,
  0x00, 0x00, 0x00, 0x00, 0x00, 0x00, 0x00, 0x00, 0x00, 0x00, 0x00, 0x00,
  0x00, 0x00, 0x00, 0x00, 0x00, 0x00, 0x00, 0x00, 0x00, 0x00, 0x00, 0x00,
  0x00, 0x00, 0x00, 0x00, 0x00, 0x00, 0x00, 0x00, 0x00, 0x00, 0x00, 0x00,
  0x00, 0x00, 0x00, 0x00, 0x00, 0x00, 0x00, 0x00, 0x00, 0x00, 0x00, 0x00,
  0x00, 0x00, 0x00, 0x00, 0x00, 0x00, 0x00, 0x00, 0x00, 0x00, 0x00, 0x00,
  0x00, 0x00, 0x00, 0x00, 0x00, 0x00, 0x00, 0x00, 0x00, 0x00, 0x00, 0x00,
  0x00, 0x00, 0x00, 0x00, 0x00, 0x00, 0x00, 0x00, 0x00, 0x00, 0x00, 0x00,
  0x00, 0x00, 0x00, 0x00, 0x00, 0x00, 0x00, 0x00, 0x00, 0x00, 0x00, 0x00,
  0x00, 0x00, 0x00, 0x00, 0x00, 0x00, 0x00, 0x00, 0x00, 0x00, 0x00, 0x00,
  0x00, 0x00, 0x00, 0x00, 0x00, 0x00, 0x00, 0x00, 0x00, 0x00, 0x00, 0x00,
  0x00, 0x00, 0x00, 0x00, 0x00, 0x00, 0x00, 0x00, 0x00, 0x00, 0x00, 0x00,
  0x00, 0x00, 0x00, 0x00, 0x00, 0x00, 0x00, 0x00, 0x00, 0x00, 0x00, 0x00,
  0x00, 0x00, 0x00, 0x00, 0x00, 0x00, 0x00, 0x00, 0x00, 0x00, 0x00, 0x00,
  0x00, 0x00, 0x00, 0x00, 0x00, 0x00, 0x00, 0x00, 0x00, 0x00, 0x00, 0x00,
  0x00, 0x00, 0x00, 0x00, 0x00, 0x00, 0x00, 0x00, 0x00, 0x00, 0x00, 0x00,
  0x00, 0x00, 0x00, 0x00, 0x00, 0x00, 0x00, 0x00, 0x00, 0x00, 0x00, 0x00,
  0x00, 0x00, 0x00, 0x00, 0x00, 0x00, 0x00, 0x00, 0x00, 0x00, 0x00, 0x00,
  0x00, 0x00, 0x00, 0x00, 0x00, 0x00, 0x00, 0x00, 0x00, 0x00, 0x00, 0x00,
  0x00, 0x00, 0x00, 0x00, 0x00, 0x00, 0x00, 0x00, 0x00, 0x00, 0x00, 0x00,
  0x00, 0x00, 0x00, 0x00, 0x00, 0x00, 0x00, 0x00, 0x00, 0x00, 0x00, 0x00,
  0x20, 0x00, 0x00, 0x00, 0x5c, 0x09, 0xab, 0x3b, 0xed, 0x5e, 0xdb, 0x3a,
  0x1c, 0x25, 0xcd, 0x3a, 0xbc, 0xa0, 0x85, 0x3b, 0x7d, 0xfe, 0xae, 0x3b,
  0x9d, 0x07, 0xd2, 0x3a, 0xfc, 0x8c, 0xb6, 0x3b, 0x8e, 0xac, 0xaf, 0x3b,
  0x79, 0xa7, 0xbb, 0x3b, 0xcc, 0x83, 0x86, 0x3b, 0xc7, 0x08, 0xea, 0x3b,
  0xff, 0x43, 0x2d, 0x3c, 0xe7, 0x34, 0x45, 0x3c, 0xca, 0xb6, 0xd1, 0x3a,
  0x55, 0x18, 0xa5, 0x3b, 0x1e, 0xd6, 0xd0, 0x3a, 0x17, 0xd3, 0xdd, 0x3b,
  0xc4, 0x5a, 0xe5, 0x3a, 0x2d, 0xbf, 0x6b, 0x3c, 0x38, 0x99, 0xa7, 0x3b,
  0x2a, 0xa5, 0xcb, 0x3a, 0x75, 0xf1, 0xc6, 0x3a, 0x7c, 0xac, 0xda, 0x3b,
  0xaa, 0x7e, 0xc7, 0x3b, 0x12, 0x4c, 0x86, 0x3b, 0xaa, 0x16, 0x4d, 0x3c,
  0x33, 0x3f, 0x34, 0x3c, 0x2b, 0x7b, 0x2c, 0x3c, 0x7d, 0x30, 0xd2, 0x3a,
  0x98, 0x7c, 0xde, 0x3b, 0xe7, 0xeb, 0xe9, 0x3b, 0xc3, 0x1b, 0x0e, 0x3c,
  0x1a, 0x00, 0x00, 0x00, 0x73, 0x65, 0x71, 0x75, 0x65, 0x6e, 0x74, 0x69,
  0x61, 0x6c, 0x2f, 0x63, 0x6f, 0x6e, 0x76, 0x32, 0x64, 0x5f, 0x31, 0x2f,
  0x43, 0x6f, 0x6e, 0x76, 0x32, 0x44, 0x00, 0x00, 0x04, 0x00, 0x00, 0x00,
  0x20, 0x00, 0x00, 0x00, 0x03, 0x00, 0x00, 0x00, 0x01, 0x00, 0x00, 0x00,
  0x10, 0x00, 0x00, 0x00, 0x46, 0xfc, 0xff, 0xff, 0x14, 0x00, 0x00, 0x00,
  0xe8, 0x00, 0x00, 0x00, 0x09, 0x00, 0x00, 0x00, 0x00, 0x00, 0x00, 0x02,
  0x0c, 0x01, 0x00, 0x00, 0xbc, 0xfb, 0xff, 0xff, 0x08, 0x00, 0x00, 0x00,
  0x8c, 0x00, 0x00, 0x00, 0x10, 0x00, 0x00, 0x00, 0x00, 0x00, 0x00, 0x00,
  0x00, 0x00, 0x00, 0x00, 0x00, 0x00, 0x00, 0x00, 0x00, 0x00, 0x00, 0x00,
  0x00, 0x00, 0x00, 0x00, 0x00, 0x00, 0x00, 0x00, 0x00, 0x00, 0x00, 0x00,
  0x00, 0x00, 0x00, 0x00, 0x00, 0x00, 0x00, 0x00, 0x00, 0x00, 0x00, 0x00,
  0x00, 0x00, 0x00, 0x00, 0x00, 0x00, 0x00, 0x00, 0x00, 0x00, 0x00, 0x00,
  0x00, 0x00, 0x00, 0x00, 0x00, 0x00, 0x00, 0x00, 0x00, 0x00, 0x00, 0x00,
  0x00, 0x00, 0x00, 0x00, 0x00, 0x00, 0x00, 0x00, 0x00, 0x00, 0x00, 0x00,
  0x00, 0x00, 0x00, 0x00, 0x00, 0x00, 0x00, 0x00, 0x00, 0x00, 0x00, 0x00,
  0x00, 0x00, 0x00, 0x00, 0x00, 0x00, 0x00, 0x00, 0x00, 0x00, 0x00, 0x00,
  0x00, 0x00, 0x00, 0x00, 0x00, 0x00, 0x00, 0x00, 0x00, 0x00, 0x00, 0x00,
  0x00, 0x00, 0x00, 0x00, 0x00, 0x00, 0x00, 0x00, 0x00, 0x00, 0x00, 0x00,
  0x00, 0x00, 0x00, 0x00, 0x00, 0x00, 0x00, 0x00, 0x10, 0x00, 0x00, 0x00,
  0x11, 0xdd, 0x0c, 0x37, 0x15, 0x65, 0x84, 0x37, 0x74, 0x54, 0x81, 0x37,
  0xe7, 0x22, 0x55, 0x37, 0x04, 0xfc, 0x10, 0x37, 0x22, 0x00, 0x12, 0x37,
  0x99, 0xa4, 0xe8, 0x37, 0xa4, 0x8e, 0xa9, 0x37, 0x11, 0x76, 0x83, 0x37,
  0x44, 0x8a, 0x99, 0x37, 0xcf, 0xe8, 0x53, 0x37, 0x86, 0x07, 0xe3, 0x37,
  0x13, 0x87, 0x07, 0x38, 0x7b, 0xa1, 0x1e, 0x38, 0x8e, 0x5f, 0xcd, 0x37,
  0xb8, 0x26, 0x11, 0x37, 0x28, 0x00, 0x00, 0x00, 0x73, 0x65, 0x71, 0x75,
  0x65, 0x6e, 0x74, 0x69, 0x61, 0x6c, 0x2f, 0x63, 0x6f, 0x6e, 0x76, 0x32,
  0x64, 0x2f, 0x42, 0x69, 0x61, 0x73, 0x41, 0x64, 0x64, 0x2f, 0x52, 0x65,
  0x61, 0x64, 0x56, 0x61, 0x72, 0x69, 0x61, 0x62, 0x6c, 0x65, 0x4f, 0x70,
  0x00, 0x00, 0x00, 0x00, 0x01, 0x00, 0x00, 0x00, 0x10, 0x00, 0x00, 0x00,
  0x6e, 0xfd, 0xff, 0xff, 0x14, 0x00, 0x00, 0x00, 0xe4, 0x00, 0x00, 0x00,
  0x08, 0x00, 0x00, 0x00, 0x00, 0x00, 0x00, 0x09, 0xf8, 0x00, 0x00, 0x00,
  0xe4, 0xfc, 0xff, 0xff, 0x08, 0x00, 0x00, 0x00, 0x88, 0x00, 0x00, 0x00,
  0x10, 0x00, 0x00, 0x00, 0x00, 0x00, 0x00, 0x00, 0x00, 0x00, 0x00, 0x00,
  0x00, 0x00, 0x00, 0x00, 0x00, 0x00, 0x00, 0x00, 0x00, 0x00, 0x00, 0x00,
  0x00, 0x00, 0x00, 0x00, 0x00, 0x00, 0x00, 0x00, 0x00, 0x00, 0x00, 0x00,
  0x00, 0x00, 0x00, 0x00, 0x00, 0x00, 0x00, 0x00, 0x00, 0x00, 0x00, 0x00,
  0x00, 0x00, 0x00, 0x00, 0x00, 0x00, 0x00, 0x00, 0x00, 0x00, 0x00, 0x00,
  0x00, 0x00, 0x00, 0x00, 0x00, 0x00, 0x00, 0x00, 0x00, 0x00, 0x00, 0x00,
  0x00, 0x00, 0x00, 0x00, 0x00, 0x00, 0x00, 0x00, 0x00, 0x00, 0x00, 0x00,
  0x00, 0x00, 0x00, 0x00, 0x00, 0x00, 0x00, 0x00, 0x00, 0x00, 0x00, 0x00,
  0x00, 0x00, 0x00, 0x00, 0x00, 0x00, 0x00, 0x00, 0x00, 0x00, 0x00, 0x00,
  0x00, 0x00, 0x00, 0x00, 0x00, 0x00, 0x00, 0x00, 0x00, 0x00, 0x00, 0x00,
  0x00, 0x00, 0x00, 0x00, 0x00, 0x00, 0x00, 0x00, 0x00, 0x00, 0x00, 0x00,
  0x10, 0x00, 0x00, 0x00, 0x33, 0x50, 0x0c, 0x3b, 0xaf, 0xe0, 0x83, 0x3b,
  0x1f, 0xd3, 0x80, 0x3b, 0xc3, 0x4d, 0x54, 0x3b, 0x07, 0x6b, 0x10, 0x3b,
  0x21, 0x6e, 0x11, 0x3b, 0xf4, 0xbb, 0xe7, 0x3b, 0x15, 0xe5, 0xa8, 0x3b,
  0x9a, 0xf2, 0x82, 0x3b, 0xb9, 0xf0, 0x98, 0x3b, 0xe5, 0x14, 0x53, 0x3b,
  0x7e, 0x24, 0xe2, 0x3b, 0x8b, 0xff, 0x06, 0x3c, 0xd9, 0x02, 0x1e, 0x3c,
  0x2e, 0x92, 0xcc, 0x3b, 0x91, 0x95, 0x10, 0x3b, 0x18, 0x00, 0x00, 0x00,
  0x73, 0x65, 0x71, 0x75, 0x65, 0x6e, 0x74, 0x69, 0x61, 0x6c, 0x2f, 0x63,
  0x6f, 0x6e, 0x76, 0x32, 0x64, 0x2f, 0x43, 0x6f, 0x6e, 0x76, 0x32, 0x44,
  0x00, 0x00, 0x00, 0x00, 0x04, 0x00, 0x00, 0x00, 0x10, 0x00, 0x00, 0x00,
  0x03, 0x00, 0x00, 0x00, 0x01, 0x00, 0x00, 0x00, 0x09, 0x00, 0x00, 0x00,
  0x8e, 0xfe, 0xff, 0xff, 0x14, 0x00, 0x00, 0x00, 0x14, 0x00, 0x00, 0x00,
  0x07, 0x00, 0x00, 0x00, 0x00, 0x00, 0x00, 0x02, 0x28, 0x00, 0x00, 0x00,
  0x80, 0xfe, 0xff, 0xff, 0x18, 0x00, 0x00, 0x00, 0x73, 0x65, 0x71, 0x75,
  0x65, 0x6e, 0x74, 0x69, 0x61, 0x6c, 0x2f, 0x66, 0x6c, 0x61, 0x74, 0x74,
  0x65, 0x6e, 0x2f, 0x43, 0x6f, 0x6e, 0x73, 0x74, 0x00, 0x00, 0x00, 0x00,
  0x01, 0x00, 0x00, 0x00, 0x02, 0x00, 0x00, 0x00, 0xd2, 0xfe, 0xff, 0xff,
  0x14, 0x00, 0x00, 0x00, 0x14, 0x00, 0x00, 0x00, 0x06, 0x00, 0x00, 0x00,
  0x00, 0x00, 0x00, 0x02, 0x30, 0x00, 0x00, 0x00, 0xc4, 0xfe, 0xff, 0xff,
  0x22, 0x00, 0x00, 0x00, 0x73, 0x65, 0x71, 0x75, 0x65, 0x6e, 0x74, 0x69,
  0x61, 0x6c, 0x2f, 0x72, 0x65, 0x73, 0x68, 0x61, 0x70, 0x65, 0x2f, 0x52,
  0x65, 0x73, 0x68, 0x61, 0x70, 0x65, 0x2f, 0x73, 0x68, 0x61, 0x70, 0x65,
  0x2f, 0x33, 0x00, 0x00, 0x00, 0x00, 0x00, 0x00, 0x1a, 0xff, 0xff, 0xff,
  0x14, 0x00, 0x00, 0x00, 0x14, 0x00, 0x00, 0x00, 0x05, 0x00, 0x00, 0x00,
  0x00, 0x00, 0x00, 0x02, 0x30, 0x00, 0x00, 0x00, 0x0c, 0xff, 0xff, 0xff,
  0x22, 0x00, 0x00, 0x00, 0x73, 0x65, 0x71, 0x75, 0x65, 0x6e, 0x74, 0x69,
  0x61, 0x6c, 0x2f, 0x72, 0x65, 0x73, 0x68, 0x61, 0x70, 0x65, 0x2f, 0x52,
  0x65, 0x73, 0x68, 0x61, 0x70, 0x65, 0x2f, 0x73, 0x68, 0x61, 0x70, 0x65,
  0x2f, 0x32, 0x00, 0x00, 0x00, 0x00, 0x00, 0x00, 0x62, 0xff, 0xff, 0xff,
  0x14, 0x00, 0x00, 0x00, 0x14, 0x00, 0x00, 0x00, 0x03, 0x00, 0x00, 0x00,
  0x00, 0x00, 0x00, 0x02, 0x30, 0x00, 0x00, 0x00, 0x54, 0xff, 0xff, 0xff,
  0x22, 0x00, 0x00, 0x00, 0x73, 0x65, 0x71, 0x75, 0x65, 0x6e, 0x74, 0x69,
  0x61, 0x6c, 0x2f, 0x72, 0x65, 0x73, 0x68, 0x61, 0x70, 0x65, 0x2f, 0x52,
  0x65, 0x73, 0x68, 0x61, 0x70, 0x65, 0x2f, 0x73, 0x68, 0x61, 0x70, 0x65,
  0x2f, 0x31, 0x00, 0x00, 0x00, 0x00, 0x00, 0x00, 0xaa, 0xff, 0xff, 0xff,
  0x14, 0x00, 0x00, 0x00, 0x14, 0x00, 0x00, 0x00, 0x03, 0x00, 0x00, 0x00,
  0x00, 0x00, 0x00, 0x02, 0x38, 0x00, 0x00, 0x00, 0x9c, 0xff, 0xff, 0xff,
  0x28, 0x00, 0x00, 0x00, 0x73, 0x65, 0x71, 0x75, 0x65, 0x6e, 0x74, 0x69,
  0x61, 0x6c, 0x2f, 0x72, 0x65, 0x73, 0x68, 0x61, 0x70, 0x65, 0x2f, 0x73,
  0x74, 0x72, 0x69, 0x64, 0x65, 0x64, 0x5f, 0x73, 0x6c, 0x69, 0x63, 0x65,
  0x2f, 0x73, 0x74, 0x61, 0x63, 0x6b, 0x5f, 0x31, 0x00, 0x00, 0x00, 0x00,
  0x01, 0x00, 0x00, 0x00, 0x01, 0x00, 0x00, 0x00, 0x00, 0x00, 0x0e, 0x00,
  0x18, 0x00, 0x14, 0x00, 0x13, 0x00, 0x0c, 0x00, 0x08, 0x00, 0x04, 0x00,
  0x0e, 0x00, 0x00, 0x00, 0x18, 0x00, 0x00, 0x00, 0x18, 0x00, 0x00, 0x00,
  0x02, 0x00, 0x00, 0x00, 0x00, 0x00, 0x00, 0x02, 0x38, 0x00, 0x00, 0x00,
  0x04, 0x00, 0x04, 0x00, 0x04, 0x00, 0x00, 0x00, 0x26, 0x00, 0x00, 0x00,
  0x73, 0x65, 0x71, 0x75, 0x65, 0x6e, 0x74, 0x69, 0x61, 0x6c, 0x2f, 0x72,
  0x65, 0x73, 0x68, 0x61, 0x70, 0x65, 0x2f, 0x73, 0x74, 0x72, 0x69, 0x64,
  0x65, 0x64, 0x5f, 0x73, 0x6c, 0x69, 0x63, 0x65, 0x2f, 0x73, 0x74, 0x61,
  0x63, 0x6b, 0x00, 0x00, 0x01, 0x00, 0x00, 0x00, 0x01, 0x00, 0x00, 0x00,
  0x14, 0x00, 0x1c, 0x00, 0x18, 0x00, 0x17, 0x00, 0x10, 0x00, 0x0c, 0x00,
  0x08, 0x00, 0x00, 0x00, 0x00, 0x00, 0x04, 0x00, 0x14, 0x00, 0x00, 0x00,
  0x18, 0x00, 0x00, 0x00, 0x30, 0x00, 0x00, 0x00, 0x4c, 0x00, 0x00, 0x00,
  0x01, 0x00, 0x00, 0x00, 0x00, 0x00, 0x00, 0x09, 0x64, 0x00, 0x00, 0x00,
  0x03, 0x00, 0x00, 0x00, 0xff, 0xff, 0xff, 0xff, 0x05, 0x00, 0x00, 0x00,
  0x09, 0x00, 0x00, 0x00, 0x0c, 0x00, 0x0c, 0x00, 0x00, 0x00, 0x00, 0x00,
  0x08, 0x00, 0x04, 0x00, 0x0c, 0x00, 0x00, 0x00, 0x08, 0x00, 0x00, 0x00,
  0x10, 0x00, 0x00, 0x00, 0x01, 0x00, 0x00, 0x00, 0x80, 0xff, 0xff, 0xff,
  0xff, 0xff, 0xff, 0xff, 0x01, 0x00, 0x00, 0x00, 0x81, 0x80, 0x80, 0x3b,
  0x1f, 0x00, 0x00, 0x00, 0x73, 0x65, 0x72, 0x76, 0x69, 0x6e, 0x67, 0x5f,
  0x64, 0x65, 0x66, 0x61, 0x75, 0x6c, 0x74, 0x5f, 0x72, 0x65, 0x73, 0x68,
  0x61, 0x70, 0x65, 0x5f, 0x69, 0x6e, 0x70, 0x75, 0x74, 0x3a, 0x30, 0x00,
  0x03, 0x00, 0x00, 0x00, 0x01, 0x00, 0x00, 0x00, 0x05, 0x00, 0x00, 0x00,
  0x09, 0x00, 0x00, 0x00, 0x08, 0x00, 0x00, 0x00, 0x9c, 0x00, 0x00, 0x00,
  0x80, 0x00, 0x00, 0x00, 0x70, 0x00, 0x00, 0x00, 0x60, 0x00, 0x00, 0x00,
  0x4c, 0x00, 0x00, 0x00, 0x2c, 0x00, 0x00, 0x00, 0x18, 0x00, 0x00, 0x00,
  0x04, 0x00, 0x00, 0x00, 0xd0, 0xff, 0xff, 0xff, 0x19, 0x00, 0x00, 0x00,
  0x02, 0x00, 0x00, 0x00, 0x00, 0x00, 0x00, 0x19, 0xe0, 0xff, 0xff, 0xff,
  0x09, 0x00, 0x00, 0x00, 0x04, 0x00, 0x00, 0x00, 0x00, 0x00, 0x00, 0x09,
  0xf0, 0xff, 0xff, 0xff, 0x11, 0x00, 0x00, 0x00, 0x02, 0x00, 0x00, 0x00,
  0x00, 0x00, 0x00, 0x11, 0x0c, 0x00, 0x10, 0x00, 0x0f, 0x00, 0x00, 0x00,
  0x08, 0x00, 0x04, 0x00, 0x0c, 0x00, 0x00, 0x00, 0x03, 0x00, 0x00, 0x00,
  0x03, 0x00, 0x00, 0x00, 0x00, 0x00, 0x00, 0x03, 0xdc, 0xff, 0xff, 0xff,
  0x16, 0x00, 0x00, 0x00, 0x00, 0x00, 0x00, 0x16, 0xe8, 0xff, 0xff, 0xff,
  0x53, 0x00, 0x00, 0x00, 0x00, 0x00, 0x00, 0x53, 0xf4, 0xff, 0xff, 0xff,
  0x2d, 0x00, 0x00, 0x00, 0x00, 0x00, 0x00, 0x2d, 0x0c, 0x00, 0x0c, 0x00,
  0x0b, 0x00, 0x00, 0x00, 0x00, 0x00, 0x04, 0x00, 0x0c, 0x00, 0x00, 0x00,
  0x4d, 0x00, 0x00, 0x00, 0x00, 0x00, 0x00, 0x4d
};
unsigned int model_len = 8288;
