unsigned char model[] = {
  0x1c, 0x00, 0x00, 0x00, 0x54, 0x46, 0x4c, 0x33, 0x14, 0x00, 0x20, 0x00,
  0x1c, 0x00, 0x18, 0x00, 0x14, 0x00, 0x10, 0x00, 0x0c, 0x00, 0x00, 0x00,
  0x08, 0x00, 0x04, 0x00, 0x14, 0x00, 0x00, 0x00, 0x1c, 0x00, 0x00, 0x00,
  0x88, 0x00, 0x00, 0x00, 0xe0, 0x00, 0x00, 0x00, 0xa0, 0x14, 0x00, 0x00,
  0xb0, 0x14, 0x00, 0x00, 0xd0, 0x22, 0x00, 0x00, 0x03, 0x00, 0x00, 0x00,
  0x01, 0x00, 0x00, 0x00, 0x04, 0x00, 0x00, 0x00, 0x9e, 0xea, 0xff, 0xff,
  0x0c, 0x00, 0x00, 0x00, 0x1c, 0x00, 0x00, 0x00, 0x38, 0x00, 0x00, 0x00,
  0x0f, 0x00, 0x00, 0x00, 0x73, 0x65, 0x72, 0x76, 0x69, 0x6e, 0x67, 0x5f,
  0x64, 0x65, 0x66, 0x61, 0x75, 0x6c, 0x74, 0x00, 0x01, 0x00, 0x00, 0x00,
  0x04, 0x00, 0x00, 0x00, 0x94, 0xff, 0xff, 0xff, 0x0d, 0x00, 0x00, 0x00,
  0x04, 0x00, 0x00, 0x00, 0x07, 0x00, 0x00, 0x00, 0x64, 0x65, 0x6e, 0x73,
  0x65, 0x5f, 0x31, 0x00, 0x01, 0x00, 0x00, 0x00, 0x04, 0x00, 0x00, 0x00,
  0x3e, 0xeb, 0xff, 0xff, 0x04, 0x00, 0x00, 0x00, 0x0e, 0x00, 0x00, 0x00,
  0x63, 0x6f, 0x6e, 0x76, 0x32, 0x64, 0x5f, 0x33, 0x5f, 0x69, 0x6e, 0x70,
  0x75, 0x74, 0x00, 0x00, 0x02, 0x00, 0x00, 0x00, 0x34, 0x00, 0x00, 0x00,
  0x04, 0x00, 0x00, 0x00, 0xdc, 0xff, 0xff, 0xff, 0x10, 0x00, 0x00, 0x00,
  0x04, 0x00, 0x00, 0x00, 0x13, 0x00, 0x00, 0x00, 0x43, 0x4f, 0x4e, 0x56,
  0x45, 0x52, 0x53, 0x49, 0x4f, 0x4e, 0x5f, 0x4d, 0x45, 0x54, 0x41, 0x44,
  0x41, 0x54, 0x41, 0x00, 0x08, 0x00, 0x0c, 0x00, 0x08, 0x00, 0x04, 0x00,
  0x08, 0x00, 0x00, 0x00, 0x0f, 0x00, 0x00, 0x00, 0x04, 0x00, 0x00, 0x00,
  0x13, 0x00, 0x00, 0x00, 0x6d, 0x69, 0x6e, 0x5f, 0x72, 0x75, 0x6e, 0x74,
  0x69, 0x6d, 0x65, 0x5f, 0x76, 0x65, 0x72, 0x73, 0x69, 0x6f, 0x6e, 0x00,
  0x11, 0x00, 0x00, 0x00, 0xbc, 0x13, 0x00, 0x00, 0xb4, 0x13, 0x00, 0x00,
  0x9c, 0x13, 0x00, 0x00, 0xdc, 0x11, 0x00, 0x00, 0x8c, 0x11, 0x00, 0x00,
  0x7c, 0x0b, 0x00, 0x00, 0xec, 0x0a, 0x00, 0x00, 0xdc, 0x00, 0x00, 0x00,
  0xbc, 0x00, 0x00, 0x00, 0xb4, 0x00, 0x00, 0x00, 0xac, 0x00, 0x00, 0x00,
  0xa4, 0x00, 0x00, 0x00, 0x9c, 0x00, 0x00, 0x00, 0x94, 0x00, 0x00, 0x00,
  0x8c, 0x00, 0x00, 0x00, 0x6c, 0x00, 0x00, 0x00, 0x04, 0x00, 0x00, 0x00,
  0xfe, 0xeb, 0xff, 0xff, 0x04, 0x00, 0x00, 0x00, 0x58, 0x00, 0x00, 0x00,
  0x0c, 0x00, 0x00, 0x00, 0x08, 0x00, 0x0e, 0x00, 0x08, 0x00, 0x04, 0x00,
  0x08, 0x00, 0x00, 0x00, 0x10, 0x00, 0x00, 0x00, 0x28, 0x00, 0x00, 0x00,
  0x00, 0x00, 0x06, 0x00, 0x08, 0x00, 0x04, 0x00, 0x06, 0x00, 0x00, 0x00,
  0x04, 0x00, 0x00, 0x00, 0x01, 0x00, 0x00, 0x00, 0xeb, 0x03, 0x00, 0x00,
  0x00, 0x00, 0x0a, 0x00, 0x10, 0x00, 0x0c, 0x00, 0x08, 0x00, 0x04, 0x00,
  0x0a, 0x00, 0x00, 0x00, 0x01, 0x00, 0x00, 0x00, 0x02, 0x00, 0x00, 0x00,
  0x04, 0x00, 0x00, 0x00, 0x05, 0x00, 0x00, 0x00, 0x32, 0x2e, 0x39, 0x2e,
  0x30, 0x00, 0x00, 0x00, 0x62, 0xec, 0xff, 0xff, 0x04, 0x00, 0x00, 0x00,
  0x10, 0x00, 0x00, 0x00, 0x31, 0x2e, 0x31, 0x34, 0x2e, 0x30, 0x00, 0x00,
  0x00, 0x00, 0x00, 0x00, 0x00, 0x00, 0x00, 0x00, 0xac, 0xdf, 0xff, 0xff,
  0xb0, 0xdf, 0xff, 0xff, 0xb4, 0xdf, 0xff, 0xff, 0xb8, 0xdf, 0xff, 0xff,
  0xbc, 0xdf, 0xff, 0xff, 0xc0, 0xdf, 0xff, 0xff, 0x96, 0xec, 0xff, 0xff,
  0x04, 0x00, 0x00, 0x00, 0x10, 0x00, 0x00, 0x00, 0x8b, 0xff, 0xff, 0xff,
  0x88, 0xff, 0xff, 0xff, 0xd9, 0xfc, 0xff, 0xff, 0xfc, 0x01, 0x00, 0x00,
  0xb2, 0xec, 0xff, 0xff, 0x04, 0x00, 0x00, 0x00, 0x00, 0x0a, 0x00, 0x00,
  0x02, 0x16, 0xd7, 0x11, 0xdd, 0xed, 0x07, 0xff, 0x03, 0xfd, 0xdc, 0xf2,
  0x0d, 0x01, 0x11, 0xdf, 0xe3, 0xf2, 0x06, 0x08, 0xfe, 0x0c, 0x10, 0xf8,
  0xf5, 0xf7, 0x0d, 0x06, 0x0c, 0xec, 0x17, 0x0c, 0xef, 0x05, 0xd9, 0x16,
  0xe2, 0xe1, 0xf4, 0x0f, 0x02, 0xe6, 0xef, 0x0b, 0xfd, 0x17, 0xfe, 0xde,
  0xd4, 0xe3, 0x03, 0x01, 0x0d, 0x11, 0x0e, 0xf3, 0x02, 0x04, 0x03, 0x1a,
  0x11, 0xdf, 0x21, 0xfb, 0xf2, 0x01, 0xeb, 0x08, 0xda, 0xd7, 0xf3, 0x0a,
  0x00, 0x01, 0xdf, 0xfd, 0x0b, 0xfc, 0x10, 0xea, 0xe2, 0xe2, 0x05, 0xf7,
  0xf8, 0x08, 0x04, 0x03, 0xfe, 0x00, 0x00, 0x0a, 0x12, 0xda, 0x16, 0xfa,
  0xf4, 0x0f, 0xe1, 0x13, 0xe2, 0xdd, 0xfc, 0x08, 0x12, 0xfd, 0xd2, 0x0e,
  0x0d, 0x10, 0xff, 0xe2, 0xe7, 0xf2, 0x06, 0x0e, 0x00, 0x0d, 0x1b, 0x0f,
  0xfb, 0xfd, 0xf1, 0x06, 0xf7, 0xcf, 0x1a, 0xff, 0x02, 0x11, 0xe7, 0x16,
  0xef, 0xe5, 0x06, 0x0a, 0x03, 0xfe, 0xd5, 0x0b, 0x0c, 0x01, 0x12, 0xda,
  0xd0, 0xea, 0xf0, 0x08, 0x07, 0xf5, 0x16, 0xf2, 0x04, 0xf8, 0x0b, 0x0a,
  0x00, 0xe9, 0x20, 0xfe, 0xfb, 0x0d, 0xd5, 0x0a, 0xdd, 0xde, 0x02, 0x09,
  0x0b, 0xff, 0xd9, 0xf9, 0x19, 0xfe, 0xfe, 0xe5, 0xd3, 0xfd, 0x01, 0x06,
  0x0c, 0xf3, 0x18, 0xfe, 0xf2, 0xfe, 0x07, 0x08, 0xf6, 0xeb, 0x0f, 0x11,
  0xff, 0xfa, 0xde, 0x1d, 0xf0, 0xeb, 0x05, 0x01, 0x17, 0xf7, 0xe4, 0x00,
  0x10, 0x0a, 0x0f, 0xf0, 0xd5, 0xf5, 0x0e, 0x04, 0xf3, 0xf8, 0x16, 0x09,
  0xfa, 0xf0, 0xf9, 0x16, 0xf9, 0xda, 0x2a, 0x03, 0xea, 0xf8, 0xef, 0x07,
  0xe2, 0xdd, 0x00, 0xfe, 0x0b, 0xf5, 0xe6, 0x06, 0x0e, 0x0b, 0x05, 0xed,
  0xde, 0xfb, 0x02, 0x0b, 0x0d, 0x0c, 0x03, 0x00, 0x0c, 0x0b, 0xf6, 0x00,
  0x09, 0xea, 0x1a, 0xff, 0xf1, 0x03, 0xf7, 0x08, 0xda, 0xdb, 0xf5, 0x10,
  0xff, 0xf2, 0xd9, 0x0a, 0x05, 0xfe, 0xf8, 0xee, 0xe1, 0x01, 0x09, 0x02,
  0xf6, 0xf8, 0x0f, 0xfe, 0x0e, 0xf8, 0x05, 0x07, 0x07, 0xd5, 0x0b, 0x11,
  0x03, 0x01, 0xed, 0xfa, 0xf6, 0xd7, 0x14, 0xf7, 0x0e, 0xec, 0xe8, 0x04,
  0x01, 0x1a, 0xf2, 0xd3, 0xe9, 0xed, 0x10, 0xf7, 0xf6, 0xf0, 0xf6, 0x09,
  0x00, 0x04, 0xfb, 0x16, 0xfc, 0xdd, 0x0f, 0x07, 0x0e, 0x05, 0xfd, 0xef,
  0xf7, 0xfa, 0x05, 0xf5, 0xf2, 0xf5, 0x03, 0x01, 0x14, 0x04, 0xf3, 0x00,
  0xfb, 0xfc, 0x0a, 0xf1, 0x05, 0xfc, 0xf1, 0xfb, 0xf9, 0xfa, 0x0d, 0x04,
  0xf8, 0x12, 0xf8, 0xf6, 0x15, 0x0f, 0x06, 0xe6, 0x07, 0xfd, 0x0c, 0x02,
  0x00, 0x00, 0x0f, 0x00, 0x0e, 0x03, 0xef, 0xfc, 0xfb, 0x17, 0xfb, 0xf3,
  0xfd, 0xf9, 0xe8, 0x05, 0xf2, 0xfa, 0xff, 0x08, 0x10, 0x0f, 0xd4, 0x05,
  0x12, 0x03, 0x00, 0xeb, 0xf4, 0xfd, 0xf9, 0xf7, 0xde, 0xf9, 0x02, 0xf9,
  0xf9, 0xf8, 0xee, 0x0d, 0x0d, 0x0c, 0xfc, 0x0b, 0xfc, 0xfb, 0xfe, 0x0b,
  0x0d, 0x03, 0xf5, 0x08, 0xff, 0x16, 0xc9, 0x01, 0x14, 0xfd, 0xfc, 0xea,
  0x0c, 0x15, 0xf4, 0xec, 0xee, 0x0a, 0x11, 0x01, 0xe6, 0xe4, 0x05, 0x13,
  0x17, 0x08, 0xfd, 0x0d, 0xfa, 0xec, 0x15, 0xf7, 0x03, 0xf7, 0x05, 0xe0,
  0xf7, 0x00, 0xc3, 0x02, 0xfc, 0xf2, 0x04, 0xf6, 0x0c, 0x11, 0x13, 0xfd,
  0xda, 0x10, 0x0e, 0xf2, 0xe5, 0xf2, 0xf8, 0x19, 0x04, 0x12, 0xfd, 0x04,
  0x00, 0xec, 0x18, 0x07, 0xf0, 0x03, 0x0a, 0xfc, 0xec, 0x0f, 0xd9, 0xfd,
  0x05, 0xe0, 0x0c, 0xfb, 0x15, 0x0b, 0x0a, 0xf7, 0xef, 0x04, 0xfc, 0x0e,
  0xf3, 0xec, 0xf6, 0x10, 0x14, 0x0b, 0x0e, 0x0c, 0x0c, 0xf6, 0x18, 0xf1,
  0xf1, 0x0d, 0x06, 0xf3, 0xf0, 0x16, 0xdb, 0xf6, 0x05, 0xdb, 0x05, 0xff,
  0xfa, 0xfd, 0xf4, 0xf1, 0xe7, 0x02, 0x0e, 0x07, 0xe5, 0xdc, 0xf1, 0x0c,
  0x0e, 0xfc, 0xfa, 0xf2, 0x0f, 0xf5, 0x0b, 0x06, 0xf9, 0x10, 0x02, 0xe7,
  0xfc, 0x0d, 0xde, 0x08, 0x14, 0xf7, 0xfa, 0xe3, 0x1a, 0x14, 0x0f, 0xed,
  0xf1, 0x01, 0x0c, 0x0d, 0xf4, 0xd7, 0xfc, 0xfe, 0x1b, 0x07, 0xfa, 0xf0,
  0x00, 0x00, 0x01, 0x0d, 0x0a, 0x0f, 0x0c, 0xf0, 0xff, 0x16, 0xcf, 0xfb,
  0x11, 0xe9, 0xff, 0xe0, 0xfb, 0xfb, 0x12, 0x09, 0xdd, 0xff, 0xff, 0xf5,
  0xed, 0xf2, 0x09, 0x1c, 0x19, 0x0c, 0xf2, 0xfb, 0x00, 0xf6, 0x14, 0x10,
  0x06, 0x0b, 0xf1, 0xf0, 0xe9, 0x1c, 0xd6, 0x03, 0x01, 0xe3, 0xfa, 0xe8,
  0x18, 0x0f, 0x0f, 0xec, 0xee, 0x01, 0x19, 0x0c, 0xf8, 0xda, 0xf9, 0x18,
  0x05, 0x14, 0xf8, 0xf7, 0xf4, 0xef, 0x0a, 0x0f, 0x0f, 0x0e, 0xf3, 0xe5,
  0xed, 0x0c, 0xd2, 0x05, 0x09, 0xe1, 0x10, 0xf3, 0x02, 0x0d, 0x0a, 0xf0,
  0xda, 0x05, 0x05, 0x10, 0xea, 0xdf, 0x03, 0xf2, 0x03, 0x0f, 0x05, 0xf5,
  0x02, 0x0a, 0xda, 0xf9, 0xf6, 0xf8, 0xf7, 0xf5, 0xeb, 0x10, 0xcd, 0xf7,
  0x00, 0xdc, 0x0c, 0xe6, 0x11, 0x17, 0xee, 0xec, 0xf0, 0xf6, 0x13, 0xfb,
  0xfb, 0xf8, 0xee, 0xfa, 0x0f, 0x08, 0x03, 0x08, 0xf7, 0x0a, 0xd1, 0xfa,
  0xff, 0x0c, 0x0c, 0xdd, 0x02, 0x00, 0xba, 0xf4, 0x0f, 0xf2, 0x08, 0xf5,
  0x17, 0xf8, 0xfb, 0x06, 0xd9, 0x11, 0x18, 0xf8, 0xfe, 0xf1, 0xfc, 0x08,
  0xff, 0xf9, 0x01, 0xf6, 0x0e, 0xfd, 0xdb, 0xf0, 0xf3, 0xf7, 0xf2, 0xeb,
  0xff, 0x13, 0xca, 0xed, 0x04, 0xe2, 0x15, 0xed, 0x14, 0x16, 0x0d, 0xf9,
  0xef, 0x13, 0xf9, 0x00, 0xf3, 0xf8, 0xf7, 0xfe, 0x13, 0x15, 0x0d, 0xfa,
  0xf5, 0xf5, 0xc7, 0xf9, 0x02, 0x03, 0xf8, 0xea, 0xfe, 0x17, 0xca, 0xed,
  0x08, 0xe8, 0x08, 0xdf, 0x05, 0x04, 0x0a, 0xfb, 0xdb, 0x0b, 0x09, 0x0f,
  0xea, 0xe6, 0x01, 0x0c, 0x0a, 0x0d, 0xf6, 0xf0, 0xf7, 0xed, 0xcd, 0xfc,
  0xff, 0xfd, 0x0b, 0xf1, 0xf2, 0x18, 0xd6, 0xf1, 0x01, 0xef, 0x19, 0xd4,
  0x10, 0xff, 0x08, 0x01, 0xed, 0x02, 0x05, 0x0a, 0xee, 0xe5, 0xf9, 0x0a,
  0x07, 0xfc, 0xfa, 0xf2, 0x0c, 0x01, 0xe1, 0x10, 0x00, 0x08, 0xf4, 0xdc,
  0xf5, 0x10, 0xd6, 0xfe, 0x0c, 0xf5, 0x12, 0xd5, 0x01, 0x00, 0xf9, 0x05,
  0xd4, 0x0b, 0x12, 0x0b, 0xe6, 0xef, 0xfa, 0x0e, 0xfd, 0xfa, 0x0c, 0x07,
  0x0a, 0xf6, 0xde, 0xf3, 0xf1, 0xfb, 0xf8, 0xe5, 0x06, 0x18, 0xc8, 0xec,
  0x0a, 0xdd, 0x14, 0xe8, 0x04, 0x05, 0xfa, 0xec, 0xde, 0xfa, 0xfc, 0xf4,
  0xea, 0xe3, 0x05, 0xfd, 0x16, 0x0d, 0xfd, 0x08, 0x0c, 0x03, 0xd5, 0xfd,
  0x03, 0x03, 0xf3, 0xea, 0xf1, 0x07, 0xb8, 0xf7, 0x00, 0xfb, 0x14, 0xdc,
  0xfd, 0x06, 0x05, 0xf2, 0xe0, 0x00, 0x08, 0x03, 0xee, 0xf5, 0xe5, 0x02,
  0xf5, 0x09, 0xf4, 0xfc, 0xfc, 0xea, 0xcb, 0x09, 0x0e, 0xfb, 0x01, 0xf5,
  0x0f, 0x07, 0xc9, 0xfe, 0xff, 0xf9, 0x00, 0xf1, 0x01, 0x12, 0x0b, 0xfa,
  0xe2, 0xf0, 0x07, 0xf8, 0x08, 0xe1, 0x0a, 0x0e, 0xf9, 0x01, 0x0f, 0x08,
  0x04, 0x0b, 0xe6, 0xf1, 0xf4, 0x0d, 0xff, 0x05, 0x17, 0xf6, 0xf3, 0xf8,
  0xff, 0xd7, 0xec, 0x10, 0x11, 0x0e, 0x01, 0x0b, 0xe1, 0xf9, 0xf1, 0x04,
  0x0b, 0xde, 0x0d, 0xfc, 0x0a, 0xee, 0xf3, 0x0c, 0x0b, 0x07, 0xfb, 0xf6,
  0x0c, 0xf7, 0x0d, 0xf3, 0x0d, 0xf7, 0x02, 0xf0, 0xf1, 0xce, 0xe1, 0x21,
  0x02, 0xf5, 0x15, 0xf6, 0xe6, 0xed, 0x05, 0xff, 0xf5, 0xd9, 0x13, 0x08,
  0x00, 0xf5, 0xf5, 0x10, 0xf8, 0x03, 0x3b, 0xf1, 0x0f, 0xf3, 0xf4, 0x0d,
  0xfb, 0xe7, 0x1a, 0xef, 0xec, 0xdc, 0xdf, 0x0b, 0x0a, 0x08, 0x05, 0x08,
  0xfe, 0x03, 0x0a, 0x0d, 0xfa, 0xcd, 0x09, 0x14, 0x00, 0xec, 0xf1, 0x0c,
  0xf0, 0xf5, 0x4e, 0x04, 0xf9, 0x04, 0xfa, 0x01, 0xed, 0x04, 0x16, 0x06,
  0xf1, 0xe5, 0xef, 0x0c, 0x0b, 0x0b, 0x1f, 0x0d, 0xfb, 0xf9, 0xf2, 0xf9,
  0x05, 0xdd, 0x05, 0xfb, 0xf9, 0xfc, 0xf9, 0x08, 0x08, 0x0c, 0x47, 0x0b,
  0xfe, 0x0c, 0x07, 0xfd, 0xdd, 0xfe, 0x29, 0xfc, 0xff, 0xe7, 0xe2, 0x16,
  0xf1, 0x08, 0x11, 0x02, 0xf6, 0xf0, 0xf5, 0xee, 0xfe, 0xd6, 0x02, 0x16,
  0xf8, 0xf0, 0x0f, 0x0f, 0xfb, 0xf0, 0x47, 0xfa, 0x0e, 0xf2, 0x00, 0xfb,
  0xe3, 0xeb, 0x17, 0xf2, 0xf0, 0xee, 0xe4, 0x18, 0x0a, 0xff, 0x20, 0xff,
  0xfb, 0x0a, 0x01, 0xf3, 0x03, 0xef, 0x01, 0x13, 0xf8, 0xfd, 0x04, 0xfc,
  0x06, 0xf9, 0x4a, 0x0e, 0x04, 0x04, 0x07, 0x0c, 0xed, 0xf3, 0x13, 0xea,
  0xe7, 0xf2, 0xf4, 0x20, 0xf4, 0x08, 0x15, 0xf9, 0xfa, 0xf1, 0x0c, 0x01,
  0x13, 0xd9, 0x11, 0x18, 0x0c, 0xf8, 0x06, 0xf6, 0x0d, 0xef, 0x4d, 0x01,
  0xf1, 0xf8, 0x0d, 0x0c, 0xde, 0xec, 0x11, 0xf5, 0x04, 0xec, 0xf8, 0x20,
  0xfe, 0xfd, 0x03, 0x0b, 0xec, 0xf1, 0x04, 0xee, 0xff, 0xeb, 0x10, 0x09,
  0x18, 0xf9, 0xf9, 0xff, 0x06, 0x09, 0x4e, 0x0f, 0x0f, 0xf2, 0x0e, 0xf1,
  0xd5, 0xf7, 0x13, 0xf6, 0xf0, 0xef, 0xe7, 0x1d, 0xfe, 0x07, 0x21, 0xf9,
  0xf3, 0xef, 0xfe, 0xf0, 0xfc, 0xe6, 0x11, 0x06, 0xf9, 0xeb, 0xf7, 0x0d,
  0x08, 0x00, 0x37, 0x08, 0xf5, 0xf8, 0xf4, 0x06, 0xe9, 0x00, 0x18, 0xe8,
  0xe7, 0xef, 0xe5, 0x11, 0x09, 0xf2, 0x0d, 0x0c, 0xed, 0x01, 0xec, 0x06,
  0x00, 0xd7, 0x1c, 0xff, 0x02, 0xe8, 0xfa, 0xfc, 0x10, 0xf7, 0x3b, 0x0e,
  0x0b, 0xf6, 0xf8, 0xf3, 0xe5, 0xff, 0x1b, 0xf9, 0xf9, 0xef, 0x0e, 0xee,
  0x08, 0x10, 0xf2, 0x01, 0xdd, 0x0d, 0xf8, 0x00, 0xf5, 0xda, 0x07, 0x00,
  0x01, 0x02, 0x05, 0xf1, 0x08, 0xf8, 0x24, 0xf0, 0xfe, 0xf4, 0x00, 0xf6,
  0xf5, 0x03, 0x01, 0xf2, 0x0d, 0xf0, 0x06, 0xe9, 0xfd, 0xfe, 0xfa, 0xf5,
  0xdb, 0xfc, 0x12, 0x05, 0xf5, 0xea, 0xf4, 0x0a, 0x0c, 0xfd, 0xf7, 0xfa,
  0x03, 0xf9, 0x2b, 0x0e, 0x07, 0x03, 0x0a, 0xe8, 0xfb, 0x01, 0x01, 0xf9,
  0x0b, 0xe0, 0x0d, 0xe5, 0xff, 0x0e, 0x06, 0x04, 0xe0, 0x05, 0x0f, 0xf2,
  0xdf, 0xed, 0x0e, 0x13, 0x0e, 0xf9, 0xf6, 0xfd, 0x0a, 0xee, 0x2c, 0x0d,
  0x02, 0xf7, 0x0d, 0xe7, 0xec, 0xfd, 0xf1, 0x05, 0xff, 0xe9, 0x09, 0xef,
  0xf6, 0xfb, 0xf7, 0x0c, 0xd9, 0x00, 0x14, 0xff, 0xee, 0xe9, 0x03, 0x12,
  0x06, 0x02, 0xfe, 0xf7, 0xf7, 0xf6, 0x23, 0xf8, 0x07, 0xf1, 0x08, 0xed,
  0xe5, 0xfc, 0xe6, 0xfd, 0xf2, 0xef, 0xfa, 0xf7, 0x11, 0x0d, 0xfa, 0xf6,
  0xf1, 0x06, 0x01, 0xfd, 0xed, 0xf6, 0xf6, 0xfc, 0x10, 0x07, 0x0e, 0xf0,
  0x0e, 0xff, 0x1e, 0xf3, 0x07, 0x0f, 0x06, 0xfd, 0xf4, 0x02, 0xe3, 0xfc,
  0x07, 0xe9, 0x05, 0xe6, 0xfa, 0xf8, 0xf8, 0x0b, 0xe2, 0xf5, 0x03, 0xf5,
  0xe2, 0xde, 0xf8, 0x11, 0x14, 0x01, 0x01, 0x0c, 0xff, 0x05, 0x13, 0x0f,
  0xf9, 0xf2, 0xf0, 0xf3, 0xfa, 0x03, 0xf2, 0xed, 0x00, 0xf2, 0x0b, 0xef,
  0x09, 0x06, 0xf2, 0x09, 0xda, 0x0d, 0xf6, 0x07, 0xe2, 0xe7, 0x01, 0xfa,
  0x08, 0xfd, 0xf5, 0x0c, 0xfc, 0x0a, 0x2b, 0x0f, 0xfe, 0x02, 0xf5, 0xed,
  0xf5, 0x09, 0xf0, 0xfc, 0xfe, 0xe7, 0x03, 0xfd, 0x01, 0x0c, 0xfe, 0x0a,
  0xef, 0xf5, 0x09, 0x05, 0xe1, 0xf6, 0x0f, 0x04, 0x0a, 0x0c, 0x02, 0xf7,
  0xf8, 0x0f, 0x21, 0xfb, 0x0e, 0x02, 0xf0, 0xe0, 0xdd, 0x0b, 0xea, 0xe7,
  0x09, 0xe4, 0x09, 0x0d, 0x0f, 0x14, 0x11, 0x04, 0xd5, 0xf3, 0x14, 0x06,
  0xda, 0xe6, 0x15, 0x07, 0x16, 0x07, 0x00, 0xf8, 0xf7, 0x0e, 0x36, 0xfa,
  0xf5, 0xf9, 0xfd, 0xed, 0xe7, 0x0a, 0xeb, 0x01, 0x0e, 0xeb, 0x0f, 0xe5,
  0x05, 0x10, 0x02, 0x03, 0xdc, 0x0f, 0x18, 0x0a, 0xea, 0xde, 0xef, 0x05,
  0x1b, 0xfb, 0xfd, 0x04, 0x08, 0xed, 0x22, 0x06, 0x03, 0x01, 0xfe, 0xec,
  0xd2, 0x07, 0xe7, 0xf2, 0x05, 0xf6, 0x0e, 0xe8, 0x07, 0x18, 0x02, 0xf9,
  0xee, 0x10, 0x00, 0x08, 0xe9, 0xed, 0xfa, 0x0a, 0xfa, 0xfc, 0x05, 0x06,
  0xf1, 0xf9, 0xfd, 0x10, 0x0e, 0x07, 0x10, 0xe2, 0xe6, 0x03, 0xc6, 0xed,
  0xfb, 0xf8, 0x1e, 0xcb, 0x01, 0x08, 0xf1, 0xfc, 0xd6, 0x14, 0x07, 0xf3,
  0xee, 0xf6, 0xe3, 0xf1, 0x02, 0xfb, 0x02, 0x06, 0xf7, 0xfa, 0xb5, 0xf6,
  0xf6, 0xf5, 0xf2, 0xdd, 0x0b, 0x0a, 0xde, 0x11, 0xfc, 0x15, 0x0b, 0xe0,
  0xf7, 0xf9, 0xe0, 0xf2, 0xde, 0x05, 0x05, 0xf2, 0xd8, 0x0d, 0xe0, 0xee,
  0xea, 0x16, 0x0c, 0x02, 0xff, 0xf5, 0x8d, 0x10, 0xf0, 0x05, 0xfa, 0xf2,
  0x02, 0xfe, 0xc1, 0x14, 0x00, 0xf5, 0x15, 0xcc, 0x09, 0x07, 0xdb, 0xfb,
  0xe4, 0x0f, 0x15, 0x0d, 0xe8, 0x04, 0xe3, 0xef, 0xf3, 0x09, 0x10, 0xf4,
  0xf5, 0xf5, 0x9c, 0xf7, 0x02, 0x0f, 0xf9, 0xec, 0x09, 0x08, 0xd6, 0x11,
  0x04, 0x02, 0x09, 0xda, 0x0f, 0x05, 0xd9, 0xf5, 0xf4, 0x09, 0x07, 0x05,
  0xdd, 0x10, 0xf3, 0xf3, 0xef, 0x12, 0x0d, 0x09, 0xf0, 0x0e, 0x81, 0xfe,
  0xf5, 0xf2, 0x0c, 0xf0, 0x20, 0x0e, 0xba, 0x14, 0x14, 0xfd, 0x0b, 0xe4,
  0xfa, 0x0e, 0xe8, 0xe4, 0xec, 0x0a, 0xf7, 0x0b, 0xd8, 0x02, 0xf0, 0x00,
  0xf1, 0x0d, 0xfb, 0xf0, 0xf1, 0x02, 0xa0, 0x06, 0x01, 0xf2, 0x0a, 0xf8,
  0x21, 0xf9, 0xcd, 0xff, 0xfd, 0x07, 0x10, 0xda, 0xf4, 0x05, 0xd3, 0xfb,
  0xf3, 0x0c, 0x04, 0x0f, 0xcf, 0x1c, 0xe3, 0x09, 0xf4, 0x1c, 0x0f, 0xf3,
  0xf3, 0x0a, 0x93, 0xfa, 0xf5, 0xfe, 0x06, 0xea, 0x09, 0x04, 0xc9, 0x04,
  0x16, 0xfc, 0x1f, 0xd2, 0x01, 0xfe, 0xd6, 0xf0, 0xfd, 0x16, 0xfb, 0x0d,
  0xcf, 0x17, 0xd9, 0xff, 0xe9, 0x05, 0xfa, 0xfd, 0x10, 0xfd, 0x86, 0x0b,
  0x0b, 0x09, 0x0c, 0xeb, 0x1c, 0xfa, 0xca, 0x0d, 0xfb, 0x0c, 0x08, 0xc8,
  0x12, 0x10, 0xd5, 0xed, 0xe4, 0x05, 0xfa, 0x03, 0xdc, 0x11, 0xe3, 0xfe,
  0xff, 0x1d, 0xf6, 0x02, 0xfe, 0x0b, 0x9b, 0x09, 0xff, 0x05, 0x06, 0xee,
  0x06, 0x13, 0xc5, 0x03, 0xfd, 0x13, 0x13, 0xc6, 0x09, 0xfd, 0xe1, 0xf6,
  0xfb, 0x05, 0x0c, 0xf6, 0xdf, 0x08, 0xf0, 0x06, 0x00, 0x03, 0xff, 0x0e,
  0xf4, 0xfe, 0x87, 0xf7, 0x02, 0x0d, 0xf9, 0xde, 0x15, 0x02, 0xce, 0x14,
  0x03, 0x18, 0xf1, 0xf6, 0xe3, 0xfb, 0xf9, 0x07, 0x00, 0x01, 0x00, 0x0b,
  0xf9, 0x02, 0x0f, 0x03, 0xf0, 0x06, 0x0a, 0xf9, 0x09, 0x0e, 0xf9, 0x08,
  0xf0, 0xfe, 0x0d, 0x07, 0x13, 0x01, 0xf4, 0x12, 0xfd, 0x04, 0xea, 0xf6,
  0xfd, 0xe4, 0x0e, 0x12, 0x15, 0xfc, 0xee, 0x01, 0xff, 0x14, 0xf0, 0xf4,
  0xeb, 0x05, 0x10, 0x10, 0xfa, 0x0c, 0xf9, 0xf6, 0x08, 0x09, 0xf2, 0xfe,
  0x09, 0xfd, 0xfd, 0xf9, 0x0b, 0x0c, 0xee, 0x04, 0xea, 0xfc, 0x0c, 0x07,
  0xff, 0x0a, 0xea, 0xf5, 0x08, 0x0a, 0xf5, 0xf6, 0xe0, 0x0f, 0xf3, 0xf3,
  0x08, 0xff, 0x00, 0x00, 0x0b, 0x05, 0xf0, 0xff, 0xfe, 0xe3, 0xf4, 0x11,
  0x02, 0x06, 0xfc, 0xf9, 0xe4, 0xe0, 0x0c, 0x10, 0x10, 0x03, 0xfd, 0x0c,
  0x01, 0x08, 0x0d, 0x06, 0xec, 0x0a, 0x04, 0x06, 0xf6, 0x0b, 0xee, 0xff,
  0xfa, 0xf0, 0xf3, 0xfe, 0x14, 0xf4, 0x05, 0x09, 0xf0, 0x09, 0xef, 0xf6,
  0xf3, 0xe8, 0xf7, 0xfc, 0x02, 0xfc, 0xf4, 0x09, 0xf8, 0x03, 0xef, 0xeb,
  0xda, 0xef, 0xf0, 0xf6, 0xfa, 0x10, 0xf0, 0x0d, 0x02, 0xf0, 0x03, 0xff,
  0x10, 0xeb, 0x01, 0x0b, 0x07, 0xfc, 0xe7, 0x03, 0xf7, 0xe8, 0x0a, 0x0d,
  0xfa, 0x03, 0x00, 0x0c, 0x11, 0x04, 0xf4, 0xf7, 0xf1, 0x06, 0x04, 0xfd,
  0xf4, 0x06, 0x04, 0x0c, 0xf3, 0xfe, 0xf4, 0xfe, 0x13, 0xed, 0x01, 0xfa,
  0xfe, 0x0d, 0xf1, 0xf7, 0xe4, 0xf5, 0xf4, 0xf1, 0xfd, 0xf0, 0xe2, 0x02,
  0xf7, 0x03, 0xf2, 0xf4, 0xf6, 0x09, 0xfd, 0x0f, 0x02, 0x0c, 0xff, 0xfb,
  0xf3, 0xf1, 0x00, 0xfb, 0x0a, 0xef, 0xff, 0xfe, 0x01, 0x14, 0xf8, 0xf4,
  0xea, 0xed, 0x01, 0x04, 0x02, 0x05, 0xf9, 0xf0, 0x03, 0xfb, 0xf3, 0xfa,
  0xda, 0x0b, 0x0d, 0xf1, 0x05, 0x03, 0xf5, 0xfd, 0x0f, 0x05, 0x0a, 0x0e,
  0x0e, 0xf0, 0xec, 0xfb, 0x06, 0xf9, 0xf8, 0x05, 0x03, 0xf8, 0x04, 0x0d,
  0xfa, 0xeb, 0x00, 0xf1, 0x07, 0x17, 0xf3, 0xf6, 0xeb, 0x02, 0xf1, 0x09,
  0xfa, 0x01, 0xe8, 0x03, 0xf7, 0x08, 0xf1, 0x06, 0xf9, 0xe1, 0x05, 0x0e,
  0xec, 0xf9, 0xfa, 0xf6, 0x02, 0xec, 0xea, 0xf8, 0x13, 0xf4, 0xe4, 0xff,
  0x05, 0xf7, 0x07, 0xed, 0xe0, 0xed, 0x03, 0x04, 0x02, 0x13, 0x0d, 0x00,
  0xf8, 0x05, 0x10, 0xfc, 0x17, 0xe6, 0x17, 0x10, 0xe2, 0x08, 0xfc, 0xfe,
  0xec, 0xe7, 0x07, 0x03, 0x08, 0xfe, 0xe3, 0x09, 0xf9, 0xfd, 0x05, 0xea,
  0xd6, 0xf8, 0x0e, 0x0f, 0xf3, 0x02, 0x0a, 0xfa, 0x03, 0xf5, 0xfb, 0x17,
  0x11, 0xd9, 0x19, 0xff, 0xf2, 0x01, 0xea, 0x08, 0xe1, 0xe7, 0x00, 0x03,
  0x0b, 0xe9, 0xe4, 0xfb, 0x0c, 0x12, 0x12, 0xe4, 0xd4, 0xe6, 0xfb, 0x05,
  0x05, 0x0d, 0x10, 0xfd, 0xf0, 0x0c, 0xf0, 0x19, 0xfc, 0xde, 0x19, 0xff,
  0xdf, 0x0c, 0xd6, 0x12, 0xd9, 0xd4, 0x0e, 0x03, 0x1d, 0x04, 0xd7, 0x04,
  0xfd, 0x07, 0x01, 0xed, 0xdc, 0xf1, 0xfa, 0xf7, 0xf4, 0x0f, 0x1b, 0x0f,
  0x0b, 0xfd, 0x06, 0x10, 0x13, 0xcf, 0x31, 0x12, 0xde, 0x0b, 0xdf, 0x16,
  0xda, 0xd4, 0xfa, 0x01, 0x0f, 0xfd, 0xd8, 0xf8, 0x02, 0x16, 0x14, 0xd3,
  0xe3, 0xf5, 0xff, 0x01, 0xf7, 0x11, 0xf5, 0x05, 0x0f, 0xfc, 0x07, 0x0e,
  0x0b, 0xde, 0x34, 0x04, 0xfd, 0x14, 0xde, 0x1b, 0xef, 0xea, 0x0c, 0xff,
  0x11, 0xe2, 0xe4, 0xfd, 0x11, 0x1f, 0x03, 0xcc, 0xd8, 0xde, 0x0b, 0xfb,
  0xfe, 0xfc, 0xe3, 0x10, 0x03, 0x0d, 0x0c, 0x20, 0x1d, 0xd8, 0x2f, 0x01,
  0xde, 0x0e, 0xe7, 0x06, 0xea, 0xd5, 0xfb, 0x02, 0x1b, 0xf3, 0xe2, 0xef,
  0x22, 0x0a, 0x07, 0xca, 0xe2, 0xe3, 0xfe, 0x0e, 0xf4, 0x04, 0xe7, 0x0f,
  0xf0, 0x0d, 0x02, 0x09, 0x15, 0xd6, 0x46, 0x14, 0xf6, 0x23, 0xd7, 0x20,
  0xe0, 0xdc, 0xf4, 0x17, 0x1d, 0xef, 0xeb, 0x0d, 0x0e, 0x0b, 0x10, 0xd9,
  0xca, 0xdc, 0xf4, 0x04, 0xfe, 0x04, 0xe9, 0x0f, 0xf2, 0x04, 0xf6, 0x18,
  0x0d, 0xd6, 0x33, 0xfc, 0xdf, 0x11, 0xef, 0x16, 0xd8, 0xd4, 0xf7, 0x0c,
  0x12, 0xe8, 0xea, 0xf4, 0x1c, 0x23, 0xfe, 0xe3, 0xd6, 0xf7, 0x07, 0x04,
  0x10, 0xfd, 0xfa, 0x05, 0x0f, 0xfd, 0xf7, 0x10, 0x0b, 0xd7, 0x29, 0x10,
  0xf1, 0x11, 0xdc, 0x0c, 0xcf, 0xde, 0x0f, 0x0e, 0x19, 0xe3, 0xea, 0xfc,
  0x12, 0x0d, 0x13, 0xd7, 0xd1, 0xef, 0x0a, 0xfd, 0x03, 0x19, 0x03, 0xf8,
  0xfc, 0x0d, 0xf1, 0x18, 0x0d, 0xde, 0x2a, 0x0b, 0xe2, 0x17, 0xd7, 0x0c,
  0xed, 0xdb, 0xf8, 0x09, 0x0b, 0xf9, 0xec, 0x08, 0x11, 0x13, 0x0e, 0xc6,
  0xda, 0xf6, 0x10, 0xfa, 0xf0, 0x16, 0x01, 0xf1, 0x05, 0x0d, 0xf2, 0x13,
  0x02, 0xe5, 0x29, 0x07, 0xbe, 0xf6, 0xff, 0xff, 0x04, 0x00, 0x00, 0x00,
  0x80, 0x00, 0x00, 0x00, 0xa5, 0x0c, 0x00, 0x00, 0x21, 0x0d, 0x00, 0x00,
  0x8f, 0x09, 0x00, 0x00, 0x4f, 0x24, 0x00, 0x00, 0x86, 0x14, 0x00, 0x00,
  0x5a, 0x15, 0x00, 0x00, 0xc8, 0x10, 0x00, 0x00, 0x50, 0x01, 0x00, 0x00,
  0xc7, 0x1b, 0x00, 0x00, 0xa0, 0xf1, 0xff, 0xff, 0xf1, 0x09, 0x00, 0x00,
  0x26, 0xf8, 0xff, 0xff, 0x5e, 0x14, 0x00, 0x00, 0x6e, 0x11, 0x00, 0x00,
  0xb2, 0x0f, 0x00, 0x00, 0xdc, 0x12, 0x00, 0x00, 0x83, 0x1d, 0x00, 0x00,
  0x89, 0x09, 0x00, 0x00, 0x9f, 0xf9, 0xff, 0xff, 0x00, 0x00, 0x00, 0x00,
  0x65, 0xfe, 0xff, 0xff, 0x0d, 0x04, 0x00, 0x00, 0xe3, 0x27, 0x00, 0x00,
  0x00, 0x00, 0x00, 0x00, 0x00, 0x00, 0x00, 0x00, 0x89, 0xf5, 0xff, 0xff,
  0x00, 0x00, 0x00, 0x00, 0x96, 0x19, 0x00, 0x00, 0xc2, 0x14, 0x00, 0x00,
  0x74, 0x20, 0x00, 0x00, 0x21, 0x2b, 0x00, 0x00, 0xa6, 0x00, 0x00, 0x00,
  0x4a, 0xf7, 0xff, 0xff, 0x04, 0x00, 0x00, 0x00, 0x00, 0x06, 0x00, 0x00,
  0x36, 0x61, 0xc3, 0xcf, 0xff, 0x5b, 0xd8, 0x4b, 0x5c, 0xde, 0xe2, 0x24,
  0x3d, 0xd1, 0x12, 0x3f, 0x2d, 0x53, 0x84, 0x39, 0xb3, 0x14, 0xd6, 0xd5,
  0xc7, 0x49, 0x67, 0x7f, 0xae, 0x27, 0x61, 0x67, 0x98, 0xdf, 0x16, 0xc0,
  0x69, 0x5a, 0x57, 0xe8, 0xe9, 0xfe, 0xc1, 0x22, 0x27, 0x4e, 0xdc, 0xf0,
  0xc5, 0xd5, 0xd9, 0x1e, 0x0e, 0xe8, 0x30, 0x42, 0xe8, 0xfa, 0xbd, 0xd9,
  0x47, 0x28, 0x11, 0xcb, 0x37, 0x0d, 0x34, 0xf5, 0x2f, 0x7f, 0xe5, 0x6d,
  0x17, 0xd5, 0x29, 0xb8, 0xb9, 0xab, 0x1f, 0x76, 0x00, 0xbb, 0x19, 0x28,
  0xee, 0x08, 0xda, 0x20, 0x03, 0x42, 0xd8, 0xbe, 0x47, 0xbb, 0x21, 0xf2,
  0x41, 0x27, 0x3a, 0x35, 0x15, 0xea, 0xba, 0x1a, 0x18, 0x17, 0xfa, 0x08,
  0xe5, 0xd4, 0x0d, 0x16, 0x16, 0x27, 0xc4, 0x29, 0x03, 0x34, 0xd8, 0xb6,
  0x46, 0xc8, 0x7f, 0x7f, 0x46, 0xe4, 0x6d, 0xfd, 0xbe, 0xe5, 0xf3, 0x30,
  0xd2, 0xd3, 0xd2, 0xe1, 0xb8, 0xe8, 0xe2, 0x4f, 0xb1, 0xc2, 0xe5, 0xe0,
  0xf9, 0x09, 0x29, 0xc2, 0x17, 0xea, 0xc3, 0xf4, 0xd3, 0xfd, 0x20, 0x00,
  0xd6, 0xe1, 0x1f, 0x1e, 0x1c, 0x23, 0x6e, 0xe9, 0xce, 0x81, 0x71, 0x75,
  0x1f, 0x09, 0xba, 0xd0, 0xdc, 0xed, 0xff, 0x0d, 0xf1, 0x38, 0x0a, 0xff,
  0xe9, 0x30, 0x09, 0xc5, 0x2b, 0x0a, 0x0e, 0x11, 0xf4, 0x35, 0x3f, 0x1d,
  0xc2, 0x20, 0x09, 0x25, 0xc2, 0x12, 0x3d, 0xdb, 0xe4, 0xe0, 0x11, 0xce,
  0x1a, 0x0e, 0xc3, 0x40, 0xff, 0x2b, 0xa0, 0xf7, 0xfa, 0x29, 0x77, 0xb7,
  0xf2, 0x36, 0x0e, 0x7f, 0xd0, 0x72, 0xfb, 0xd1, 0x2b, 0xf7, 0xda, 0x4a,
  0x24, 0xdf, 0x41, 0x47, 0xf6, 0xe2, 0x25, 0x37, 0x19, 0x35, 0xc8, 0x48,
  0x25, 0x49, 0xd2, 0x0a, 0x40, 0xec, 0xdc, 0xd7, 0xff, 0xba, 0x22, 0x47,
  0xf5, 0xeb, 0x28, 0x0b, 0xee, 0xe2, 0xb5, 0x43, 0x2e, 0x1f, 0x67, 0x0d,
  0xfe, 0xec, 0x55, 0x62, 0x23, 0x7f, 0x4f, 0x9f, 0x38, 0x48, 0x49, 0x16,
  0xd1, 0xc2, 0xc4, 0xc3, 0x02, 0xf5, 0x2b, 0xea, 0x40, 0xea, 0xba, 0x34,
  0xac, 0x1f, 0xb1, 0xf5, 0x3f, 0x1f, 0x33, 0xaa, 0xcb, 0x0b, 0x0e, 0xdb,
  0xf1, 0xf3, 0x26, 0x19, 0x29, 0x00, 0xdf, 0xdc, 0x13, 0x81, 0x76, 0x7a,
  0xfe, 0xc3, 0xa4, 0xdc, 0x27, 0x26, 0x1b, 0x68, 0xc7, 0x0d, 0x00, 0x01,
  0xfd, 0x0a, 0x47, 0xaa, 0xb0, 0xf2, 0xfe, 0xf7, 0xcd, 0xf0, 0xce, 0xb0,
  0xf0, 0x3e, 0xfb, 0x39, 0x01, 0xcb, 0x19, 0x23, 0x02, 0xdc, 0xb6, 0xcb,
  0x0b, 0xe8, 0x32, 0xef, 0x21, 0x22, 0x55, 0x1e, 0x3d, 0xcb, 0x55, 0x7f,
  0x0e, 0xb8, 0xcd, 0x20, 0x0d, 0xf9, 0xc6, 0xf7, 0xf5, 0x04, 0x39, 0x44,
  0x1b, 0xf7, 0x21, 0x49, 0x15, 0x3d, 0xdc, 0x31, 0xb8, 0x0f, 0x28, 0xe1,
  0xc5, 0x0c, 0xf9, 0xc0, 0x39, 0x18, 0xbf, 0x31, 0x17, 0xe8, 0x30, 0x0e,
  0x31, 0x01, 0xc4, 0xc1, 0xf3, 0x36, 0x60, 0xf9, 0x17, 0xf5, 0xd9, 0x7f,
  0x0c, 0x2b, 0xf5, 0xc6, 0x2e, 0xda, 0xf3, 0x2c, 0xf8, 0xfd, 0x21, 0x14,
  0xcb, 0xe1, 0xee, 0x41, 0x22, 0xce, 0xcc, 0xcb, 0x3b, 0xc1, 0xfa, 0x2a,
  0xc4, 0x12, 0x30, 0xc3, 0x44, 0xf6, 0x49, 0x2f, 0xe2, 0xdc, 0xb1, 0xb6,
  0x12, 0xc4, 0x40, 0xf9, 0x2b, 0x02, 0x9e, 0x3e, 0x00, 0x74, 0x34, 0x16,
  0x2d, 0xc3, 0x73, 0x7f, 0xc4, 0x53, 0x6f, 0x18, 0xfc, 0x2a, 0x28, 0x44,
  0x11, 0x42, 0xae, 0xe7, 0x0e, 0x44, 0xbe, 0x16, 0xf2, 0xc6, 0x59, 0xb9,
  0x13, 0x0d, 0x09, 0xeb, 0xec, 0x05, 0x03, 0x19, 0x25, 0x0b, 0x0c, 0x08,
  0xcc, 0x33, 0x2e, 0xc1, 0xf6, 0xe2, 0xd4, 0xeb, 0xfa, 0x01, 0x33, 0xd3,
  0xd6, 0x11, 0x6a, 0x7f, 0x1a, 0x65, 0x5c, 0x12, 0x05, 0x3a, 0xfc, 0xf2,
  0x0c, 0xd3, 0xec, 0xda, 0x18, 0x0a, 0xee, 0x0a, 0x28, 0x1c, 0xf6, 0x0f,
  0x7e, 0x9a, 0x7f, 0x5d, 0x8b, 0xfa, 0x50, 0x54, 0x4a, 0xd5, 0x62, 0x21,
  0x33, 0xf2, 0xc7, 0x49, 0xc5, 0xba, 0x02, 0xb6, 0x35, 0x58, 0xb5, 0x07,
  0x27, 0x09, 0x0e, 0xa9, 0x7a, 0x5d, 0x52, 0x93, 0xba, 0xa6, 0xc7, 0x65,
  0x9b, 0x81, 0x6b, 0x45, 0x6f, 0x24, 0xcc, 0xaf, 0x53, 0x22, 0x82, 0x1c,
  0xfd, 0x3d, 0x01, 0x04, 0x2b, 0xe3, 0x19, 0xef, 0x11, 0x40, 0xd7, 0x0f,
  0x32, 0xb6, 0x1b, 0x3c, 0x24, 0x3a, 0x6d, 0x0e, 0xec, 0xa9, 0x0b, 0x03,
  0xd5, 0x13, 0xe3, 0x9d, 0xd9, 0x12, 0xeb, 0x7f, 0xed, 0xd0, 0xe0, 0x1e,
  0x1b, 0x39, 0xbc, 0x01, 0xd2, 0x1d, 0x23, 0x20, 0x30, 0xd6, 0x3b, 0x3b,
  0x2c, 0xc7, 0x12, 0xc8, 0xce, 0xef, 0x1c, 0xea, 0xdf, 0x03, 0x08, 0x3e,
  0xc9, 0x28, 0x45, 0x41, 0x53, 0x58, 0x6d, 0x7f, 0x23, 0x71, 0xce, 0xe9,
  0x24, 0x0d, 0x2f, 0xc8, 0x3f, 0xbf, 0xc2, 0x7b, 0xbe, 0x19, 0xe8, 0xbd,
  0x35, 0x3c, 0x30, 0x11, 0xf1, 0x31, 0xe9, 0xef, 0x2d, 0x24, 0x37, 0xd7,
  0xd1, 0xc4, 0xdc, 0x1e, 0x0e, 0xf4, 0x1b, 0x2c, 0x0e, 0x1e, 0x41, 0xf1,
  0xe1, 0xb9, 0xf0, 0xcf, 0x13, 0xf7, 0x71, 0x89, 0x01, 0xd6, 0x7f, 0x73,
  0x2b, 0xc7, 0xca, 0xfd, 0xb8, 0x26, 0xf5, 0xee, 0xd1, 0x22, 0xf1, 0xff,
  0x06, 0x0b, 0x26, 0x20, 0xfc, 0xdb, 0xc4, 0x2d, 0x3c, 0xeb, 0x06, 0xe3,
  0xdd, 0xc7, 0x04, 0xb9, 0x33, 0xdc, 0xd3, 0xd3, 0x54, 0xd4, 0x10, 0xa6,
  0x32, 0x4e, 0xbe, 0xad, 0x1b, 0x09, 0x9f, 0x81, 0x2d, 0xcf, 0x74, 0x17,
  0xc2, 0xa6, 0xf7, 0x64, 0xf7, 0x3e, 0x0f, 0xe4, 0xc6, 0xe4, 0xb6, 0xda,
  0x58, 0xa9, 0x3b, 0xbb, 0x3f, 0xb2, 0xe5, 0x58, 0x1a, 0x55, 0x23, 0xd2,
  0xfb, 0x48, 0x05, 0xbc, 0xc6, 0xe5, 0x24, 0x15, 0xee, 0x09, 0xe8, 0x02,
  0xf7, 0x43, 0xf3, 0x25, 0xf2, 0xc8, 0xcb, 0xdd, 0x37, 0xc3, 0x7f, 0xd4,
  0xc2, 0x1f, 0x32, 0x5a, 0x31, 0x7e, 0x3f, 0xef, 0xc0, 0x0e, 0x11, 0xf6,
  0xe6, 0xc0, 0x20, 0x3d, 0x47, 0xf1, 0x44, 0x3d, 0x12, 0xd2, 0x25, 0xe0,
  0x31, 0x1f, 0x29, 0x0c, 0x03, 0x05, 0xc5, 0xe8, 0xd3, 0xd1, 0x2f, 0x32,
  0xe6, 0xf0, 0xea, 0xc1, 0x37, 0x1e, 0xd3, 0x0c, 0x06, 0x7f, 0xf6, 0xa4,
  0x2a, 0x3c, 0x1a, 0x4f, 0x2c, 0x18, 0x45, 0x1e, 0x06, 0xe5, 0xe1, 0xd1,
  0xff, 0x1d, 0xee, 0x34, 0xda, 0xe3, 0x11, 0x09, 0x3b, 0x1c, 0xc2, 0xce,
  0x98, 0x4b, 0x51, 0x78, 0xd1, 0x0f, 0x02, 0x8e, 0xac, 0x2a, 0x63, 0x14,
  0xba, 0x2b, 0x4c, 0x15, 0x24, 0x9d, 0x98, 0x29, 0x66, 0x9d, 0x2f, 0x87,
  0x9f, 0xc9, 0xd9, 0x81, 0x37, 0xfa, 0x39, 0xdf, 0xb8, 0xab, 0x2c, 0x27,
  0x5f, 0x06, 0xaa, 0xc0, 0xbb, 0x7b, 0xf8, 0xea, 0x3a, 0x2a, 0x00, 0x6b,
  0xa1, 0x27, 0x2d, 0x96, 0xa1, 0x7f, 0x15, 0xf6, 0xf4, 0xb2, 0x0f, 0xef,
  0xe7, 0x84, 0x3c, 0x44, 0x5b, 0xfc, 0xa9, 0x1c, 0x9f, 0xd4, 0x7f, 0x08,
  0xb8, 0xa9, 0xd2, 0xf5, 0x4f, 0xa0, 0xa6, 0xa4, 0x63, 0x50, 0xd5, 0xdf,
  0xd7, 0xdd, 0xe6, 0x52, 0xef, 0x16, 0x71, 0x6b, 0x8f, 0x4a, 0x36, 0xac,
  0xb0, 0x66, 0xa9, 0x1b, 0x4b, 0x63, 0x47, 0x19, 0xe9, 0xd2, 0x52, 0xee,
  0x74, 0x20, 0x0e, 0x22, 0x60, 0xc2, 0xaf, 0x40, 0xea, 0xd1, 0x01, 0x28,
  0x7a, 0x7f, 0x12, 0xcb, 0x28, 0x96, 0x05, 0xe9, 0x97, 0xe4, 0x29, 0x3c,
  0xeb, 0x83, 0x0e, 0x42, 0x7f, 0x41, 0xbd, 0x3f, 0xb8, 0xbc, 0x87, 0x5e,
  0x35, 0xe6, 0xd1, 0xc3, 0x39, 0x5f, 0x03, 0x67, 0xd9, 0xd9, 0xd1, 0xd1,
  0xee, 0xa7, 0xd5, 0xbd, 0xff, 0x46, 0x78, 0x5b, 0x00, 0x0a, 0xd6, 0x5a,
  0xeb, 0xe5, 0x81, 0xed, 0x0a, 0xdb, 0x37, 0xc3, 0x28, 0xdc, 0xa9, 0x12,
  0xe0, 0x06, 0x9a, 0xb4, 0x31, 0x1c, 0x13, 0x44, 0xa1, 0x33, 0xea, 0x34,
  0x0d, 0xf1, 0x1d, 0x14, 0x1f, 0xe9, 0x00, 0x03, 0x03, 0xe1, 0xd9, 0x05,
  0xe9, 0xeb, 0xd7, 0x16, 0x26, 0xcf, 0x0d, 0x94, 0x24, 0x95, 0x7b, 0x7f,
  0xf8, 0x29, 0xba, 0x23, 0xe2, 0x68, 0xed, 0x02, 0x16, 0xd3, 0x18, 0x2e,
  0x18, 0xdd, 0xec, 0xf5, 0xdc, 0x05, 0xda, 0xeb, 0xf1, 0xdc, 0xee, 0xe0,
  0xec, 0xe8, 0x05, 0x84, 0x9d, 0xc1, 0x1b, 0x0c, 0x95, 0xd1, 0x3c, 0x49,
  0xe4, 0x78, 0xe0, 0x81, 0x8d, 0xab, 0xb9, 0x93, 0xc5, 0x66, 0xb4, 0x5e,
  0x89, 0xb2, 0x14, 0xca, 0x51, 0x5f, 0x9e, 0xf7, 0xa3, 0x97, 0x89, 0x40,
  0x00, 0x07, 0x4c, 0xc4, 0x41, 0x73, 0x96, 0xb1, 0xe8, 0x20, 0x9b, 0xa9,
  0x52, 0x5c, 0x6d, 0xc5, 0xfc, 0xf0, 0xd0, 0xc5, 0x98, 0x3d, 0xfa, 0xf0,
  0x21, 0xe0, 0x40, 0xf9, 0x2c, 0x88, 0xe1, 0xa8, 0x02, 0xaf, 0x9c, 0xab,
  0xa0, 0x89, 0xfa, 0x3c, 0xa6, 0x3c, 0xd3, 0x5f, 0x15, 0x43, 0xe1, 0x2f,
  0x13, 0x46, 0x25, 0x6b, 0xce, 0x84, 0x0d, 0x88, 0x37, 0x81, 0xf1, 0x3e,
  0x89, 0x72, 0x32, 0x28, 0x73, 0xf7, 0x64, 0xac, 0x84, 0x30, 0x90, 0x90,
  0xe1, 0x43, 0x12, 0xc9, 0x8e, 0x2a, 0xd4, 0xde, 0x32, 0x3c, 0xc4, 0xc9,
  0x76, 0x25, 0xf1, 0xb3, 0xf3, 0x72, 0xfb, 0x1f, 0xc0, 0x09, 0x20, 0x68,
  0xef, 0x54, 0x78, 0x9b, 0xa1, 0x92, 0xc9, 0x89, 0x31, 0x6d, 0x72, 0x81,
  0xec, 0xc5, 0x6b, 0xcc, 0xd3, 0x94, 0x51, 0xf6, 0x1d, 0x92, 0x3c, 0x4b,
  0xf9, 0xb3, 0xed, 0x29, 0xc4, 0x9f, 0xb6, 0x0d, 0x95, 0x41, 0x34, 0xe0,
  0x49, 0x8e, 0x15, 0xc3, 0x21, 0xc8, 0x2c, 0x76, 0xb6, 0x93, 0x46, 0xf0,
  0xde, 0x0e, 0xf5, 0xd5, 0x7f, 0xa4, 0xb5, 0x5f, 0xfc, 0xe9, 0x8f, 0x0b,
  0x2f, 0x27, 0x3a, 0xba, 0xd1, 0x29, 0x33, 0xc7, 0x4c, 0xea, 0x33, 0xcf,
  0x38, 0xbc, 0xf7, 0xc3, 0x35, 0x3d, 0x7f, 0x1b, 0x10, 0xb4, 0x05, 0x23,
  0x24, 0xb9, 0xa5, 0xa1, 0x48, 0xae, 0x27, 0x10, 0xb7, 0x2d, 0x3d, 0xbe,
  0xea, 0xee, 0xfc, 0xeb, 0x11, 0x19, 0xba, 0x01, 0x33, 0xb7, 0x0e, 0x4b,
  0x30, 0xd4, 0xf9, 0xda, 0xcb, 0xe9, 0x3d, 0xe6, 0x40, 0x45, 0x11, 0x42,
  0x30, 0xe8, 0x21, 0x44, 0x19, 0x7f, 0x1d, 0xfe, 0x0f, 0x5d, 0x95, 0x0d,
  0xd6, 0x15, 0x6b, 0x9e, 0x39, 0x30, 0xe5, 0xfc, 0x2a, 0x08, 0xfd, 0x0a,
  0xcd, 0x32, 0x0a, 0x45, 0x2d, 0xc4, 0xf5, 0x48, 0x1e, 0xff, 0xc8, 0x09,
  0xc3, 0xe6, 0xb6, 0xdc, 0xd3, 0xb9, 0x35, 0xdb, 0xe6, 0x3c, 0xee, 0xe5,
  0x42, 0x12, 0xfe, 0x1a, 0x1d, 0xe4, 0xd2, 0xf9, 0x43, 0xf8, 0x35, 0x97,
  0xe6, 0xc9, 0x71, 0x4a, 0xcb, 0x03, 0x7f, 0xfd, 0xdf, 0xbd, 0xdf, 0xec,
  0xd9, 0x01, 0x3b, 0xe8, 0xf5, 0x22, 0xd6, 0x0d, 0x0c, 0x0d, 0x39, 0x39,
  0x2b, 0xf7, 0xfc, 0x24, 0xfd, 0x0c, 0x2d, 0x1a, 0xe1, 0x0a, 0x08, 0xfd,
  0x2a, 0x2e, 0x06, 0xd8, 0x0e, 0xfd, 0x7f, 0xea, 0x01, 0xeb, 0x39, 0x7c,
  0xe4, 0xd6, 0xa7, 0xba, 0x2e, 0x34, 0xe3, 0x2c, 0x1e, 0x25, 0xe7, 0xfb,
  0xd3, 0x0a, 0xe1, 0xf2, 0xde, 0x06, 0xdf, 0x06, 0x00, 0x10, 0x0b, 0x22,
  0xc2, 0xf4, 0x44, 0xd2, 0xe3, 0xe1, 0xc4, 0x2b, 0xca, 0xda, 0x07, 0xfe,
  0x19, 0xc7, 0xd8, 0xf4, 0x3d, 0x40, 0x1f, 0x54, 0xd8, 0x7f, 0x1a, 0x00,
  0x34, 0x26, 0xeb, 0xd5, 0xd7, 0xd3, 0x01, 0x64, 0x20, 0x20, 0x02, 0x47,
  0xb9, 0xfc, 0x1d, 0xe4, 0x11, 0xe8, 0x4a, 0x1f, 0xfe, 0xc3, 0xde, 0xbb,
  0x56, 0xfd, 0xff, 0xff, 0x04, 0x00, 0x00, 0x00, 0x40, 0x00, 0x00, 0x00,
  0x1a, 0x10, 0x00, 0x00, 0x3f, 0x0c, 0x00, 0x00, 0xde, 0x1d, 0x00, 0x00,
  0xaf, 0x06, 0x00, 0x00, 0x00, 0x00, 0x00, 0x00, 0x52, 0x08, 0x00, 0x00,
  0x55, 0x1d, 0x00, 0x00, 0x27, 0x10, 0x00, 0x00, 0xd9, 0xf4, 0xff, 0xff,
  0x00, 0x00, 0x00, 0x00, 0xaf, 0x0b, 0x00, 0x00, 0x3b, 0x0f, 0x00, 0x00,
  0x00, 0x00, 0x00, 0x00, 0xca, 0x0a, 0x00, 0x00, 0x33, 0x09, 0x00, 0x00,
  0x4f, 0x19, 0x00, 0x00, 0xa2, 0xfd, 0xff, 0xff, 0x04, 0x00, 0x00, 0x00,
  0xb0, 0x01, 0x00, 0x00, 0xc8, 0x55, 0xe9, 0xea, 0x52, 0x9d, 0x04, 0x9f,
  0xcd, 0x3b, 0x10, 0x75, 0x1a, 0x7f, 0xd7, 0x1c, 0x4d, 0xeb, 0xcd, 0xf8,
  0x4d, 0xea, 0x2f, 0x08, 0x64, 0xe4, 0x9e, 0x16, 0xbf, 0xe0, 0xf3, 0xd7,
  0x3a, 0xf9, 0xe3, 0x47, 0x08, 0x4d, 0x6e, 0x01, 0x0c, 0x5c, 0x21, 0x7f,
  0xeb, 0x25, 0x4c, 0xc9, 0xaa, 0xdf, 0x40, 0x3d, 0x1f, 0xf4, 0xd2, 0x28,
  0x13, 0x01, 0x37, 0x2c, 0xb4, 0x12, 0x4b, 0xba, 0x33, 0x40, 0x18, 0x2e,
  0x12, 0xb1, 0x10, 0x7f, 0x38, 0x49, 0x4b, 0xc4, 0xd1, 0xe2, 0x31, 0x0e,
  0x3d, 0x1c, 0x76, 0x5c, 0xdf, 0x81, 0x10, 0x01, 0x47, 0xd9, 0xb1, 0xe5,
  0x2e, 0x59, 0x18, 0xfb, 0x00, 0x7b, 0xe6, 0x38, 0x07, 0xba, 0x79, 0x07,
  0xbe, 0x28, 0x97, 0x2a, 0xcd, 0x3c, 0xfb, 0x93, 0x62, 0xed, 0x8f, 0x9d,
  0x11, 0xad, 0x08, 0x90, 0x81, 0xbf, 0xe5, 0x19, 0x3f, 0x2d, 0x55, 0x59,
  0x01, 0x7a, 0x95, 0x12, 0x39, 0x82, 0x02, 0xd6, 0x06, 0x39, 0xc1, 0x2b,
  0x1f, 0xe6, 0x0d, 0x03, 0x35, 0xda, 0x34, 0xe1, 0x18, 0xea, 0xf9, 0x7f,
  0xe3, 0x47, 0xcd, 0x3a, 0xd6, 0x45, 0xcf, 0xd4, 0xfe, 0xd1, 0xcf, 0xb6,
  0x58, 0x42, 0x3a, 0xf6, 0x18, 0xc6, 0xc7, 0x14, 0x11, 0x98, 0x7f, 0xbf,
  0x61, 0x51, 0xba, 0x62, 0x30, 0x0c, 0x1f, 0x35, 0xf0, 0xea, 0x53, 0x32,
  0x36, 0xd2, 0x47, 0x2c, 0x49, 0xcd, 0x09, 0x3a, 0xf8, 0x2a, 0xf5, 0x10,
  0x25, 0x1f, 0xd0, 0xe2, 0xea, 0xef, 0x7f, 0xe6, 0xf1, 0x0d, 0x43, 0x23,
  0xd1, 0xda, 0xd9, 0xf5, 0xca, 0xc8, 0x03, 0x85, 0x1c, 0xbf, 0x07, 0xcb,
  0x00, 0x8a, 0xb7, 0x94, 0x2d, 0x27, 0x51, 0x0a, 0xbc, 0x82, 0x86, 0x44,
  0xe5, 0x81, 0x18, 0xd7, 0x44, 0xe6, 0x1d, 0x88, 0xbb, 0x7f, 0x30, 0x66,
  0xaa, 0x00, 0x73, 0x1d, 0x95, 0x52, 0x2c, 0x14, 0xb5, 0x99, 0x92, 0xfd,
  0xbe, 0xf8, 0x78, 0x13, 0x78, 0x9e, 0x3a, 0x69, 0x88, 0x0e, 0xbf, 0x60,
  0x9e, 0xc9, 0x61, 0x3f, 0x1c, 0x1a, 0x0f, 0x1a, 0xaa, 0x2f, 0x37, 0x4d,
  0xcd, 0x54, 0x7f, 0x8c, 0x46, 0x63, 0xa5, 0x05, 0xa1, 0x48, 0xbf, 0x08,
  0xfc, 0xd0, 0xfc, 0xd3, 0x34, 0x12, 0x1b, 0x18, 0x40, 0x1f, 0x7f, 0xe6,
  0xc2, 0x40, 0xf6, 0xbe, 0x4a, 0x56, 0xd5, 0x53, 0xd4, 0x16, 0x13, 0x24,
  0x36, 0xce, 0x55, 0xc2, 0x83, 0xec, 0x20, 0x81, 0xe7, 0x60, 0x97, 0x21,
  0xc8, 0x92, 0xa1, 0x35, 0x9c, 0x88, 0x4a, 0x04, 0xc3, 0xcc, 0x0d, 0xe9,
  0x7e, 0x95, 0x2e, 0x86, 0xfe, 0xde, 0xff, 0x2d, 0xc3, 0xcf, 0x10, 0x03,
  0x2b, 0xe5, 0xab, 0xd6, 0x26, 0x16, 0x0a, 0x15, 0xda, 0x4d, 0x7f, 0xe1,
  0xcc, 0x1c, 0xcb, 0x41, 0xdf, 0x09, 0xf9, 0xf2, 0xdf, 0x49, 0xe2, 0xce,
  0xca, 0x45, 0x3f, 0x3e, 0xee, 0x38, 0x29, 0x78, 0x2e, 0xf4, 0x21, 0x1d,
  0xf5, 0x7f, 0x68, 0xac, 0xca, 0xd2, 0x34, 0xdd, 0x34, 0x16, 0x06, 0xdd,
  0xcc, 0x0a, 0x32, 0x65, 0xdd, 0xfc, 0x65, 0x37, 0x55, 0xaa, 0xb1, 0xf5,
  0x7d, 0x71, 0x7f, 0x25, 0xc9, 0xe9, 0xea, 0x3a, 0xfc, 0x20, 0xad, 0x67,
  0x45, 0xae, 0x3a, 0x24, 0x5e, 0xff, 0xff, 0xff, 0x04, 0x00, 0x00, 0x00,
  0x08, 0x00, 0x00, 0x00, 0xff, 0xff, 0xff, 0xff, 0x80, 0x02, 0x00, 0x00,
  0xa0, 0xf2, 0xff, 0xff, 0xa4, 0xf2, 0xff, 0xff, 0x0f, 0x00, 0x00, 0x00,
  0x4d, 0x4c, 0x49, 0x52, 0x20, 0x43, 0x6f, 0x6e, 0x76, 0x65, 0x72, 0x74,
  0x65, 0x64, 0x2e, 0x00, 0x01, 0x00, 0x00, 0x00, 0x14, 0x00, 0x00, 0x00,
  0x00, 0x00, 0x0e, 0x00, 0x18, 0x00, 0x14, 0x00, 0x10, 0x00, 0x0c, 0x00,
  0x08, 0x00, 0x04, 0x00, 0x0e, 0x00, 0x00, 0x00, 0x14, 0x00, 0x00, 0x00,
  0x1c, 0x00, 0x00, 0x00, 0xc0, 0x01, 0x00, 0x00, 0xc4, 0x01, 0x00, 0x00,
  0xc8, 0x01, 0x00, 0x00, 0x04, 0x00, 0x00, 0x00, 0x6d, 0x61, 0x69, 0x6e,
  0x00, 0x00, 0x00, 0x00, 0x06, 0x00, 0x00, 0x00, 0x5c, 0x01, 0x00, 0x00,
  0x0c, 0x01, 0x00, 0x00, 0xbc, 0x00, 0x00, 0x00, 0x84, 0x00, 0x00, 0x00,
  0x40, 0x00, 0x00, 0x00, 0x04, 0x00, 0x00, 0x00, 0x62, 0xff, 0xff, 0xff,
  0x1c, 0x00, 0x00, 0x00, 0x00, 0x00, 0x00, 0x09, 0x1c, 0x00, 0x00, 0x00,
  0x20, 0x00, 0x00, 0x00, 0x04, 0x00, 0x00, 0x00, 0x00, 0x00, 0x06, 0x00,
  0x08, 0x00, 0x04, 0x00, 0x06, 0x00, 0x00, 0x00, 0x00, 0x00, 0x80, 0x3f,
  0x01, 0x00, 0x00, 0x00, 0x0d, 0x00, 0x00, 0x00, 0x01, 0x00, 0x00, 0x00,
  0x0c, 0x00, 0x00, 0x00, 0x9a, 0xff, 0xff, 0xff, 0x14, 0x00, 0x00, 0x00,
  0x00, 0x00, 0x00, 0x08, 0x10, 0x00, 0x00, 0x00, 0x14, 0x00, 0x00, 0x00,
  0x03, 0x00, 0x00, 0x00, 0x64, 0xf3, 0xff, 0xff, 0x01, 0x00, 0x00, 0x00,
  0x0c, 0x00, 0x00, 0x00, 0x03, 0x00, 0x00, 0x00, 0x0b, 0x00, 0x00, 0x00,
  0x06, 0x00, 0x00, 0x00, 0x07, 0x00, 0x00, 0x00, 0x00, 0x00, 0x0a, 0x00,
  0x10, 0x00, 0x0c, 0x00, 0x08, 0x00, 0x04, 0x00, 0x0a, 0x00, 0x00, 0x00,
  0x0c, 0x00, 0x00, 0x00, 0x10, 0x00, 0x00, 0x00, 0x02, 0x00, 0x00, 0x00,
  0x01, 0x00, 0x00, 0x00, 0x0b, 0x00, 0x00, 0x00, 0x02, 0x00, 0x00, 0x00,
  0x0a, 0x00, 0x00, 0x00, 0x01, 0x00, 0x00, 0x00, 0x00, 0x00, 0x0e, 0x00,
  0x1a, 0x00, 0x14, 0x00, 0x10, 0x00, 0x0c, 0x00, 0x0b, 0x00, 0x04, 0x00,
  0x0e, 0x00, 0x00, 0x00, 0x24, 0x00, 0x00, 0x00, 0x00, 0x00, 0x00, 0x05,
  0x30, 0x00, 0x00, 0x00, 0x34, 0x00, 0x00, 0x00, 0x01, 0x00, 0x00, 0x00,
  0x00, 0x00, 0x0e, 0x00, 0x14, 0x00, 0x00, 0x00, 0x10, 0x00, 0x0c, 0x00,
  0x08, 0x00, 0x04, 0x00, 0x0e, 0x00, 0x00, 0x00, 0x02, 0x00, 0x00, 0x00,
  0x01, 0x00, 0x00, 0x00, 0x02, 0x00, 0x00, 0x00, 0x01, 0x00, 0x00, 0x00,
  0x01, 0x00, 0x00, 0x00, 0x0a, 0x00, 0x00, 0x00, 0x01, 0x00, 0x00, 0x00,
  0x09, 0x00, 0x00, 0x00, 0xc2, 0xff, 0xff, 0xff, 0x10, 0x00, 0x00, 0x00,
  0x00, 0x00, 0x00, 0x01, 0x18, 0x00, 0x00, 0x00, 0x1c, 0x00, 0x00, 0x00,
  0xb4, 0xff, 0xff, 0xff, 0x00, 0x00, 0x00, 0x01, 0x01, 0x00, 0x00, 0x00,
  0x01, 0x00, 0x00, 0x00, 0x01, 0x00, 0x00, 0x00, 0x09, 0x00, 0x00, 0x00,
  0x03, 0x00, 0x00, 0x00, 0x08, 0x00, 0x00, 0x00, 0x04, 0x00, 0x00, 0x00,
  0x05, 0x00, 0x00, 0x00, 0x00, 0x00, 0x0e, 0x00, 0x14, 0x00, 0x00, 0x00,
  0x10, 0x00, 0x0c, 0x00, 0x0b, 0x00, 0x04, 0x00, 0x0e, 0x00, 0x00, 0x00,
  0x1c, 0x00, 0x00, 0x00, 0x00, 0x00, 0x00, 0x01, 0x24, 0x00, 0x00, 0x00,
  0x28, 0x00, 0x00, 0x00, 0x0c, 0x00, 0x10, 0x00, 0x00, 0x00, 0x0c, 0x00,
  0x08, 0x00, 0x07, 0x00, 0x0c, 0x00, 0x00, 0x00, 0x00, 0x00, 0x00, 0x01,
  0x01, 0x00, 0x00, 0x00, 0x01, 0x00, 0x00, 0x00, 0x01, 0x00, 0x00, 0x00,
  0x08, 0x00, 0x00, 0x00, 0x03, 0x00, 0x00, 0x00, 0x00, 0x00, 0x00, 0x00,
  0x02, 0x00, 0x00, 0x00, 0x03, 0x00, 0x00, 0x00, 0x01, 0x00, 0x00, 0x00,
  0x0d, 0x00, 0x00, 0x00, 0x01, 0x00, 0x00, 0x00, 0x00, 0x00, 0x00, 0x00,
  0x0e, 0x00, 0x00, 0x00, 0x94, 0x0b, 0x00, 0x00, 0x30, 0x0b, 0x00, 0x00,
  0xf8, 0x09, 0x00, 0x00, 0xcc, 0x08, 0x00, 0x00, 0xe0, 0x06, 0x00, 0x00,
  0xf4, 0x04, 0x00, 0x00, 0x88, 0x04, 0x00, 0x00, 0x14, 0x04, 0x00, 0x00,
  0x20, 0x03, 0x00, 0x00, 0x2c, 0x02, 0x00, 0x00, 0x98, 0x01, 0x00, 0x00,
  0x1c, 0x01, 0x00, 0x00, 0x80, 0x00, 0x00, 0x00, 0x04, 0x00, 0x00, 0x00,
  0xb8, 0xf4, 0xff, 0xff, 0x18, 0x00, 0x00, 0x00, 0x20, 0x00, 0x00, 0x00,
  0x40, 0x00, 0x00, 0x00, 0x0e, 0x00, 0x00, 0x00, 0x00, 0x00, 0x00, 0x09,
  0x54, 0x00, 0x00, 0x00, 0x02, 0x00, 0x00, 0x00, 0xff, 0xff, 0xff, 0xff,
  0x04, 0x00, 0x00, 0x00, 0x9c, 0xf4, 0xff, 0xff, 0x08, 0x00, 0x00, 0x00,
  0x14, 0x00, 0x00, 0x00, 0x01, 0x00, 0x00, 0x00, 0x80, 0xff, 0xff, 0xff,
  0xff, 0xff, 0xff, 0xff, 0x00, 0x00, 0x00, 0x00, 0x01, 0x00, 0x00, 0x00,
  0x00, 0x00, 0x80, 0x3b, 0x19, 0x00, 0x00, 0x00, 0x53, 0x74, 0x61, 0x74,
  0x65, 0x66, 0x75, 0x6c, 0x50, 0x61, 0x72, 0x74, 0x69, 0x74, 0x69, 0x6f,
  0x6e, 0x65, 0x64, 0x43, 0x61, 0x6c, 0x6c, 0x3a, 0x30, 0x00, 0x00, 0x00,
  0x02, 0x00, 0x00, 0x00, 0x01, 0x00, 0x00, 0x00, 0x04, 0x00, 0x00, 0x00,
  0x30, 0xf5, 0xff, 0xff, 0x18, 0x00, 0x00, 0x00, 0x20, 0x00, 0x00, 0x00,
  0x40, 0x00, 0x00, 0x00, 0x0d, 0x00, 0x00, 0x00, 0x00, 0x00, 0x00, 0x09,
  0x74, 0x00, 0x00, 0x00, 0x02, 0x00, 0x00, 0x00, 0xff, 0xff, 0xff, 0xff,
  0x04, 0x00, 0x00, 0x00, 0x14, 0xf5, 0xff, 0xff, 0x08, 0x00, 0x00, 0x00,
  0x14, 0x00, 0x00, 0x00, 0x01, 0x00, 0x00, 0x00, 0x33, 0x00, 0x00, 0x00,
  0x00, 0x00, 0x00, 0x00, 0x00, 0x00, 0x00, 0x00, 0x01, 0x00, 0x00, 0x00,
  0x14, 0x23, 0x70, 0x3d, 0x38, 0x00, 0x00, 0x00, 0x73, 0x65, 0x71, 0x75,
  0x65, 0x6e, 0x74, 0x69, 0x61, 0x6c, 0x5f, 0x32, 0x2f, 0x64, 0x65, 0x6e,
  0x73, 0x65, 0x5f, 0x31, 0x2f, 0x4d, 0x61, 0x74, 0x4d, 0x75, 0x6c, 0x3b,
  0x73, 0x65, 0x71, 0x75, 0x65, 0x6e, 0x74, 0x69, 0x61, 0x6c, 0x5f, 0x32,
  0x2f, 0x64, 0x65, 0x6e, 0x73, 0x65, 0x5f, 0x31, 0x2f, 0x42, 0x69, 0x61,
  0x73, 0x41, 0x64, 0x64, 0x00, 0x00, 0x00, 0x00, 0x02, 0x00, 0x00, 0x00,
  0x01, 0x00, 0x00, 0x00, 0x04, 0x00, 0x00, 0x00, 0xc8, 0xf5, 0xff, 0xff,
  0x18, 0x00, 0x00, 0x00, 0x20, 0x00, 0x00, 0x00, 0x3c, 0x00, 0x00, 0x00,
  0x0c, 0x00, 0x00, 0x00, 0x00, 0x00, 0x00, 0x09, 0x54, 0x00, 0x00, 0x00,
  0x02, 0x00, 0x00, 0x00, 0xff, 0xff, 0xff, 0xff, 0x80, 0x02, 0x00, 0x00,
  0xac, 0xf5, 0xff, 0xff, 0x08, 0x00, 0x00, 0x00, 0x10, 0x00, 0x00, 0x00,
  0x01, 0x00, 0x00, 0x00, 0x80, 0xff, 0xff, 0xff, 0xff, 0xff, 0xff, 0xff,
  0x01, 0x00, 0x00, 0x00, 0x6d, 0x89, 0x78, 0x3b, 0x1e, 0x00, 0x00, 0x00,
  0x73, 0x65, 0x71, 0x75, 0x65, 0x6e, 0x74, 0x69, 0x61, 0x6c, 0x5f, 0x32,
  0x2f, 0x66, 0x6c, 0x61, 0x74, 0x74, 0x65, 0x6e, 0x5f, 0x31, 0x2f, 0x52,
  0x65, 0x73, 0x68, 0x61, 0x70, 0x65, 0x00, 0x00, 0x02, 0x00, 0x00, 0x00,
  0x01, 0x00, 0x00, 0x00, 0x80, 0x02, 0x00, 0x00, 0x40, 0xf6, 0xff, 0xff,
  0x18, 0x00, 0x00, 0x00, 0x28, 0x00, 0x00, 0x00, 0x44, 0x00, 0x00, 0x00,
  0x0b, 0x00, 0x00, 0x00, 0x00, 0x00, 0x00, 0x09, 0x64, 0x00, 0x00, 0x00,
  0x04, 0x00, 0x00, 0x00, 0xff, 0xff, 0xff, 0xff, 0x01, 0x00, 0x00, 0x00,
  0x14, 0x00, 0x00, 0x00, 0x20, 0x00, 0x00, 0x00, 0x2c, 0xf6, 0xff, 0xff,
  0x08, 0x00, 0x00, 0x00, 0x10, 0x00, 0x00, 0x00, 0x01, 0x00, 0x00, 0x00,
  0x80, 0xff, 0xff, 0xff, 0xff, 0xff, 0xff, 0xff, 0x01, 0x00, 0x00, 0x00,
  0x6d, 0x89, 0x78, 0x3b, 0x24, 0x00, 0x00, 0x00, 0x73, 0x65, 0x71, 0x75,
  0x65, 0x6e, 0x74, 0x69, 0x61, 0x6c, 0x5f, 0x32, 0x2f, 0x6d, 0x61, 0x78,
  0x5f, 0x70, 0x6f, 0x6f, 0x6c, 0x69, 0x6e, 0x67, 0x32, 0x64, 0x5f, 0x31,
  0x2f, 0x4d, 0x61, 0x78, 0x50, 0x6f, 0x6f, 0x6c, 0x00, 0x00, 0x00, 0x00,
  0x04, 0x00, 0x00, 0x00, 0x01, 0x00, 0x00, 0x00, 0x01, 0x00, 0x00, 0x00,
  0x14, 0x00, 0x00, 0x00, 0x20, 0x00, 0x00, 0x00, 0xd0, 0xf6, 0xff, 0xff,
  0x18, 0x00, 0x00, 0x00, 0x28, 0x00, 0x00, 0x00, 0x48, 0x00, 0x00, 0x00,
  0x0a, 0x00, 0x00, 0x00, 0x00, 0x00, 0x00, 0x09, 0xc4, 0x00, 0x00, 0x00,
  0x04, 0x00, 0x00, 0x00, 0xff, 0xff, 0xff, 0xff, 0x01, 0x00, 0x00, 0x00,
  0x14, 0x00, 0x00, 0x00, 0x20, 0x00, 0x00, 0x00, 0xbc, 0xf6, 0xff, 0xff,
  0x08, 0x00, 0x00, 0x00, 0x14, 0x00, 0x00, 0x00, 0x01, 0x00, 0x00, 0x00,
  0x80, 0xff, 0xff, 0xff, 0xff, 0xff, 0xff, 0xff, 0x00, 0x00, 0x00, 0x00,
  0x01, 0x00, 0x00, 0x00, 0x6d, 0x89, 0x78, 0x3b, 0x82, 0x00, 0x00, 0x00,
  0x73, 0x65, 0x71, 0x75, 0x65, 0x6e, 0x74, 0x69, 0x61, 0x6c, 0x5f, 0x32,
  0x2f, 0x63, 0x6f, 0x6e, 0x76, 0x32, 0x64, 0x5f, 0x34, 0x2f, 0x52, 0x65,
  0x6c, 0x75, 0x3b, 0x73, 0x65, 0x71, 0x75, 0x65, 0x6e, 0x74, 0x69, 0x61,
  0x6c, 0x5f, 0x32, 0x2f, 0x63, 0x6f, 0x6e, 0x76, 0x32, 0x64, 0x5f, 0x34,
  0x2f, 0x42, 0x69, 0x61, 0x73, 0x41, 0x64, 0x64, 0x3b, 0x73, 0x65, 0x71,
  0x75, 0x65, 0x6e, 0x74, 0x69, 0x61, 0x6c, 0x5f, 0x32, 0x2f, 0x63, 0x6f,
  0x6e, 0x76, 0x32, 0x64, 0x5f, 0x34, 0x2f, 0x43, 0x6f, 0x6e, 0x76, 0x32,
  0x44, 0x3b, 0x73, 0x65, 0x71, 0x75, 0x65, 0x6e, 0x74, 0x69, 0x61, 0x6c,
  0x5f, 0x32, 0x2f, 0x63, 0x6f, 0x6e, 0x76, 0x32, 0x64, 0x5f, 0x34, 0x2f,
  0x42, 0x69, 0x61, 0x73, 0x41, 0x64, 0x64, 0x2f, 0x52, 0x65, 0x61, 0x64,
  0x56, 0x61, 0x72, 0x69, 0x61, 0x62, 0x6c, 0x65, 0x4f, 0x70, 0x00, 0x00,
  0x04, 0x00, 0x00, 0x00, 0x01, 0x00, 0x00, 0x00, 0x01, 0x00, 0x00, 0x00,
  0x14, 0x00, 0x00, 0x00, 0x20, 0x00, 0x00, 0x00, 0xc0, 0xf7, 0xff, 0xff,
  0x18, 0x00, 0x00, 0x00, 0x28, 0x00, 0x00, 0x00, 0x48, 0x00, 0x00, 0x00,
  0x09, 0x00, 0x00, 0x00, 0x00, 0x00, 0x00, 0x09, 0xc4, 0x00, 0x00, 0x00,
  0x04, 0x00, 0x00, 0x00, 0xff, 0xff, 0xff, 0xff, 0x01, 0x00, 0x00, 0x00,
  0x14, 0x00, 0x00, 0x00, 0x10, 0x00, 0x00, 0x00, 0xac, 0xf7, 0xff, 0xff,
  0x08, 0x00, 0x00, 0x00, 0x14, 0x00, 0x00, 0x00, 0x01, 0x00, 0x00, 0x00,
  0x80, 0xff, 0xff, 0xff, 0xff, 0xff, 0xff, 0xff, 0x00, 0x00, 0x00, 0x00,
  0x01, 0x00, 0x00, 0x00, 0xe5, 0xc8, 0x78, 0x3b, 0x82, 0x00, 0x00, 0x00,
  0x73, 0x65, 0x71, 0x75, 0x65, 0x6e, 0x74, 0x69, 0x61, 0x6c, 0x5f, 0x32,
  0x2f, 0x63, 0x6f, 0x6e, 0x76, 0x32, 0x64, 0x5f, 0x33, 0x2f, 0x52, 0x65,
  0x6c, 0x75, 0x3b, 0x73, 0x65, 0x71, 0x75, 0x65, 0x6e, 0x74, 0x69, 0x61,
  0x6c, 0x5f, 0x32, 0x2f, 0x63, 0x6f, 0x6e, 0x76, 0x32, 0x64, 0x5f, 0x33,
  0x2f, 0x42, 0x69, 0x61, 0x73, 0x41, 0x64, 0x64, 0x3b, 0x73, 0x65, 0x71,
  0x75, 0x65, 0x6e, 0x74, 0x69, 0x61, 0x6c, 0x5f, 0x32, 0x2f, 0x63, 0x6f,
  0x6e, 0x76, 0x32, 0x64, 0x5f, 0x33, 0x2f, 0x43, 0x6f, 0x6e, 0x76, 0x32,
  0x44, 0x3b, 0x73, 0x65, 0x71, 0x75, 0x65, 0x6e, 0x74, 0x69, 0x61, 0x6c,
  0x5f, 0x32, 0x2f, 0x63, 0x6f, 0x6e, 0x76, 0x32, 0x64, 0x5f, 0x33, 0x2f,
  0x42, 0x69, 0x61, 0x73, 0x41, 0x64, 0x64, 0x2f, 0x52, 0x65, 0x61, 0x64,
  0x56, 0x61, 0x72, 0x69, 0x61, 0x62, 0x6c, 0x65, 0x4f, 0x70, 0x00, 0x00,
  0x04, 0x00, 0x00, 0x00, 0x01, 0x00, 0x00, 0x00, 0x01, 0x00, 0x00, 0x00,
  0x14, 0x00, 0x00, 0x00, 0x10, 0x00, 0x00, 0x00, 0x0a, 0xf9, 0xff, 0xff,
  0x14, 0x00, 0x00, 0x00, 0x30, 0x00, 0x00, 0x00, 0x08, 0x00, 0x00, 0x00,
  0x00, 0x00, 0x00, 0x02, 0x54, 0x00, 0x00, 0x00, 0x84, 0xf8, 0xff, 0xff,
  0x08, 0x00, 0x00, 0x00, 0x10, 0x00, 0x00, 0x00, 0x01, 0x00, 0x00, 0x00,
  0x00, 0x00, 0x00, 0x00, 0x00, 0x00, 0x00, 0x00, 0x01, 0x00, 0x00, 0x00,
  0xd8, 0x62, 0xbb, 0x37, 0x2b, 0x00, 0x00, 0x00, 0x73, 0x65, 0x71, 0x75,
  0x65, 0x6e, 0x74, 0x69, 0x61, 0x6c, 0x5f, 0x32, 0x2f, 0x64, 0x65, 0x6e,
  0x73, 0x65, 0x5f, 0x31, 0x2f, 0x42, 0x69, 0x61, 0x73, 0x41, 0x64, 0x64,
  0x2f, 0x52, 0x65, 0x61, 0x64, 0x56, 0x61, 0x72, 0x69, 0x61, 0x62, 0x6c,
  0x65, 0x4f, 0x70, 0x00, 0x01, 0x00, 0x00, 0x00, 0x04, 0x00, 0x00, 0x00,
  0x7a, 0xf9, 0xff, 0xff, 0x14, 0x00, 0x00, 0x00, 0x34, 0x00, 0x00, 0x00,
  0x07, 0x00, 0x00, 0x00, 0x00, 0x00, 0x00, 0x09, 0x48, 0x00, 0x00, 0x00,
  0xf4, 0xf8, 0xff, 0xff, 0x08, 0x00, 0x00, 0x00, 0x14, 0x00, 0x00, 0x00,
  0x01, 0x00, 0x00, 0x00, 0x00, 0x00, 0x00, 0x00, 0x00, 0x00, 0x00, 0x00,
  0x00, 0x00, 0x00, 0x00, 0x01, 0x00, 0x00, 0x00, 0x56, 0x03, 0xc1, 0x3b,
  0x1b, 0x00, 0x00, 0x00, 0x73, 0x65, 0x71, 0x75, 0x65, 0x6e, 0x74, 0x69,
  0x61, 0x6c, 0x5f, 0x32, 0x2f, 0x64, 0x65, 0x6e, 0x73, 0x65, 0x5f, 0x31,
  0x2f, 0x4d, 0x61, 0x74, 0x4d, 0x75, 0x6c, 0x00, 0x02, 0x00, 0x00, 0x00,
  0x04, 0x00, 0x00, 0x00, 0x80, 0x02, 0x00, 0x00, 0xe2, 0xf9, 0xff, 0xff,
  0x14, 0x00, 0x00, 0x00, 0xa4, 0x01, 0x00, 0x00, 0x06, 0x00, 0x00, 0x00,
  0x00, 0x00, 0x00, 0x02, 0xcc, 0x01, 0x00, 0x00, 0x5c, 0xf9, 0xff, 0xff,
  0x08, 0x00, 0x00, 0x00, 0x08, 0x01, 0x00, 0x00, 0x20, 0x00, 0x00, 0x00,
  0x00, 0x00, 0x00, 0x00, 0x00, 0x00, 0x00, 0x00, 0x00, 0x00, 0x00, 0x00,
  0x00, 0x00, 0x00, 0x00, 0x00, 0x00, 0x00, 0x00, 0x00, 0x00, 0x00, 0x00,
  0x00, 0x00, 0x00, 0x00, 0x00, 0x00, 0x00, 0x00, 0x00, 0x00, 0x00, 0x00,
  0x00, 0x00, 0x00, 0x00, 0x00, 0x00, 0x00, 0x00, 0x00, 0x00, 0x00, 0x00,
  0x00, 0x00, 0x00, 0x00, 0x00, 0x00, 0x00, 0x00, 0x00, 0x00, 0x00, 0x00,
  0x00, 0x00, 0x00, 0x00, 0x00, 0x00, 0x00, 0x00, 0x00, 0x00, 0x00, 0x00,
  0x00, 0x00, 0x00, 0x00, 0x00, 0x00, 0x00, 0x00, 0x00, 0x00, 0x00, 0x00,
  0x00, 0x00, 0x00, 0x00, 0x00, 0x00, 0x00, 0x00, 0x00, 0x00, 0x00, 0x00,
  0x00, 0x00, 0x00, 0x00, 0x00, 0x00, 0x00, 0x00, 0x00, 0x00, 0x00, 0x00,
  0x00, 0x00, 0x00, 0x00, 0x00, 0x00, 0x00, 0x00, 0x00, 0x00, 0x00, 0x00,
  0x00, 0x00, 0x00, 0x00, 0x00, 0x00, 0x00, 0x00, 0x00, 0x00, 0x00, 0x00,
  0x00, 0x00, 0x00, 0x00, 0x00, 0x00, 0x00, 0x00, 0x00, 0x00, 0x00, 0x00,
  0x00, 0x00, 0x00, 0x00, 0x00, 0x00, 0x00, 0x00, 0x00, 0x00, 0x00, 0x00,
  0x00, 0x00, 0x00, 0x00, 0x00, 0x00, 0x00, 0x00, 0x00, 0x00, 0x00, 0x00,
  0x00, 0x00, 0x00, 0x00, 0x00, 0x00, 0x00, 0x00, 0x00, 0x00, 0x00, 0x00,
  0x00, 0x00, 0x00, 0x00, 0x00, 0x00, 0x00, 0x00, 0x00, 0x00, 0x00, 0x00,
  0x00, 0x00, 0x00, 0x00, 0x00, 0x00, 0x00, 0x00, 0x00, 0x00, 0x00, 0x00,
  0x00, 0x00, 0x00, 0x00, 0x00, 0x00, 0x00, 0x00, 0x00, 0x00, 0x00, 0x00,
  0x00, 0x00, 0x00, 0x00, 0x00, 0x00, 0x00, 0x00, 0x00, 0x00, 0x00, 0x00,
  0x00, 0x00, 0x00, 0x00, 0x00, 0x00, 0x00, 0x00, 0x00, 0x00, 0x00, 0x00,
  0x00, 0x00, 0x00, 0x00, 0x00, 0x00, 0x00, 0x00, 0x00, 0x00, 0x00, 0x00,
  0x00, 0x00, 0x00, 0x00, 0x20, 0x00, 0x00, 0x00, 0xe4, 0xad, 0xf4, 0x36,
  0xfa, 0x08, 0x32, 0x37, 0x75, 0xa4, 0x22, 0x37, 0xf3, 0xca, 0x44, 0x37,
  0xba, 0x48, 0x2c, 0x37, 0x4e, 0xe3, 0x2d, 0x37, 0xe3, 0xe8, 0x14, 0x37,
  0xd9, 0xb1, 0x27, 0x37, 0x97, 0x5a, 0x44, 0x37, 0x05, 0x7d, 0x11, 0x37,
  0xf4, 0x25, 0x4f, 0x37, 0x94, 0xbc, 0xca, 0x36, 0x04, 0xa1, 0x2d, 0x37,
  0xdc, 0x2a, 0x3d, 0x37, 0x82, 0xe1, 0x32, 0x37, 0xa1, 0xf8, 0x0f, 0x37,
  0x1e, 0x09, 0x33, 0x37, 0xb3, 0x27, 0x49, 0x37, 0x8a, 0xaf, 0xce, 0x36,
  0xf9, 0x7f, 0xcc, 0x36, 0x29, 0x8e, 0xcc, 0x36, 0x5f, 0x8f, 0xf7, 0x36,
  0x0a, 0x90, 0x8c, 0x37, 0x37, 0x72, 0xca, 0x36, 0x5d, 0x17, 0xc6, 0x36,
  0xd0, 0xb8, 0xca, 0x36, 0x47, 0x2e, 0xcb, 0x36, 0xf1, 0x9b, 0x28, 0x37,
  0xac, 0x8b, 0x29, 0x37, 0x87, 0x99, 0x2e, 0x37, 0x04, 0x46, 0x8a, 0x37,
  0x30, 0x48, 0x2e, 0x37, 0x2c, 0x00, 0x00, 0x00, 0x73, 0x65, 0x71, 0x75,
  0x65, 0x6e, 0x74, 0x69, 0x61, 0x6c, 0x5f, 0x32, 0x2f, 0x63, 0x6f, 0x6e,
  0x76, 0x32, 0x64, 0x5f, 0x34, 0x2f, 0x42, 0x69, 0x61, 0x73, 0x41, 0x64,
  0x64, 0x2f, 0x52, 0x65, 0x61, 0x64, 0x56, 0x61, 0x72, 0x69, 0x61, 0x62,
  0x6c, 0x65, 0x4f, 0x70, 0x00, 0x00, 0x00, 0x00, 0x01, 0x00, 0x00, 0x00,
  0x20, 0x00, 0x00, 0x00, 0xca, 0xfb, 0xff, 0xff, 0x14, 0x00, 0x00, 0x00,
  0xa8, 0x01, 0x00, 0x00, 0x05, 0x00, 0x00, 0x00, 0x00, 0x00, 0x00, 0x09,
  0xc0, 0x01, 0x00, 0x00, 0x44, 0xfb, 0xff, 0xff, 0x08, 0x00, 0x00, 0x00,
  0x0c, 0x01, 0x00, 0x00, 0x20, 0x00, 0x00, 0x00, 0x00, 0x00, 0x00, 0x00,
  0x00, 0x00, 0x00, 0x00, 0x00, 0x00, 0x00, 0x00, 0x00, 0x00, 0x00, 0x00,
  0x00, 0x00, 0x00, 0x00, 0x00, 0x00, 0x00, 0x00, 0x00, 0x00, 0x00, 0x00,
  0x00, 0x00, 0x00, 0x00, 0x00, 0x00, 0x00, 0x00, 0x00, 0x00, 0x00, 0x00,
  0x00, 0x00, 0x00, 0x00, 0x00, 0x00, 0x00, 0x00, 0x00, 0x00, 0x00, 0x00,
  0x00, 0x00, 0x00, 0x00, 0x00, 0x00, 0x00, 0x00, 0x00, 0x00, 0x00, 0x00,
  0x00, 0x00, 0x00, 0x00, 0x00, 0x00, 0x00, 0x00, 0x00, 0x00, 0x00, 0x00,
  0x00, 0x00, 0x00, 0x00, 0x00, 0x00, 0x00, 0x00, 0x00, 0x00, 0x00, 0x00,
  0x00, 0x00, 0x00, 0x00, 0x00, 0x00, 0x00, 0x00, 0x00, 0x00, 0x00, 0x00,
  0x00, 0x00, 0x00, 0x00, 0x00, 0x00, 0x00, 0x00, 0x00, 0x00, 0x00, 0x00,
  0x00, 0x00, 0x00, 0x00, 0x00, 0x00, 0x00, 0x00, 0x00, 0x00, 0x00, 0x00,
  0x00, 0x00, 0x00, 0x00, 0x00, 0x00, 0x00, 0x00, 0x00, 0x00, 0x00, 0x00,
  0x00, 0x00, 0x00, 0x00, 0x00, 0x00, 0x00, 0x00, 0x00, 0x00, 0x00, 0x00,
  0x00, 0x00, 0x00, 0x00, 0x00, 0x00, 0x00, 0x00, 0x00, 0x00, 0x00, 0x00,
  0x00, 0x00, 0x00, 0x00, 0x00, 0x00, 0x00, 0x00, 0x00, 0x00, 0x00, 0x00,
  0x00, 0x00, 0x00, 0x00, 0x00, 0x00, 0x00, 0x00, 0x00, 0x00, 0x00, 0x00,
  0x00, 0x00, 0x00, 0x00, 0x00, 0x00, 0x00, 0x00, 0x00, 0x00, 0x00, 0x00,
  0x00, 0x00, 0x00, 0x00, 0x00, 0x00, 0x00, 0x00, 0x00, 0x00, 0x00, 0x00,
  0x00, 0x00, 0x00, 0x00, 0x00, 0x00, 0x00, 0x00, 0x00, 0x00, 0x00, 0x00,
  0x00, 0x00, 0x00, 0x00, 0x00, 0x00, 0x00, 0x00, 0x00, 0x00, 0x00, 0x00,
  0x00, 0x00, 0x00, 0x00, 0x00, 0x00, 0x00, 0x00, 0x00, 0x00, 0x00, 0x00,
  0x00, 0x00, 0x00, 0x00, 0x00, 0x00, 0x00, 0x00, 0x00, 0x00, 0x00, 0x00,
  0x00, 0x00, 0x00, 0x00, 0x20, 0x00, 0x00, 0x00, 0x84, 0xc6, 0xfb, 0x3a,
  0xcd, 0x32, 0x37, 0x3b, 0xff, 0x5b, 0x27, 0x3b, 0x0a, 0x80, 0x4a, 0x3b,
  0xda, 0x47, 0x31, 0x3b, 0x56, 0xee, 0x32, 0x3b, 0x78, 0x3a, 0x19, 0x3b,
  0xe6, 0x8e, 0x2c, 0x3b, 0x6c, 0x0c, 0x4a, 0x3b, 0x33, 0xb5, 0x15, 0x3b,
  0xee, 0x27, 0x55, 0x3b, 0xcc, 0x9d, 0xd0, 0x3a, 0x20, 0xaa, 0x32, 0x3b,
  0x56, 0xa7, 0x42, 0x3b, 0x9c, 0x11, 0x38, 0x3b, 0x8c, 0x25, 0x14, 0x3b,
  0x5f, 0x3a, 0x38, 0x3b, 0x2d, 0xfd, 0x4e, 0x3b, 0x14, 0xae, 0xd4, 0x3a,
  0x49, 0x6e, 0xd2, 0x3a, 0xe2, 0x7c, 0xd2, 0x3a, 0x62, 0xbd, 0xfe, 0x3a,
  0xa6, 0xa3, 0x90, 0x3b, 0x47, 0x51, 0xd0, 0x3a, 0x18, 0xd6, 0xcb, 0x3a,
  0xed, 0x99, 0xd0, 0x3a, 0xcc, 0x12, 0xd1, 0x3a, 0xc8, 0x7f, 0x2d, 0x3b,
  0x77, 0x76, 0x2e, 0x3b, 0xd8, 0xa9, 0x33, 0x3b, 0xa1, 0x48, 0x8e, 0x3b,
  0x25, 0x56, 0x33, 0x3b, 0x1c, 0x00, 0x00, 0x00, 0x73, 0x65, 0x71, 0x75,
  0x65, 0x6e, 0x74, 0x69, 0x61, 0x6c, 0x5f, 0x32, 0x2f, 0x63, 0x6f, 0x6e,
  0x76, 0x32, 0x64, 0x5f, 0x34, 0x2f, 0x43, 0x6f, 0x6e, 0x76, 0x32, 0x44,
  0x00, 0x00, 0x00, 0x00, 0x04, 0x00, 0x00, 0x00, 0x20, 0x00, 0x00, 0x00,
  0x03, 0x00, 0x00, 0x00, 0x01, 0x00, 0x00, 0x00, 0x10, 0x00, 0x00, 0x00,
  0xb2, 0xfd, 0xff, 0xff, 0x14, 0x00, 0x00, 0x00, 0xe4, 0x00, 0x00, 0x00,
  0x04, 0x00, 0x00, 0x00, 0x00, 0x00, 0x00, 0x02, 0x0c, 0x01, 0x00, 0x00,
  0x2c, 0xfd, 0xff, 0xff, 0x08, 0x00, 0x00, 0x00, 0x88, 0x00, 0x00, 0x00,
  0x10, 0x00, 0x00, 0x00, 0x00, 0x00, 0x00, 0x00, 0x00, 0x00, 0x00, 0x00,
  0x00, 0x00, 0x00, 0x00, 0x00, 0x00, 0x00, 0x00, 0x00, 0x00, 0x00, 0x00,
  0x00, 0x00, 0x00, 0x00, 0x00, 0x00, 0x00, 0x00, 0x00, 0x00, 0x00, 0x00,
  0x00, 0x00, 0x00, 0x00, 0x00, 0x00, 0x00, 0x00, 0x00, 0x00, 0x00, 0x00,
  0x00, 0x00, 0x00, 0x00, 0x00, 0x00, 0x00, 0x00, 0x00, 0x00, 0x00, 0x00,
  0x00, 0x00, 0x00, 0x00, 0x00, 0x00, 0x00, 0x00, 0x00, 0x00, 0x00, 0x00,
  0x00, 0x00, 0x00, 0x00, 0x00, 0x00, 0x00, 0x00, 0x00, 0x00, 0x00, 0x00,
  0x00, 0x00, 0x00, 0x00, 0x00, 0x00, 0x00, 0x00, 0x00, 0x00, 0x00, 0x00,
  0x00, 0x00, 0x00, 0x00, 0x00, 0x00, 0x00, 0x00, 0x00, 0x00, 0x00, 0x00,
  0x00, 0x00, 0x00, 0x00, 0x00, 0x00, 0x00, 0x00, 0x00, 0x00, 0x00, 0x00,
  0x00, 0x00, 0x00, 0x00, 0x00, 0x00, 0x00, 0x00, 0x00, 0x00, 0x00, 0x00,
  0x10, 0x00, 0x00, 0x00, 0x04, 0xf4, 0x32, 0x37, 0xd8, 0x37, 0x4c, 0x37,
  0xc9, 0x00, 0x73, 0x37, 0x08, 0xae, 0x10, 0x37, 0x22, 0xc3, 0x0f, 0x37,
  0xae, 0xf7, 0x67, 0x37, 0x7f, 0x4e, 0x3a, 0x37, 0x9b, 0x20, 0x63, 0x37,
  0xbe, 0x6c, 0x10, 0x37, 0x5a, 0x81, 0xfe, 0x36, 0x40, 0x06, 0x35, 0x37,
  0xd1, 0xc4, 0x52, 0x37, 0xaa, 0x45, 0x0a, 0x37, 0xf5, 0x4e, 0x59, 0x37,
  0xcd, 0x36, 0x68, 0x37, 0xd7, 0x47, 0x2f, 0x37, 0x2c, 0x00, 0x00, 0x00,
  0x73, 0x65, 0x71, 0x75, 0x65, 0x6e, 0x74, 0x69, 0x61, 0x6c, 0x5f, 0x32,
  0x2f, 0x63, 0x6f, 0x6e, 0x76, 0x32, 0x64, 0x5f, 0x33, 0x2f, 0x42, 0x69,
  0x61, 0x73, 0x41, 0x64, 0x64, 0x2f, 0x52, 0x65, 0x61, 0x64, 0x56, 0x61,
  0x72, 0x69, 0x61, 0x62, 0x6c, 0x65, 0x4f, 0x70, 0x00, 0x00, 0x00, 0x00,
  0x01, 0x00, 0x00, 0x00, 0x10, 0x00, 0x00, 0x00, 0xda, 0xfe, 0xff, 0xff,
  0x14, 0x00, 0x00, 0x00, 0xe4, 0x00, 0x00, 0x00, 0x03, 0x00, 0x00, 0x00,
  0x00, 0x00, 0x00, 0x09, 0xfc, 0x00, 0x00, 0x00, 0x54, 0xfe, 0xff, 0xff,
  0x08, 0x00, 0x00, 0x00, 0x88, 0x00, 0x00, 0x00, 0x10, 0x00, 0x00, 0x00,
  0x00, 0x00, 0x00, 0x00, 0x00, 0x00, 0x00, 0x00, 0x00, 0x00, 0x00, 0x00,
  0x00, 0x00, 0x00, 0x00, 0x00, 0x00, 0x00, 0x00, 0x00, 0x00, 0x00, 0x00,
  0x00, 0x00, 0x00, 0x00, 0x00, 0x00, 0x00, 0x00, 0x00, 0x00, 0x00, 0x00,
  0x00, 0x00, 0x00, 0x00, 0x00, 0x00, 0x00, 0x00, 0x00, 0x00, 0x00, 0x00,
  0x00, 0x00, 0x00, 0x00, 0x00, 0x00, 0x00, 0x00, 0x00, 0x00, 0x00, 0x00,
  0x00, 0x00, 0x00, 0x00, 0x00, 0x00, 0x00, 0x00, 0x00, 0x00, 0x00, 0x00,
  0x00, 0x00, 0x00, 0x00, 0x00, 0x00, 0x00, 0x00, 0x00, 0x00, 0x00, 0x00,
  0x00, 0x00, 0x00, 0x00, 0x00, 0x00, 0x00, 0x00, 0x00, 0x00, 0x00, 0x00,
  0x00, 0x00, 0x00, 0x00, 0x00, 0x00, 0x00, 0x00, 0x00, 0x00, 0x00, 0x00,
  0x00, 0x00, 0x00, 0x00, 0x00, 0x00, 0x00, 0x00, 0x00, 0x00, 0x00, 0x00,
  0x00, 0x00, 0x00, 0x00, 0x00, 0x00, 0x00, 0x00, 0x10, 0x00, 0x00, 0x00,
  0x0f, 0x41, 0x32, 0x3b, 0x9f, 0x6b, 0x4b, 0x3b, 0xc7, 0x0d, 0x72, 0x3b,
  0x59, 0x1d, 0x10, 0x3b, 0x5e, 0x33, 0x0f, 0x3b, 0xb5, 0x0f, 0x67, 0x3b,
  0x30, 0x94, 0x39, 0x3b, 0x7a, 0x3d, 0x62, 0x3b, 0x51, 0xdc, 0x0f, 0x3b,
  0xd8, 0x82, 0xfd, 0x3a, 0x39, 0x51, 0x34, 0x3b, 0x0b, 0xf2, 0x51, 0x3b,
  0x64, 0xbb, 0x09, 0x3b, 0xa5, 0x75, 0x58, 0x3b, 0x95, 0x4e, 0x67, 0x3b,
  0x8e, 0x98, 0x2e, 0x3b, 0x1c, 0x00, 0x00, 0x00, 0x73, 0x65, 0x71, 0x75,
  0x65, 0x6e, 0x74, 0x69, 0x61, 0x6c, 0x5f, 0x32, 0x2f, 0x63, 0x6f, 0x6e,
  0x76, 0x32, 0x64, 0x5f, 0x33, 0x2f, 0x43, 0x6f, 0x6e, 0x76, 0x32, 0x44,
  0x00, 0x00, 0x00, 0x00, 0x04, 0x00, 0x00, 0x00, 0x10, 0x00, 0x00, 0x00,
  0x03, 0x00, 0x00, 0x00, 0x01, 0x00, 0x00, 0x00, 0x09, 0x00, 0x00, 0x00,
  0x00, 0x00, 0x0e, 0x00, 0x18, 0x00, 0x14, 0x00, 0x13, 0x00, 0x0c, 0x00,
  0x08, 0x00, 0x04, 0x00, 0x0e, 0x00, 0x00, 0x00, 0x18, 0x00, 0x00, 0x00,
  0x18, 0x00, 0x00, 0x00, 0x02, 0x00, 0x00, 0x00, 0x00, 0x00, 0x00, 0x02,
  0x30, 0x00, 0x00, 0x00, 0x04, 0x00, 0x04, 0x00, 0x04, 0x00, 0x00, 0x00,
  0x1c, 0x00, 0x00, 0x00, 0x73, 0x65, 0x71, 0x75, 0x65, 0x6e, 0x74, 0x69,
  0x61, 0x6c, 0x5f, 0x32, 0x2f, 0x66, 0x6c, 0x61, 0x74, 0x74, 0x65, 0x6e,
  0x5f, 0x31, 0x2f, 0x43, 0x6f, 0x6e, 0x73, 0x74, 0x00, 0x00, 0x00, 0x00,
  0x01, 0x00, 0x00, 0x00, 0x02, 0x00, 0x00, 0x00, 0x14, 0x00, 0x1c, 0x00,
  0x18, 0x00, 0x17, 0x00, 0x10, 0x00, 0x0c, 0x00, 0x08, 0x00, 0x00, 0x00,
  0x00, 0x00, 0x04, 0x00, 0x14, 0x00, 0x00, 0x00, 0x18, 0x00, 0x00, 0x00,
  0x34, 0x00, 0x00, 0x00, 0x50, 0x00, 0x00, 0x00, 0x01, 0x00, 0x00, 0x00,
  0x00, 0x00, 0x00, 0x09, 0x6c, 0x00, 0x00, 0x00, 0x04, 0x00, 0x00, 0x00,
  0xff, 0xff, 0xff, 0xff, 0x01, 0x00, 0x00, 0x00, 0x14, 0x00, 0x00, 0x00,
  0x09, 0x00, 0x00, 0x00, 0x0c, 0x00, 0x0c, 0x00, 0x00, 0x00, 0x00, 0x00,
  0x08, 0x00, 0x04, 0x00, 0x0c, 0x00, 0x00, 0x00, 0x08, 0x00, 0x00, 0x00,
  0x10, 0x00, 0x00, 0x00, 0x01, 0x00, 0x00, 0x00, 0x80, 0xff, 0xff, 0xff,
  0xff, 0xff, 0xff, 0xff, 0x01, 0x00, 0x00, 0x00, 0x81, 0x80, 0x80, 0x3b,
  0x20, 0x00, 0x00, 0x00, 0x73, 0x65, 0x72, 0x76, 0x69, 0x6e, 0x67, 0x5f,
  0x64, 0x65, 0x66, 0x61, 0x75, 0x6c, 0x74, 0x5f, 0x63, 0x6f, 0x6e, 0x76,
  0x32, 0x64, 0x5f, 0x33, 0x5f, 0x69, 0x6e, 0x70, 0x75, 0x74, 0x3a, 0x30,
  0x00, 0x00, 0x00, 0x00, 0x04, 0x00, 0x00, 0x00, 0x01, 0x00, 0x00, 0x00,
  0x01, 0x00, 0x00, 0x00, 0x14, 0x00, 0x00, 0x00, 0x09, 0x00, 0x00, 0x00,
  0x05, 0x00, 0x00, 0x00, 0x68, 0x00, 0x00, 0x00, 0x48, 0x00, 0x00, 0x00,
  0x38, 0x00, 0x00, 0x00, 0x18, 0x00, 0x00, 0x00, 0x04, 0x00, 0x00, 0x00,
  0xb8, 0xff, 0xff, 0xff, 0x19, 0x00, 0x00, 0x00, 0x02, 0x00, 0x00, 0x00,
  0x00, 0x00, 0x00, 0x19, 0xc8, 0xff, 0xff, 0xff, 0x09, 0x00, 0x00, 0x00,
  0x04, 0x00, 0x00, 0x00, 0x00, 0x00, 0x00, 0x09, 0x0c, 0x00, 0x0c, 0x00,
  0x0b, 0x00, 0x00, 0x00, 0x00, 0x00, 0x04, 0x00, 0x0c, 0x00, 0x00, 0x00,
  0x16, 0x00, 0x00, 0x00, 0x00, 0x00, 0x00, 0x16, 0xf0, 0xff, 0xff, 0xff,
  0x11, 0x00, 0x00, 0x00, 0x02, 0x00, 0x00, 0x00, 0x00, 0x00, 0x00, 0x11,
  0x0c, 0x00, 0x10, 0x00, 0x0f, 0x00, 0x00, 0x00, 0x08, 0x00, 0x04, 0x00,
  0x0c, 0x00, 0x00, 0x00, 0x03, 0x00, 0x00, 0x00, 0x03, 0x00, 0x00, 0x00,
  0x00, 0x00, 0x00, 0x03
};
unsigned int model_len = 9088;
