unsigned char model[] = {
  0x20, 0x00, 0x00, 0x00, 0x54, 0x46, 0x4c, 0x33, 0x00, 0x00, 0x00, 0x00,
  0x14, 0x00, 0x20, 0x00, 0x1c, 0x00, 0x18, 0x00, 0x14, 0x00, 0x10, 0x00,
  0x0c, 0x00, 0x00, 0x00, 0x08, 0x00, 0x04, 0x00, 0x14, 0x00, 0x00, 0x00,
  0x1c, 0x00, 0x00, 0x00, 0x88, 0x00, 0x00, 0x00, 0xe0, 0x00, 0x00, 0x00,
  0x18, 0x15, 0x00, 0x00, 0x28, 0x15, 0x00, 0x00, 0x64, 0x27, 0x00, 0x00,
  0x03, 0x00, 0x00, 0x00, 0x01, 0x00, 0x00, 0x00, 0x04, 0x00, 0x00, 0x00,
  0x22, 0xe9, 0xff, 0xff, 0x0c, 0x00, 0x00, 0x00, 0x1c, 0x00, 0x00, 0x00,
  0x38, 0x00, 0x00, 0x00, 0x0f, 0x00, 0x00, 0x00, 0x73, 0x65, 0x72, 0x76,
  0x69, 0x6e, 0x67, 0x5f, 0x64, 0x65, 0x66, 0x61, 0x75, 0x6c, 0x74, 0x00,
  0x01, 0x00, 0x00, 0x00, 0x04, 0x00, 0x00, 0x00, 0x94, 0xff, 0xff, 0xff,
  0x16, 0x00, 0x00, 0x00, 0x04, 0x00, 0x00, 0x00, 0x07, 0x00, 0x00, 0x00,
  0x64, 0x65, 0x6e, 0x73, 0x65, 0x5f, 0x36, 0x00, 0x01, 0x00, 0x00, 0x00,
  0x04, 0x00, 0x00, 0x00, 0x26, 0xe9, 0xff, 0xff, 0x04, 0x00, 0x00, 0x00,
  0x0f, 0x00, 0x00, 0x00, 0x72, 0x65, 0x73, 0x68, 0x61, 0x70, 0x65, 0x5f,
  0x32, 0x5f, 0x69, 0x6e, 0x70, 0x75, 0x74, 0x00, 0x02, 0x00, 0x00, 0x00,
  0x34, 0x00, 0x00, 0x00, 0x04, 0x00, 0x00, 0x00, 0xdc, 0xff, 0xff, 0xff,
  0x19, 0x00, 0x00, 0x00, 0x04, 0x00, 0x00, 0x00, 0x13, 0x00, 0x00, 0x00,
  0x43, 0x4f, 0x4e, 0x56, 0x45, 0x52, 0x53, 0x49, 0x4f, 0x4e, 0x5f, 0x4d,
  0x45, 0x54, 0x41, 0x44, 0x41, 0x54, 0x41, 0x00, 0x08, 0x00, 0x0c, 0x00,
  0x08, 0x00, 0x04, 0x00, 0x08, 0x00, 0x00, 0x00, 0x18, 0x00, 0x00, 0x00,
  0x04, 0x00, 0x00, 0x00, 0x13, 0x00, 0x00, 0x00, 0x6d, 0x69, 0x6e, 0x5f,
  0x72, 0x75, 0x6e, 0x74, 0x69, 0x6d, 0x65, 0x5f, 0x76, 0x65, 0x72, 0x73,
  0x69, 0x6f, 0x6e, 0x00, 0x1a, 0x00, 0x00, 0x00, 0x34, 0x14, 0x00, 0x00,
  0x2c, 0x14, 0x00, 0x00, 0x18, 0x14, 0x00, 0x00, 0x04, 0x14, 0x00, 0x00,
  0xfc, 0x13, 0x00, 0x00, 0xe8, 0x13, 0x00, 0x00, 0xd4, 0x13, 0x00, 0x00,
  0xbc, 0x13, 0x00, 0x00, 0xfc, 0x11, 0x00, 0x00, 0xac, 0x11, 0x00, 0x00,
  0x9c, 0x0b, 0x00, 0x00, 0x0c, 0x0b, 0x00, 0x00, 0xfc, 0x00, 0x00, 0x00,
  0xdc, 0x00, 0x00, 0x00, 0xd4, 0x00, 0x00, 0x00, 0xcc, 0x00, 0x00, 0x00,
  0xc4, 0x00, 0x00, 0x00, 0xbc, 0x00, 0x00, 0x00, 0xb4, 0x00, 0x00, 0x00,
  0xac, 0x00, 0x00, 0x00, 0xa4, 0x00, 0x00, 0x00, 0x9c, 0x00, 0x00, 0x00,
  0x94, 0x00, 0x00, 0x00, 0x8c, 0x00, 0x00, 0x00, 0x6c, 0x00, 0x00, 0x00,
  0x04, 0x00, 0x00, 0x00, 0x0a, 0xea, 0xff, 0xff, 0x04, 0x00, 0x00, 0x00,
  0x58, 0x00, 0x00, 0x00, 0x0c, 0x00, 0x00, 0x00, 0x08, 0x00, 0x0e, 0x00,
  0x08, 0x00, 0x04, 0x00, 0x08, 0x00, 0x00, 0x00, 0x10, 0x00, 0x00, 0x00,
  0x28, 0x00, 0x00, 0x00, 0x00, 0x00, 0x06, 0x00, 0x08, 0x00, 0x04, 0x00,
  0x06, 0x00, 0x00, 0x00, 0x04, 0x00, 0x00, 0x00, 0x01, 0x00, 0x00, 0x00,
  0xeb, 0x03, 0x00, 0x00, 0x00, 0x00, 0x0a, 0x00, 0x10, 0x00, 0x0c, 0x00,
  0x08, 0x00, 0x04, 0x00, 0x0a, 0x00, 0x00, 0x00, 0x01, 0x00, 0x00, 0x00,
  0x02, 0x00, 0x00, 0x00, 0x04, 0x00, 0x00, 0x00, 0x05, 0x00, 0x00, 0x00,
  0x32, 0x2e, 0x39, 0x2e, 0x30, 0x00, 0x00, 0x00, 0x6e, 0xea, 0xff, 0xff,
  0x04, 0x00, 0x00, 0x00, 0x10, 0x00, 0x00, 0x00, 0x31, 0x2e, 0x31, 0x34,
  0x2e, 0x30, 0x00, 0x00, 0x00, 0x00, 0x00, 0x00, 0x00, 0x00, 0x00, 0x00,
  0x44, 0xdb, 0xff, 0xff, 0x48, 0xdb, 0xff, 0xff, 0x4c, 0xdb, 0xff, 0xff,
  0x50, 0xdb, 0xff, 0xff, 0x54, 0xdb, 0xff, 0xff, 0x58, 0xdb, 0xff, 0xff,
  0x5c, 0xdb, 0xff, 0xff, 0x60, 0xdb, 0xff, 0xff, 0x64, 0xdb, 0xff, 0xff,
  0x68, 0xdb, 0xff, 0xff, 0xb2, 0xea, 0xff, 0xff, 0x04, 0x00, 0x00, 0x00,
  0x10, 0x00, 0x00, 0x00, 0xec, 0xfe, 0xff, 0xff, 0x23, 0xff, 0xff, 0xff,
  0xff, 0x01, 0x00, 0x00, 0x64, 0xfe, 0xff, 0xff, 0xce, 0xea, 0xff, 0xff,
  0x04, 0x00, 0x00, 0x00, 0x00, 0x0a, 0x00, 0x00, 0xd0, 0x00, 0x10, 0xfd,
  0x29, 0xf5, 0x10, 0x07, 0xe8, 0xf2, 0x12, 0x9f, 0xd0, 0xf1, 0xf3, 0x15,
  0xf6, 0xfe, 0x09, 0x00, 0x0b, 0x1a, 0x1a, 0xfc, 0x06, 0xf7, 0xdc, 0x07,
  0x08, 0xda, 0xf9, 0x0a, 0xd8, 0x12, 0x15, 0x0a, 0x0e, 0x0c, 0xf9, 0xfe,
  0xe2, 0xf9, 0x08, 0x9b, 0xc8, 0xe8, 0xdb, 0x04, 0xf8, 0x05, 0x1f, 0xfe,
  0x0a, 0x10, 0x15, 0xf3, 0xf9, 0xf3, 0xfd, 0x06, 0x1f, 0xd4, 0x0f, 0x1a,
  0xd8, 0xf7, 0x1c, 0xf9, 0x0a, 0xed, 0xf3, 0xf5, 0xf5, 0xfb, 0x02, 0x8f,
  0xd2, 0xf9, 0xde, 0xfc, 0x01, 0x04, 0x0d, 0xf5, 0xff, 0x10, 0x16, 0xf2,
  0x04, 0x01, 0xff, 0x1d, 0x21, 0xbd, 0xf8, 0x11, 0xee, 0xfd, 0x16, 0x10,
  0x12, 0xfd, 0xf4, 0x0d, 0xf1, 0x09, 0x04, 0xa5, 0xd2, 0x06, 0xdf, 0xff,
  0xf2, 0x0e, 0x08, 0xf1, 0xfc, 0x1c, 0x1a, 0x03, 0x02, 0x04, 0xf8, 0x16,
  0x01, 0xc4, 0x09, 0x1a, 0xe2, 0xfc, 0x1a, 0x0a, 0x0c, 0x06, 0xf0, 0x0f,
  0x03, 0x10, 0x14, 0x9d, 0xc9, 0xf4, 0xe8, 0x08, 0x04, 0xf1, 0x01, 0x01,
  0x03, 0x16, 0x04, 0x02, 0x13, 0x05, 0xeb, 0x08, 0x14, 0xc8, 0xff, 0x1d,
  0xdd, 0xfe, 0x0f, 0x17, 0x1b, 0x07, 0x03, 0x0a, 0xff, 0x0e, 0x19, 0x9a,
  0xbf, 0xf2, 0xf5, 0x0c, 0xff, 0x00, 0xfe, 0x0b, 0x10, 0x03, 0x1b, 0x07,
  0x16, 0xea, 0xef, 0x14, 0x18, 0xcf, 0x14, 0x0f, 0xe4, 0x0e, 0xfe, 0x02,
  0x25, 0x03, 0xee, 0xff, 0xea, 0x0e, 0x0d, 0x9d, 0xc7, 0xee, 0xfa, 0x13,
  0xfa, 0x09, 0xfd, 0x01, 0x0f, 0x1e, 0x19, 0xff, 0xf9, 0xea, 0xea, 0x15,
  0x0c, 0xd2, 0x19, 0x19, 0xd2, 0xf4, 0x01, 0x02, 0x29, 0x01, 0xf7, 0xf4,
  0xf6, 0x04, 0x17, 0x86, 0xe2, 0xe8, 0xf6, 0x09, 0x09, 0xfc, 0x08, 0xf1,
  0xf5, 0x1b, 0x01, 0x04, 0xf6, 0x09, 0xe0, 0x02, 0x1f, 0xda, 0x05, 0x03,
  0xe6, 0xf0, 0xfe, 0xf8, 0x16, 0x0a, 0xf3, 0x0b, 0xeb, 0xf5, 0x19, 0xb4,
  0xd8, 0xfd, 0xe2, 0xfa, 0xfc, 0xf9, 0x0e, 0x09, 0xee, 0x13, 0x03, 0x01,
  0x00, 0xf7, 0xe6, 0x17, 0x07, 0xd0, 0x17, 0x1b, 0xed, 0x03, 0xfd, 0x00,
  0x16, 0xef, 0x11, 0x08, 0xef, 0x06, 0xfe, 0xd2, 0xd0, 0x02, 0xf4, 0xfe,
  0xf5, 0xf7, 0x05, 0xf4, 0x01, 0x0d, 0xf1, 0x04, 0xf4, 0xf1, 0x0a, 0x15,
  0xfd, 0x01, 0x08, 0xfa, 0x03, 0xf6, 0x12, 0x14, 0xff, 0xfd, 0x07, 0xf1,
  0xf2, 0x08, 0x00, 0x10, 0x00, 0x05, 0xe2, 0xfc, 0xf2, 0x02, 0xf5, 0x0e,
  0xf4, 0xf5, 0x07, 0xf9, 0xee, 0x06, 0xf7, 0x03, 0xfc, 0x11, 0x10, 0xf7,
  0x04, 0x03, 0xef, 0xf2, 0xde, 0x0d, 0xf6, 0x0b, 0x06, 0x06, 0xf2, 0x27,
  0xe8, 0x0e, 0xf7, 0xef, 0x01, 0x00, 0xea, 0x0e, 0xf6, 0xf7, 0xfc, 0xf4,
  0xee, 0x09, 0x10, 0xef, 0xf7, 0x1f, 0xf4, 0xf8, 0xfe, 0x06, 0x01, 0xfd,
  0xc9, 0xfc, 0xfc, 0xfb, 0x0b, 0xf2, 0x03, 0x32, 0xfe, 0x0e, 0xfe, 0xf4,
  0xf8, 0xfd, 0xdd, 0x11, 0xfa, 0xfa, 0xee, 0x05, 0x03, 0x0a, 0xfb, 0xe2,
  0xd0, 0x17, 0xf8, 0xd9, 0x0e, 0x07, 0xf3, 0xe4, 0xd9, 0xf1, 0xef, 0x00,
  0x0f, 0x0b, 0xe5, 0x0e, 0xf4, 0x04, 0xff, 0xf2, 0xee, 0xf9, 0xe7, 0x02,
  0x0b, 0xdf, 0xdd, 0xf6, 0xf5, 0x02, 0x14, 0xed, 0xd6, 0x21, 0x01, 0xe1,
  0x02, 0x0a, 0xf7, 0xf3, 0xd2, 0xfe, 0x06, 0xfc, 0x0f, 0xf7, 0xe6, 0x1a,
  0x05, 0x02, 0x06, 0xfe, 0x09, 0x01, 0xe3, 0xf4, 0xfa, 0xdb, 0xf1, 0x08,
  0xf8, 0x01, 0x05, 0xf6, 0xc5, 0x09, 0x05, 0xe4, 0xf8, 0xfe, 0xeb, 0xe4,
  0xcd, 0x14, 0x11, 0xf6, 0x0f, 0xef, 0xe2, 0x1e, 0x02, 0xfa, 0x03, 0x02,
  0xeb, 0xfc, 0xe1, 0xfd, 0xf1, 0xdf, 0xfa, 0xfe, 0x04, 0x00, 0x17, 0xe3,
  0xda, 0x18, 0x06, 0xf1, 0xfe, 0xf4, 0xe6, 0xe6, 0xcf, 0x11, 0x05, 0x03,
  0x0d, 0xf9, 0xf1, 0x2c, 0xfb, 0x02, 0xf6, 0xf5, 0xf7, 0x10, 0xd8, 0x0c,
  0x03, 0xea, 0xdb, 0xf4, 0xe5, 0xfc, 0x08, 0xe4, 0xd6, 0x0d, 0x05, 0xe2,
  0xff, 0x08, 0xd5, 0xe2, 0xbb, 0x10, 0xff, 0x11, 0xfa, 0xf7, 0xdf, 0x2a,
  0xea, 0xfd, 0xf5, 0xfa, 0x05, 0xfd, 0xe9, 0x0a, 0x07, 0xf5, 0xec, 0xf3,
  0xfb, 0xee, 0xf7, 0xec, 0xc6, 0xff, 0xe6, 0xd8, 0xfe, 0x10, 0xed, 0xdc,
  0xc0, 0x0b, 0xf4, 0xfd, 0x0d, 0x07, 0xe8, 0x2f, 0x09, 0xff, 0x04, 0xfc,
  0xf7, 0xf9, 0xeb, 0x0c, 0x05, 0xe0, 0xdb, 0x03, 0xec, 0xf1, 0x12, 0xda,
  0xd0, 0x0a, 0x00, 0xdf, 0xfb, 0xfa, 0xe0, 0xcf, 0xbd, 0xf6, 0x04, 0x06,
  0xfb, 0x0a, 0xf3, 0x13, 0x0b, 0x11, 0xf3, 0x00, 0x06, 0x03, 0xdf, 0xf8,
  0x00, 0xe0, 0xdf, 0xf5, 0xe7, 0xef, 0xf8, 0xeb, 0xdb, 0x02, 0xfe, 0xee,
  0xff, 0x0f, 0xec, 0xd7, 0xcc, 0x0b, 0xf9, 0x05, 0x0d, 0xf0, 0xd9, 0x2d,
  0xfb, 0xfc, 0x06, 0xf1, 0x03, 0x11, 0xe0, 0x07, 0xfa, 0xec, 0xde, 0xf0,
  0xef, 0x0f, 0x10, 0xe3, 0xdf, 0xf7, 0xf1, 0xe0, 0x11, 0xf5, 0xe0, 0xf5,
  0xb2, 0x06, 0x04, 0x02, 0xf4, 0xee, 0xe0, 0x2a, 0x07, 0x00, 0x0a, 0xee,
  0x0b, 0x00, 0xdd, 0x03, 0x0c, 0xe5, 0xe4, 0x10, 0xf0, 0x12, 0x13, 0xdd,
  0xcb, 0x16, 0xf3, 0xee, 0x0e, 0xf4, 0xe1, 0xfb, 0xc7, 0x00, 0xf1, 0xfb,
  0x09, 0x0a, 0xd8, 0x19, 0x09, 0x10, 0x0e, 0x03, 0xf6, 0x0e, 0xf2, 0x0b,
  0xf2, 0xe4, 0xdc, 0x03, 0xf4, 0xf1, 0xf2, 0xe8, 0xcd, 0x0e, 0xfa, 0xe3,
  0x08, 0x0c, 0xf5, 0xe0, 0xc7, 0xfc, 0xf3, 0xf2, 0xf6, 0x0f, 0xe7, 0x31,
  0x16, 0x10, 0x0a, 0xee, 0xf0, 0xf7, 0xf0, 0xfd, 0xfa, 0xe5, 0xea, 0x0b,
  0xf0, 0x10, 0x14, 0xf2, 0xea, 0x03, 0xff, 0xd8, 0x09, 0x11, 0xe6, 0xd7,
  0xbe, 0x0d, 0xf3, 0x05, 0xf4, 0x0b, 0xda, 0x18, 0x12, 0x0d, 0x02, 0xed,
  0xfd, 0xf4, 0xe6, 0xfb, 0x0e, 0xec, 0xf8, 0xf3, 0xef, 0x03, 0xf8, 0xf9,
  0xe7, 0x13, 0xf6, 0xf1, 0x05, 0xf0, 0xdc, 0xf9, 0xcb, 0xef, 0xff, 0xf4,
  0xf2, 0xed, 0xdd, 0x1f, 0xf7, 0xf7, 0x10, 0xe4, 0xf7, 0x11, 0xef, 0xfd,
  0xee, 0xe7, 0xd9, 0x02, 0xe9, 0x0d, 0xf4, 0xd6, 0xdc, 0x13, 0xe7, 0xd9,
  0xfc, 0x0a, 0xdb, 0xdd, 0xc0, 0x09, 0x01, 0xf9, 0xfd, 0xed, 0xd9, 0x31,
  0x06, 0x0b, 0x06, 0xfd, 0xf0, 0xf3, 0xd3, 0x0e, 0x00, 0xea, 0xeb, 0x04,
  0xff, 0x08, 0xff, 0xf3, 0xc7, 0x05, 0xff, 0xd5, 0xfc, 0xf7, 0xe6, 0xea,
  0xb6, 0xee, 0xee, 0xfe, 0xf9, 0xf6, 0xe8, 0x16, 0x10, 0x11, 0xf1, 0x06,
  0x0a, 0xf1, 0xdb, 0x0b, 0x06, 0xfa, 0xfa, 0x0b, 0xed, 0xfd, 0x15, 0xed,
  0xd8, 0x11, 0xe1, 0xda, 0x05, 0xfc, 0xf4, 0xde, 0xd4, 0x14, 0xf4, 0xf9,
  0x04, 0xf4, 0xf0, 0x1d, 0x0d, 0x0d, 0x00, 0xed, 0xf6, 0xf6, 0xd6, 0x0e,
  0x0a, 0xf4, 0xf0, 0x00, 0xfb, 0xf3, 0xfd, 0xe1, 0xea, 0xe9, 0xe8, 0xf2,
  0x0f, 0xfe, 0xdc, 0xf8, 0xcf, 0x0d, 0x14, 0xfb, 0xfb, 0xf7, 0x07, 0xfc,
  0xfa, 0xf4, 0x0c, 0xed, 0xf4, 0xf6, 0xf6, 0x02, 0x07, 0xe5, 0x11, 0x11,
  0x12, 0x12, 0x14, 0xdf, 0xce, 0x03, 0x12, 0xfd, 0xf6, 0x06, 0xdf, 0xe0,
  0x11, 0x0d, 0x05, 0x0c, 0x05, 0x10, 0x0b, 0xe1, 0xdd, 0xf5, 0x03, 0x0c,
  0xfe, 0xf4, 0xf3, 0xf8, 0xf4, 0x0d, 0x04, 0x13, 0xfb, 0x05, 0x15, 0xf2,
  0xd9, 0xf9, 0x0b, 0xed, 0x01, 0x01, 0xe6, 0xe8, 0x1e, 0x0e, 0x16, 0xf3,
  0xfb, 0x13, 0x03, 0xd5, 0xd3, 0xff, 0x14, 0x07, 0x03, 0xf4, 0x0b, 0xf6,
  0x0c, 0x13, 0x06, 0xfb, 0xf5, 0x14, 0xfa, 0xec, 0xb5, 0x00, 0x19, 0x08,
  0xfa, 0x0f, 0xef, 0xec, 0x27, 0x09, 0x00, 0x0e, 0xff, 0x10, 0x11, 0xc9,
  0xd9, 0x0a, 0xfd, 0x13, 0xfb, 0x02, 0x08, 0x05, 0xf5, 0x00, 0x0b, 0x0a,
  0xf3, 0x0f, 0x09, 0xe6, 0xcf, 0x18, 0x0b, 0x16, 0x0a, 0xf1, 0xed, 0xe5,
  0x44, 0x06, 0x16, 0xf8, 0xfb, 0xf7, 0x06, 0xb9, 0xe5, 0xfd, 0x02, 0x1b,
  0x0d, 0x07, 0xf5, 0x05, 0x10, 0x16, 0x1b, 0x1c, 0xf7, 0x03, 0x10, 0xde,
  0xc4, 0x1f, 0x03, 0x04, 0x0b, 0x0a, 0xed, 0xd1, 0x39, 0x19, 0xff, 0x07,
  0x13, 0x01, 0x1a, 0xd4, 0xef, 0x19, 0xfd, 0x0b, 0x01, 0x0e, 0xf4, 0xff,
  0x00, 0x10, 0x15, 0x15, 0xff, 0x08, 0x02, 0xec, 0xd3, 0x28, 0xff, 0x14,
  0xf0, 0x10, 0xec, 0xde, 0x44, 0x16, 0x1a, 0xfd, 0x09, 0xf6, 0x02, 0xc2,
  0xed, 0x06, 0xf9, 0xfd, 0x0c, 0x00, 0x0e, 0xf4, 0x07, 0x05, 0x2b, 0x15,
  0xf2, 0xfc, 0x14, 0xe6, 0xc4, 0x26, 0x16, 0x07, 0xf0, 0x03, 0xf2, 0xe9,
  0x38, 0xf8, 0x13, 0xf1, 0xf4, 0x0e, 0x01, 0xd0, 0xd4, 0x0f, 0x09, 0x0a,
  0x0f, 0xfe, 0xeb, 0x12, 0x10, 0x11, 0x22, 0x18, 0xe8, 0xf1, 0xf7, 0xe0,
  0xb2, 0x1c, 0x10, 0x17, 0xfa, 0x09, 0xef, 0xd6, 0x38, 0x01, 0x18, 0x05,
  0xfa, 0x04, 0x08, 0xd5, 0xdc, 0x03, 0x10, 0x0a, 0x03, 0xfa, 0xf0, 0xfc,
  0x11, 0x01, 0x11, 0x11, 0x01, 0x05, 0x11, 0xd4, 0xbc, 0x22, 0x04, 0x00,
  0xf1, 0x11, 0xe0, 0xcf, 0x42, 0x07, 0x17, 0x06, 0x09, 0x03, 0x19, 0xd0,
  0xdf, 0x03, 0x14, 0x07, 0x06, 0xfc, 0xf5, 0xf5, 0xfa, 0x11, 0x27, 0x18,
  0xe8, 0x02, 0x03, 0xe5, 0xb4, 0x22, 0x19, 0x0d, 0xf6, 0x11, 0xf0, 0xce,
  0x2d, 0x0d, 0x02, 0x12, 0xfc, 0x09, 0x0e, 0xbe, 0xe3, 0x0a, 0xff, 0x08,
  0x0c, 0xf6, 0xf8, 0x0a, 0x01, 0x13, 0x30, 0x0a, 0xf5, 0x03, 0xf9, 0xdf,
  0xc6, 0x26, 0xfc, 0xf5, 0x16, 0xfd, 0xef, 0xe0, 0xdf, 0xff, 0x11, 0xfa,
  0x14, 0x01, 0xfa, 0xf6, 0xfa, 0x07, 0x17, 0xfe, 0x12, 0x0c, 0xda, 0x10,
  0x09, 0xe5, 0xf6, 0xf9, 0xf1, 0xf5, 0x17, 0xed, 0xca, 0x0d, 0xf2, 0xe6,
  0x13, 0x04, 0xe1, 0xd7, 0xd4, 0x07, 0x0f, 0xf4, 0x02, 0x06, 0xf9, 0xfc,
  0x13, 0x00, 0x01, 0xf4, 0x09, 0xf8, 0xef, 0xf4, 0x0d, 0xe1, 0xfc, 0x16,
  0x07, 0x0e, 0xff, 0xe8, 0xc5, 0x26, 0xfc, 0xe6, 0x0c, 0xf9, 0xe0, 0xe4,
  0xe2, 0x0b, 0x0b, 0x03, 0x10, 0xf7, 0xfa, 0xfa, 0x0d, 0x02, 0x08, 0xfd,
  0x11, 0x02, 0xf2, 0x0d, 0xf3, 0xea, 0xfb, 0x06, 0x07, 0x0c, 0x1c, 0xdf,
  0xc5, 0x1e, 0x05, 0xe2, 0x01, 0xfd, 0xf5, 0xf4, 0xd3, 0x11, 0xfe, 0xfb,
  0x0b, 0xff, 0xe6, 0xfa, 0xfa, 0x0d, 0xff, 0xfe, 0x09, 0xef, 0xe6, 0xf7,
  0xf2, 0xe3, 0x0f, 0x07, 0xe9, 0x09, 0x0f, 0xe7, 0xd5, 0x1d, 0x0b, 0xfc,
  0x18, 0xfc, 0xe7, 0xde, 0xda, 0x19, 0x15, 0x12, 0x01, 0x0e, 0xf5, 0x0b,
  0xfc, 0x09, 0x18, 0xef, 0xfa, 0x0e, 0xd6, 0xfc, 0x0d, 0xf5, 0xfb, 0x0b,
  0xfd, 0x16, 0x07, 0xe5, 0xcd, 0x0c, 0x01, 0xf9, 0x01, 0x0e, 0xe8, 0xf2,
  0xd6, 0x19, 0x12, 0xf5, 0x08, 0x05, 0xef, 0x07, 0x0d, 0x12, 0x01, 0xf2,
  0x0d, 0xfc, 0xd4, 0xfd, 0xfe, 0xea, 0x00, 0x15, 0x07, 0x06, 0x04, 0xdc,
  0xd8, 0x1b, 0x0c, 0xee, 0x19, 0x02, 0xda, 0xf7, 0xd0, 0xf9, 0x09, 0x0a,
  0x19, 0x06, 0xe8, 0xf8, 0x01, 0x01, 0x03, 0x0d, 0x12, 0xf8, 0xd6, 0x07,
  0xf1, 0xeb, 0x0f, 0x04, 0x0a, 0x00, 0x10, 0xed, 0xc0, 0x07, 0xf2, 0xe3,
  0x00, 0x09, 0xe5, 0xee, 0xd4, 0xf8, 0x17, 0x11, 0x07, 0x13, 0xdc, 0x04,
  0x0e, 0x17, 0xfd, 0xfe, 0x18, 0xfb, 0xd3, 0x0b, 0xef, 0xf1, 0xee, 0x09,
  0xf7, 0x04, 0x06, 0xe9, 0xc8, 0x08, 0xfe, 0xd8, 0x13, 0x0d, 0xe2, 0xda,
  0xf7, 0xff, 0x18, 0xf5, 0x08, 0x03, 0xe1, 0xfa, 0x08, 0x08, 0x0a, 0xf8,
  0x0c, 0x01, 0xea, 0x00, 0x0a, 0xec, 0xeb, 0x10, 0x05, 0xf4, 0xfc, 0xfd,
  0xbf, 0x10, 0xf1, 0xeb, 0x1a, 0x06, 0xf5, 0xe8, 0xfa, 0x16, 0xf7, 0x12,
  0x0f, 0x00, 0xf4, 0x24, 0x20, 0xf8, 0x05, 0x0f, 0x08, 0xf1, 0xd2, 0xf5,
  0x08, 0x02, 0xc9, 0x00, 0xde, 0xe3, 0x0d, 0xf8, 0xec, 0xff, 0x00, 0xdd,
  0x14, 0x04, 0xf7, 0x0b, 0xb8, 0xf7, 0xe7, 0x07, 0x08, 0x0c, 0xf8, 0x28,
  0x0b, 0x10, 0x05, 0xeb, 0x01, 0xf0, 0xe6, 0xf6, 0xfc, 0xef, 0xcd, 0xf4,
  0xf6, 0xf4, 0xf4, 0x05, 0x0c, 0x16, 0xd6, 0xf2, 0xf8, 0xfb, 0xf5, 0x00,
  0xab, 0x10, 0xe4, 0x10, 0x11, 0x10, 0xea, 0x48, 0x24, 0x07, 0xec, 0xd5,
  0xfc, 0x09, 0xeb, 0xf3, 0x09, 0xf4, 0xcd, 0xed, 0xf9, 0xfb, 0x09, 0xf9,
  0x2b, 0xf4, 0xef, 0xda, 0x1a, 0xf7, 0x14, 0x09, 0xa6, 0xfd, 0xec, 0xf7,
  0x04, 0x05, 0xe9, 0x41, 0x21, 0x0a, 0xf0, 0xe1, 0xdf, 0x09, 0xe4, 0xf8,
  0x0c, 0xec, 0xc0, 0xdf, 0x0e, 0xfc, 0xf1, 0x0e, 0x22, 0xe7, 0xe0, 0xe9,
  0xfc, 0x04, 0x12, 0x04, 0xb9, 0x0a, 0xda, 0xfa, 0x08, 0xf2, 0xda, 0x37,
  0x12, 0xef, 0xe3, 0xe8, 0xe1, 0xf6, 0xe3, 0xef, 0xfb, 0xd6, 0xc0, 0xdf,
  0x06, 0x06, 0xf7, 0x0c, 0x39, 0xd3, 0xe5, 0xdc, 0x17, 0x0c, 0x0f, 0x0d,
  0x9a, 0xf4, 0xe8, 0xf8, 0xfc, 0xf5, 0xea, 0x45, 0x22, 0xfc, 0xf8, 0xea,
  0xd6, 0xfc, 0xdc, 0x07, 0xf2, 0xcf, 0xc4, 0xe0, 0x12, 0x14, 0xf9, 0x11,
  0x26, 0xdd, 0xe2, 0xf0, 0x0c, 0x09, 0x0f, 0x1f, 0xa9, 0xfe, 0xd8, 0xf2,
  0xf6, 0xf5, 0xd9, 0x2d, 0x24, 0x06, 0xe9, 0xe3, 0xd7, 0x04, 0xe7, 0x02,
  0x00, 0xf0, 0xdd, 0xec, 0x12, 0xfd, 0xff, 0x0d, 0x1b, 0xd5, 0xde, 0xe9,
  0xfc, 0x00, 0x08, 0x25, 0xb8, 0x01, 0xdf, 0x0e, 0x0e, 0x11, 0xd4, 0x4a,
  0x1a, 0xef, 0xdd, 0xe1, 0xdc, 0xf5, 0xf8, 0xf4, 0x0b, 0xe1, 0xc5, 0xf1,
  0x13, 0xf9, 0x03, 0x05, 0x1d, 0xe7, 0xe5, 0xe5, 0x01, 0xf7, 0x0d, 0x0e,
  0xb9, 0x00, 0xdd, 0xf2, 0x07, 0x04, 0xed, 0x3a, 0x11, 0xf4, 0xe2, 0xd6,
  0xe1, 0x09, 0xe3, 0xfe, 0x08, 0xf0, 0xd4, 0xf7, 0x11, 0x0f, 0x07, 0x00,
  0x34, 0xe7, 0xe8, 0xef, 0x06, 0x0d, 0x15, 0x12, 0xae, 0xfa, 0xd3, 0x0d,
  0x0e, 0x0b, 0xf2, 0x4c, 0x1f, 0x0c, 0xed, 0xd1, 0xe0, 0x12, 0xdc, 0x12,
  0x01, 0xe3, 0xd0, 0xe7, 0x06, 0x15, 0xf7, 0x15, 0x3a, 0xd4, 0xeb, 0xd8,
  0x18, 0x0c, 0x0e, 0x07, 0xb1, 0x02, 0xf4, 0x07, 0xfb, 0xf2, 0xe6, 0x3b,
  0x27, 0xf9, 0xf5, 0xde, 0xe3, 0x0d, 0xec, 0x03, 0x0e, 0xd5, 0xc4, 0xdf,
  0xfe, 0xfa, 0x11, 0xfe, 0x1d, 0xdd, 0xf4, 0xdf, 0xe8, 0xfa, 0x0c, 0x09,
  0xf6, 0x08, 0xea, 0x0e, 0xfa, 0x0b, 0xf2, 0x03, 0xea, 0xe2, 0xe6, 0xee,
  0xf9, 0xfb, 0xf3, 0x0e, 0x10, 0xfa, 0xf5, 0xf6, 0x00, 0xfd, 0xe9, 0x0c,
  0xf4, 0xcc, 0x08, 0x10, 0xf4, 0xfb, 0x0e, 0xfb, 0xfd, 0xf5, 0xeb, 0x0a,
  0xed, 0xfc, 0x09, 0x07, 0xe3, 0xed, 0xfd, 0x0b, 0xfc, 0xf5, 0x03, 0x01,
  0x01, 0x12, 0xfd, 0xfd, 0x07, 0xf9, 0xfb, 0xf8, 0x00, 0xcc, 0x01, 0x02,
  0xd7, 0x0d, 0x0d, 0x0a, 0xf9, 0x02, 0x03, 0x0b, 0xfb, 0xef, 0xfb, 0x01,
  0xf4, 0xeb, 0xe6, 0x0c, 0xe1, 0xfd, 0x0b, 0x04, 0xff, 0xfa, 0xe9, 0xeb,
  0xf5, 0xfa, 0xeb, 0x06, 0x08, 0xcf, 0xfb, 0x0e, 0xe0, 0xf6, 0x00, 0x09,
  0xe7, 0xf4, 0xef, 0xf5, 0xef, 0xf8, 0xff, 0xf5, 0xf5, 0xf2, 0xe6, 0xeb,
  0xf1, 0xfb, 0xf8, 0x06, 0x10, 0x0f, 0x04, 0xfd, 0x00, 0xfc, 0xf6, 0x00,
  0xfd, 0xdd, 0x07, 0x0c, 0xec, 0x0a, 0x04, 0x06, 0xfb, 0xfc, 0xea, 0xfc,
  0xf1, 0xed, 0xf7, 0x01, 0xf7, 0xf2, 0xdc, 0xfe, 0x00, 0xf6, 0xf4, 0xf8,
  0x0a, 0x07, 0xe9, 0xf3, 0x0c, 0x07, 0xe7, 0x02, 0x07, 0xea, 0x00, 0xfb,
  0xe2, 0x0a, 0xf7, 0x00, 0xec, 0xf5, 0xff, 0x0e, 0x06, 0xf8, 0x12, 0x0a,
  0xef, 0xfb, 0xe9, 0x00, 0xf4, 0x07, 0x10, 0xef, 0x02, 0xfb, 0xf6, 0xe2,
  0x14, 0xf4, 0xff, 0xf6, 0xf3, 0xc9, 0xfb, 0xfa, 0xf7, 0x0a, 0xf6, 0x06,
  0xeb, 0xf9, 0xfb, 0x03, 0x09, 0xec, 0x10, 0x13, 0xe6, 0xe2, 0xee, 0xea,
  0xf7, 0x08, 0xfd, 0xf9, 0xf5, 0xee, 0xea, 0xeb, 0x0d, 0xef, 0xec, 0xfc,
  0xf8, 0xdc, 0x02, 0x08, 0xf0, 0xf2, 0x03, 0xf8, 0xf7, 0xfc, 0xed, 0xf6,
  0x07, 0xf2, 0x02, 0xfd, 0xdd, 0xe1, 0xe6, 0x03, 0xe0, 0x08, 0xf8, 0xfd,
  0x09, 0xfe, 0xf9, 0x06, 0xfd, 0x00, 0xf3, 0xf6, 0xfe, 0xdc, 0xf1, 0x0d,
  0xe2, 0x00, 0x0f, 0xfd, 0xea, 0xf5, 0x0a, 0x0b, 0xf1, 0xfe, 0x10, 0xe3,
  0xe6, 0x00, 0xf3, 0x0b, 0x09, 0x11, 0x12, 0xf1, 0xf8, 0xf5, 0x07, 0xe4,
  0x16, 0x0b, 0x04, 0x09, 0xed, 0xcf, 0x04, 0x13, 0xeb, 0xf4, 0x15, 0x0c,
  0xfc, 0xfb, 0x07, 0xf4, 0x02, 0xf2, 0xfa, 0xd2, 0xe6, 0xe7, 0xf9, 0xee,
  0xf0, 0x08, 0x16, 0x02, 0xff, 0xfa, 0xfb, 0xed, 0x15, 0x0f, 0xff, 0xf5,
  0x07, 0xed, 0x0b, 0x11, 0xda, 0xf6, 0x14, 0xf2, 0xf6, 0xfb, 0xee, 0xff,
  0xec, 0xea, 0xf8, 0xc7, 0xd0, 0xf1, 0xf6, 0x0f, 0x12, 0x0c, 0x0c, 0x0f,
  0x06, 0x0f, 0xfe, 0xfc, 0x13, 0x0a, 0xdb, 0x12, 0x0b, 0xcb, 0x12, 0x0c,
  0xd4, 0x0a, 0x0f, 0xf1, 0x21, 0xe8, 0xfa, 0xff, 0xe4, 0x04, 0x01, 0xab,
  0xdc, 0xdb, 0x12, 0x14, 0xfb, 0xfe, 0x0c, 0xfb, 0x0d, 0xfe, 0x12, 0xf8,
  0x14, 0x02, 0xf3, 0x18, 0x1f, 0xd5, 0x14, 0x1c, 0xd1, 0xf0, 0x16, 0xf5,
  0x26, 0xf8, 0x04, 0x0f, 0x00, 0xee, 0x06, 0xb2, 0xd9, 0xe0, 0xf0, 0x0a,
  0x0b, 0xfa, 0x21, 0x0b, 0x10, 0x13, 0x02, 0xeb, 0x09, 0xfc, 0xdd, 0x1b,
  0x2c, 0xe6, 0x17, 0x22, 0xe8, 0x00, 0x07, 0x1d, 0x30, 0xdc, 0xf8, 0xfc,
  0xe3, 0x09, 0x18, 0xb3, 0xd3, 0xdd, 0xfb, 0x15, 0xf8, 0xf0, 0x05, 0x10,
  0xfd, 0x1a, 0xfc, 0xe1, 0xfb, 0x01, 0xf2, 0x00, 0x38, 0xd3, 0x19, 0x22,
  0xd4, 0xf0, 0x05, 0x07, 0x1b, 0xf3, 0xf4, 0x06, 0xdc, 0xfa, 0x1a, 0xab,
  0xdc, 0xd5, 0xee, 0x11, 0xfc, 0xef, 0x0b, 0xff, 0x0c, 0x15, 0x0d, 0xfc,
  0xfb, 0xf0, 0xe0, 0x09, 0x28, 0xc5, 0x07, 0x0a, 0xdc, 0xf5, 0x12, 0x21,
  0x3c, 0xd6, 0xf1, 0x12, 0xe5, 0x0d, 0x18, 0x9a, 0xbe, 0xe2, 0xfd, 0x01,
  0x06, 0xf1, 0x0f, 0x10, 0x02, 0x18, 0x19, 0xf8, 0x01, 0x03, 0xe4, 0x15,
  0x24, 0xc5, 0x0c, 0x1e, 0xd6, 0xf9, 0x1d, 0x0b, 0x3b, 0xe9, 0x09, 0x10,
  0xee, 0x01, 0x1c, 0x96, 0xd9, 0xd3, 0xf3, 0xfb, 0xf9, 0x01, 0x05, 0xee,
  0xf2, 0x04, 0x04, 0xf5, 0x0e, 0x00, 0xe2, 0x1a, 0x38, 0xc5, 0x00, 0x17,
  0xe2, 0xfe, 0x13, 0x17, 0x1f, 0xe5, 0xfb, 0xf9, 0xec, 0xee, 0x18, 0x8b,
  0xcc, 0xea, 0x00, 0xf9, 0x14, 0x05, 0x11, 0x0d, 0xf1, 0x0b, 0x06, 0xe9,
  0xfe, 0xf2, 0xd6, 0xff, 0x26, 0xc2, 0xff, 0x18, 0xca, 0xfa, 0x01, 0x00,
  0x25, 0xf3, 0x0f, 0x07, 0xf6, 0xf0, 0x16, 0x84, 0xc4, 0xd9, 0xf3, 0x0b,
  0xfe, 0xf1, 0x0a, 0x0b, 0x0a, 0xfc, 0x1a, 0xe2, 0x14, 0x0d, 0xdf, 0x22,
  0x2e, 0xd4, 0x12, 0x1b, 0xd2, 0xf3, 0x1f, 0x0c, 0x3e, 0xf2, 0xf1, 0xf1,
  0xe4, 0x04, 0x0e, 0x81, 0xda, 0xcd, 0x0b, 0xfc, 0x04, 0x02, 0x08, 0x0d,
  0xf6, 0xfc, 0x06, 0xdb, 0xf8, 0x06, 0xe4, 0x1e, 0x38, 0xbe, 0x09, 0x0e,
  0xda, 0xf4, 0xff, 0xff, 0x04, 0x00, 0x00, 0x00, 0x80, 0x00, 0x00, 0x00,
  0xa0, 0x2b, 0x00, 0x00, 0xa4, 0xfc, 0xff, 0xff, 0x5a, 0x12, 0x00, 0x00,
  0x33, 0x1c, 0x00, 0x00, 0xc0, 0x12, 0x00, 0x00, 0x5e, 0x0a, 0x00, 0x00,
  0x3f, 0x07, 0x00, 0x00, 0x00, 0x00, 0x00, 0x00, 0x3b, 0x10, 0x00, 0x00,
  0x8e, 0x01, 0x00, 0x00, 0xd5, 0x07, 0x00, 0x00, 0x52, 0x3c, 0x00, 0x00,
  0xc5, 0x33, 0x00, 0x00, 0x58, 0x1a, 0x00, 0x00, 0x90, 0x0a, 0x00, 0x00,
  0x06, 0x0f, 0x00, 0x00, 0x98, 0x08, 0x00, 0x00, 0x00, 0x00, 0x00, 0x00,
  0xe9, 0x1a, 0x00, 0x00, 0x00, 0x00, 0x00, 0x00, 0x00, 0x00, 0x00, 0x00,
  0x68, 0x09, 0x00, 0x00, 0x72, 0x13, 0x00, 0x00, 0xd7, 0xfe, 0xff, 0xff,
  0x57, 0x09, 0x00, 0x00, 0x57, 0x02, 0x00, 0x00, 0xa9, 0x11, 0x00, 0x00,
  0x1f, 0x18, 0x00, 0x00, 0x43, 0x26, 0x00, 0x00, 0x8a, 0x12, 0x00, 0x00,
  0xa2, 0xfe, 0xff, 0xff, 0xba, 0x0f, 0x00, 0x00, 0x66, 0xf5, 0xff, 0xff,
  0x04, 0x00, 0x00, 0x00, 0x00, 0x06, 0x00, 0x00, 0x10, 0xc8, 0x49, 0xf1,
  0x20, 0x1a, 0xd5, 0xda, 0xda, 0x2e, 0x1a, 0xc9, 0x1d, 0xbb, 0x2a, 0xf4,
  0x43, 0xbf, 0xd3, 0xf9, 0xed, 0x66, 0x64, 0x3e, 0x7f, 0xde, 0xe6, 0x42,
  0xe6, 0x9f, 0xe3, 0xc0, 0xc3, 0x02, 0xdb, 0xc9, 0xb9, 0xe9, 0x32, 0xc2,
  0x24, 0x3a, 0xc7, 0xb7, 0xf4, 0x02, 0x2f, 0xcd, 0xdd, 0x94, 0x37, 0x5e,
  0xd2, 0xb7, 0x74, 0xfa, 0xc7, 0x5f, 0xbc, 0xed, 0x39, 0x4f, 0x10, 0xac,
  0x73, 0x45, 0xd0, 0xcc, 0xee, 0xe3, 0x4c, 0x7f, 0xd7, 0xad, 0xa5, 0x9e,
  0x06, 0x70, 0xfc, 0xc5, 0x2d, 0x27, 0xe7, 0x99, 0x75, 0xf1, 0xaa, 0x9a,
  0x3e, 0x8a, 0x4a, 0x14, 0xc7, 0x06, 0x5b, 0x47, 0x09, 0xe9, 0xb7, 0x0a,
  0x03, 0x40, 0xf2, 0xb1, 0x57, 0x05, 0x07, 0xd7, 0x42, 0xc0, 0x5b, 0xc4,
  0x7f, 0x11, 0x0f, 0xa8, 0xb7, 0xd5, 0x98, 0xe6, 0x3d, 0x38, 0x3f, 0x2e,
  0x0d, 0x6b, 0x26, 0x44, 0x58, 0xd0, 0x06, 0x50, 0x38, 0x09, 0x3c, 0xca,
  0xc4, 0xc6, 0x4b, 0xca, 0x0b, 0xda, 0xfd, 0x5b, 0x3e, 0xb9, 0xe8, 0xb5,
  0x0b, 0xe1, 0xd5, 0xc4, 0x46, 0xc3, 0x29, 0x1b, 0xe1, 0xf1, 0xb7, 0x21,
  0x3e, 0xf5, 0xee, 0xca, 0x14, 0xd6, 0xcd, 0xc1, 0x4b, 0x61, 0x7f, 0xf2,
  0x06, 0x1b, 0x4b, 0x68, 0x32, 0x23, 0x2c, 0x10, 0xb8, 0xe5, 0x35, 0x15,
  0xd9, 0x2c, 0xc3, 0x41, 0x38, 0x18, 0x34, 0xfb, 0xf9, 0x1c, 0xe8, 0x1c,
  0xfd, 0xf4, 0xea, 0x1e, 0xef, 0x21, 0x11, 0x19, 0x0e, 0x00, 0x01, 0xfc,
  0x1b, 0xe1, 0x23, 0x47, 0x07, 0xec, 0xeb, 0x02, 0xba, 0x13, 0x6b, 0x2d,
  0x7f, 0x42, 0x7e, 0x4d, 0x19, 0x19, 0xfc, 0x13, 0x0f, 0x17, 0xfa, 0x00,
  0x09, 0xe8, 0xfb, 0x11, 0xee, 0x1f, 0x1f, 0x22, 0xc1, 0xd0, 0x2f, 0x53,
  0x4e, 0xf1, 0x0d, 0xd3, 0xf3, 0xff, 0xc7, 0xb8, 0x25, 0x50, 0xc5, 0xc4,
  0xb2, 0xe4, 0x7f, 0x5d, 0x2e, 0xec, 0x69, 0x1d, 0x18, 0x27, 0xc1, 0xfe,
  0x28, 0xce, 0x0c, 0x01, 0xf2, 0x3e, 0xa9, 0x4a, 0xd9, 0x31, 0xeb, 0x55,
  0xeb, 0x3b, 0x19, 0x11, 0xed, 0xaa, 0xc9, 0xbe, 0xa9, 0xda, 0xe7, 0xd0,
  0xb3, 0xe0, 0x26, 0xda, 0x0d, 0xff, 0x47, 0x0e, 0x10, 0xbf, 0x51, 0x55,
  0xc2, 0xa5, 0x7f, 0x60, 0x2d, 0x60, 0x68, 0x68, 0x91, 0xb3, 0x25, 0x71,
  0xea, 0xfb, 0x4b, 0x6f, 0xbe, 0x0d, 0xfc, 0x2b, 0xe1, 0xab, 0x39, 0x24,
  0x25, 0xe2, 0xb6, 0x55, 0xfc, 0xee, 0xd9, 0x18, 0x8c, 0x78, 0x81, 0xc9,
  0x65, 0xdd, 0xf4, 0x18, 0xae, 0xea, 0xb5, 0x19, 0xee, 0xaa, 0xb3, 0x44,
  0x95, 0x7c, 0x32, 0xb2, 0xb1, 0x8e, 0x9c, 0xb3, 0xf9, 0xfc, 0xdf, 0xd3,
  0xbe, 0xf5, 0xb2, 0xf9, 0x4e, 0xc4, 0x06, 0x73, 0x53, 0x03, 0x9e, 0x7d,
  0x29, 0x53, 0xe2, 0x03, 0x61, 0x6e, 0xdb, 0x1a, 0xea, 0x0d, 0xb9, 0xe6,
  0xf3, 0xfb, 0x3c, 0x5c, 0x63, 0x06, 0x3e, 0x2f, 0x62, 0xb4, 0xff, 0x3c,
  0x59, 0x57, 0x7f, 0xf0, 0x51, 0x34, 0x69, 0xd3, 0x68, 0x8f, 0x00, 0x02,
  0x89, 0xc9, 0xd9, 0x11, 0x2b, 0x12, 0x9f, 0x10, 0x5d, 0xa8, 0xb2, 0xfe,
  0x69, 0xfc, 0x1d, 0xb1, 0x1a, 0x5e, 0xa2, 0x57, 0x96, 0x4b, 0xc5, 0xb8,
  0xe1, 0x3d, 0x92, 0x6b, 0x8f, 0x69, 0xf8, 0xab, 0x09, 0x00, 0xbc, 0x54,
  0x1d, 0xac, 0x3a, 0x51, 0x9e, 0x4b, 0x08, 0x01, 0x63, 0xd4, 0xd1, 0x68,
  0x7f, 0x4f, 0x2b, 0x03, 0x1b, 0x01, 0x42, 0xf1, 0x05, 0xd1, 0xf4, 0x6e,
  0xab, 0xfb, 0x51, 0xfd, 0x92, 0x9b, 0x5f, 0xb9, 0x17, 0xe4, 0xbc, 0xea,
  0xd0, 0xcd, 0xc8, 0xd1, 0x45, 0xfc, 0x46, 0xc0, 0xf1, 0x40, 0x39, 0x0d,
  0xfd, 0xf4, 0x32, 0x73, 0xe9, 0xe2, 0xd0, 0x16, 0xc8, 0x17, 0x74, 0x48,
  0x7c, 0x7f, 0x1d, 0x33, 0xd7, 0xcf, 0x01, 0xd9, 0x25, 0xd9, 0x0b, 0x13,
  0x1d, 0xf9, 0x06, 0xed, 0xf9, 0x25, 0x35, 0x3b, 0x01, 0x02, 0x19, 0x05,
  0xe0, 0x1d, 0xe7, 0xe4, 0xee, 0x12, 0xf8, 0x02, 0xe1, 0x1b, 0x11, 0xe6,
  0x7f, 0xfa, 0xe2, 0xc2, 0x1c, 0x1f, 0x0d, 0x16, 0x5e, 0x22, 0xb9, 0x26,
  0xbf, 0xa9, 0xcb, 0xdb, 0x0a, 0xf3, 0xee, 0x22, 0x1e, 0xf9, 0x07, 0x17,
  0xef, 0xe6, 0xf3, 0xe5, 0xff, 0x15, 0x06, 0x12, 0x03, 0x35, 0x26, 0xc9,
  0x22, 0xd3, 0xeb, 0xe8, 0xed, 0xf3, 0x23, 0xcd, 0x27, 0xf9, 0xe8, 0x27,
  0x7f, 0xeb, 0x19, 0xa6, 0x1e, 0x54, 0x06, 0xd0, 0x5f, 0x08, 0xf8, 0x18,
  0xaf, 0x91, 0xf6, 0xdb, 0xe8, 0x25, 0x10, 0x0d, 0xdd, 0xce, 0x16, 0x06,
  0x21, 0xd5, 0x11, 0x22, 0x30, 0xe8, 0x38, 0x30, 0xe1, 0x40, 0x2d, 0xd9,
  0x47, 0x5c, 0x60, 0xe1, 0xb5, 0xbf, 0xf4, 0xe3, 0xcf, 0x20, 0x36, 0xb2,
  0x88, 0x28, 0x46, 0x5d, 0xa4, 0xdd, 0x69, 0x7f, 0x31, 0x14, 0x8f, 0x74,
  0x2e, 0xa8, 0xd9, 0xde, 0x2f, 0xae, 0x36, 0x31, 0x02, 0x60, 0x27, 0xd5,
  0xf1, 0x5c, 0xe9, 0x0d, 0x37, 0xbf, 0xcc, 0x20, 0xa5, 0x32, 0x5d, 0x00,
  0xbd, 0x1b, 0xf5, 0xd3, 0xa5, 0x13, 0x2e, 0xff, 0xe0, 0x36, 0xfe, 0x56,
  0xdb, 0x53, 0x63, 0x00, 0xe4, 0x3f, 0x7f, 0xcb, 0x93, 0x28, 0x8d, 0x72,
  0xa9, 0x00, 0xd5, 0xf0, 0x14, 0xdc, 0x36, 0xed, 0xe2, 0x5a, 0x3d, 0x5e,
  0x4d, 0x4f, 0x2d, 0xc7, 0xf1, 0x60, 0x14, 0x08, 0x13, 0xf3, 0xc5, 0x31,
  0x42, 0x36, 0xfa, 0x00, 0xfc, 0x34, 0x13, 0xc0, 0xf9, 0xc3, 0xc0, 0x2f,
  0xeb, 0xc3, 0x51, 0x49, 0xdc, 0xfd, 0x28, 0x29, 0xb6, 0xef, 0xfb, 0x1e,
  0x7f, 0x4c, 0x6d, 0x3f, 0x2f, 0x14, 0x12, 0xdd, 0x3d, 0x3a, 0x25, 0x3d,
  0x14, 0xf3, 0xff, 0x36, 0xeb, 0xea, 0xdc, 0xf1, 0x2a, 0x41, 0xf5, 0xff,
  0x10, 0x1e, 0x38, 0xe8, 0x19, 0x30, 0x02, 0xc3, 0xe9, 0x4a, 0xff, 0x36,
  0x07, 0x0f, 0x62, 0x22, 0x34, 0x1e, 0x60, 0xd8, 0x99, 0xee, 0x03, 0x6a,
  0xea, 0x5f, 0x7f, 0xeb, 0xbf, 0xf3, 0x53, 0x4b, 0x26, 0x34, 0x1a, 0x46,
  0xf4, 0xe7, 0xb1, 0x1e, 0x22, 0xde, 0xcc, 0xb0, 0xb0, 0x7d, 0xd6, 0xe2,
  0x75, 0xe9, 0x0c, 0x6b, 0xd1, 0xf5, 0xa3, 0x88, 0xcf, 0x4b, 0x95, 0x1e,
  0xa3, 0x42, 0xde, 0x97, 0x12, 0xad, 0x4a, 0xc0, 0x90, 0xe1, 0x81, 0x0c,
  0xbd, 0xb4, 0x14, 0xa0, 0xa4, 0x3f, 0xbd, 0x8f, 0x12, 0x09, 0xe0, 0xaa,
  0x0b, 0x98, 0x92, 0x69, 0xa2, 0xd4, 0x24, 0xcd, 0x17, 0x11, 0xc3, 0xa9,
  0x49, 0xd0, 0xb3, 0xa7, 0xf5, 0x29, 0xda, 0x9f, 0xdd, 0x00, 0x61, 0x1b,
  0x6b, 0x54, 0xbd, 0x77, 0x63, 0x0b, 0x86, 0x77, 0x81, 0x62, 0x2b, 0x17,
  0x01, 0x62, 0x1e, 0x4f, 0xc3, 0x2c, 0xbd, 0x8f, 0x5b, 0xf9, 0xd1, 0x15,
  0x32, 0x1d, 0xe6, 0xba, 0xa7, 0x8d, 0x4f, 0x6b, 0x59, 0xdf, 0xbd, 0x93,
  0x9b, 0x75, 0x6e, 0xda, 0x00, 0x15, 0xbf, 0xbf, 0xb8, 0xa0, 0x60, 0x3c,
  0xac, 0x69, 0x08, 0x69, 0x99, 0x57, 0x8c, 0x90, 0xc5, 0xbc, 0xfb, 0x89,
  0xaf, 0x3e, 0x75, 0x92, 0x15, 0xb6, 0xd8, 0xfe, 0x23, 0x40, 0xba, 0xed,
  0x7b, 0xd9, 0x07, 0x7f, 0x2f, 0xf1, 0x0c, 0xf9, 0xfa, 0xd8, 0x37, 0x76,
  0x7f, 0xb1, 0xee, 0xae, 0xfe, 0xe9, 0x6d, 0xed, 0x4b, 0x0a, 0x72, 0x9c,
  0x2c, 0x82, 0x38, 0xb7, 0x9f, 0x8f, 0x40, 0x9e, 0xa8, 0x46, 0x89, 0x90,
  0xa4, 0x81, 0x88, 0x34, 0x03, 0xd3, 0xab, 0x79, 0xeb, 0x33, 0x8e, 0x23,
  0x9c, 0x5d, 0xb7, 0xa7, 0x96, 0x6e, 0x27, 0xa5, 0x3d, 0xe4, 0x01, 0x05,
  0x10, 0xde, 0x51, 0x21, 0x3b, 0xcd, 0xd7, 0x4d, 0xef, 0xda, 0xde, 0xba,
  0x1b, 0x35, 0x2e, 0x4a, 0xe9, 0xeb, 0x18, 0x3a, 0xab, 0xd0, 0x7f, 0xd6,
  0x68, 0x42, 0x5f, 0x62, 0xb6, 0x3a, 0xf3, 0xae, 0xf0, 0xe2, 0x01, 0xf0,
  0xee, 0xef, 0xde, 0xec, 0xac, 0xfd, 0x25, 0xbf, 0x02, 0xcf, 0x36, 0xfa,
  0x17, 0xe3, 0xfe, 0xe6, 0x33, 0x29, 0xdb, 0xcd, 0x24, 0x1c, 0xe6, 0x16,
  0x02, 0xd4, 0x11, 0x7f, 0xf7, 0x23, 0xe4, 0x65, 0xc7, 0x24, 0x33, 0x0e,
  0x1e, 0x5c, 0x1e, 0x19, 0x1b, 0xf3, 0x22, 0x0c, 0x2e, 0x16, 0xcf, 0xd4,
  0x0d, 0x34, 0x06, 0xd1, 0xe5, 0xc9, 0x07, 0xee, 0x34, 0x2f, 0xe2, 0x25,
  0x11, 0x44, 0xff, 0xcb, 0x13, 0xca, 0x49, 0xd7, 0x43, 0xd3, 0xe2, 0x43,
  0xc5, 0xf1, 0x21, 0x7f, 0x13, 0x4b, 0x21, 0x68, 0xfb, 0xc4, 0xf3, 0x29,
  0x44, 0xf9, 0x00, 0xeb, 0x35, 0xb8, 0xd7, 0x0d, 0xe5, 0xe0, 0xcb, 0xc2,
  0xc8, 0xb5, 0x41, 0xd0, 0xbd, 0xe0, 0xde, 0x48, 0x5a, 0x8f, 0xaa, 0xf8,
  0xc4, 0x8d, 0x62, 0xa7, 0xad, 0xee, 0x3d, 0x4a, 0x04, 0x2a, 0xeb, 0xbf,
  0xf4, 0x63, 0x9d, 0x44, 0xe7, 0x4c, 0xc8, 0x81, 0x32, 0x6c, 0x28, 0xdb,
  0xeb, 0x5b, 0xd8, 0x79, 0x79, 0xd8, 0xb2, 0xd3, 0xfe, 0x95, 0x22, 0xa1,
  0xaf, 0x62, 0x48, 0x3f, 0x8e, 0x04, 0x91, 0x42, 0xf2, 0xca, 0xc2, 0xfb,
  0x62, 0xe0, 0x50, 0x60, 0xe7, 0x2f, 0x66, 0x2f, 0x65, 0xb8, 0x15, 0xbc,
  0x07, 0x31, 0x9a, 0x4d, 0x31, 0x7c, 0xa5, 0xfc, 0x20, 0x11, 0x81, 0x6e,
  0xf4, 0xc2, 0xb7, 0x67, 0xa8, 0x39, 0x0c, 0xf5, 0xd7, 0x50, 0x69, 0xe6,
  0xee, 0xa2, 0xb9, 0x34, 0x44, 0xa0, 0xf7, 0xc1, 0x1e, 0xc7, 0xce, 0xf6,
  0xed, 0x34, 0x31, 0x3e, 0xfc, 0xd5, 0x1f, 0x2a, 0xe4, 0x26, 0xde, 0xe4,
  0xb4, 0x34, 0x32, 0x4e, 0x3b, 0xfb, 0x5d, 0x61, 0x2c, 0x42, 0xdd, 0x6c,
  0xbf, 0xc5, 0x81, 0xc1, 0xf9, 0xf3, 0xeb, 0xbc, 0x03, 0x26, 0xe5, 0x04,
  0xf8, 0x41, 0x33, 0xb9, 0xc7, 0x25, 0xdd, 0x23, 0x2c, 0xf5, 0xb1, 0x1b,
  0xb7, 0xd9, 0x44, 0xc6, 0x4a, 0xad, 0x2e, 0x47, 0xb1, 0xe1, 0x4e, 0xac,
  0x5f, 0x0f, 0x0e, 0xc2, 0xc4, 0xc2, 0xcb, 0xd7, 0x14, 0x7f, 0xf0, 0xe7,
  0x53, 0x50, 0x7c, 0x78, 0xea, 0x55, 0xc0, 0xd4, 0x38, 0xc5, 0xc9, 0xb7,
  0x0b, 0xce, 0xaa, 0xce, 0xcc, 0x1f, 0x38, 0xaa, 0x10, 0x12, 0xc6, 0x39,
  0xfe, 0xef, 0xd9, 0x03, 0xd8, 0xe9, 0x11, 0xf2, 0xcd, 0xef, 0x2b, 0xca,
  0x7d, 0x04, 0xdd, 0x22, 0x10, 0xcd, 0xc3, 0xd3, 0x16, 0x7f, 0x77, 0xda,
  0xe9, 0x45, 0x68, 0x20, 0xfb, 0x1d, 0xeb, 0x21, 0xf6, 0x35, 0x33, 0x10,
  0xe4, 0xd9, 0x20, 0xfd, 0xe3, 0x22, 0x3a, 0x28, 0xba, 0x19, 0x09, 0x4a,
  0xf9, 0xda, 0xdc, 0xd7, 0x20, 0x3f, 0x25, 0xf3, 0xc3, 0x0d, 0xff, 0x39,
  0x1e, 0xe9, 0x07, 0x60, 0xc1, 0x0a, 0x49, 0x53, 0x13, 0x81, 0xcc, 0x77,
  0xf8, 0xcc, 0x03, 0xc6, 0x46, 0x0c, 0x0f, 0xc7, 0x47, 0x0c, 0xf8, 0x1e,
  0x32, 0x1b, 0x22, 0x48, 0xf4, 0xcc, 0x31, 0x37, 0xe8, 0xd5, 0x20, 0xef,
  0xdd, 0x14, 0x26, 0xc3, 0x0b, 0xe2, 0x23, 0x3e, 0xff, 0x1d, 0x09, 0x1d,
  0x0f, 0xdc, 0xf2, 0x7f, 0xde, 0xe8, 0x17, 0x2b, 0xb3, 0x39, 0x5d, 0x3c,
  0x3b, 0x3e, 0x62, 0x49, 0x14, 0xc2, 0xf9, 0x29, 0x18, 0x40, 0x3e, 0xfd,
  0xd7, 0xe6, 0x3e, 0xed, 0xfa, 0x2c, 0xc8, 0x0f, 0xdc, 0xb6, 0xb0, 0x3b,
  0x3d, 0xb9, 0xeb, 0xc5, 0xe4, 0x08, 0xdd, 0xb8, 0x4f, 0xb4, 0x59, 0xce,
  0x2d, 0xab, 0x4c, 0x7f, 0x0d, 0x12, 0x92, 0x04, 0xbd, 0x2a, 0x67, 0xfb,
  0x10, 0x51, 0x6a, 0x6a, 0xe2, 0x3c, 0x06, 0xf4, 0x2e, 0xcb, 0xc3, 0xf0,
  0x40, 0xfd, 0xfb, 0x0b, 0xd8, 0x32, 0xd2, 0x21, 0x72, 0xfb, 0xff, 0xff,
  0x04, 0x00, 0x00, 0x00, 0x40, 0x00, 0x00, 0x00, 0x90, 0x18, 0x00, 0x00,
  0x00, 0x00, 0x00, 0x00, 0x26, 0x17, 0x00, 0x00, 0x6f, 0x21, 0x00, 0x00,
  0x39, 0xfd, 0xff, 0xff, 0x6c, 0x06, 0x00, 0x00, 0x34, 0x01, 0x00, 0x00,
  0xd7, 0x0a, 0x00, 0x00, 0x49, 0x10, 0x00, 0x00, 0xda, 0x0b, 0x00, 0x00,
  0x73, 0x0f, 0x00, 0x00, 0x0f, 0x15, 0x00, 0x00, 0xd3, 0x14, 0x00, 0x00,
  0x07, 0x1b, 0x00, 0x00, 0xf0, 0x18, 0x00, 0x00, 0x04, 0x06, 0x00, 0x00,
  0xbe, 0xfb, 0xff, 0xff, 0x04, 0x00, 0x00, 0x00, 0xb0, 0x01, 0x00, 0x00,
  0xfd, 0xcc, 0x4d, 0x56, 0x1c, 0xc7, 0xb4, 0x0d, 0xe5, 0x4d, 0x36, 0x7f,
  0x49, 0xe7, 0xe4, 0x9f, 0x12, 0xbd, 0x38, 0xbb, 0x16, 0xce, 0xf8, 0x25,
  0x19, 0x32, 0x4f, 0x86, 0x23, 0xa3, 0xa9, 0x49, 0x45, 0x0d, 0x45, 0xcb,
  0xce, 0x0e, 0xe6, 0x0b, 0xec, 0x64, 0x81, 0x86, 0xd3, 0xdd, 0xfc, 0xf2,
  0x8d, 0x24, 0x2c, 0x68, 0xc2, 0xe3, 0xdd, 0x9d, 0xf6, 0xd0, 0xe2, 0x99,
  0x41, 0xc8, 0x06, 0xbc, 0xe1, 0x65, 0x71, 0xbc, 0xfa, 0x6d, 0x81, 0x43,
  0xa6, 0xc7, 0x1d, 0x50, 0xb7, 0x0d, 0x14, 0x98, 0x5b, 0xe6, 0x1e, 0x01,
  0x2d, 0xf5, 0xc5, 0xe6, 0x2c, 0x3c, 0xff, 0xfc, 0x3d, 0xca, 0x39, 0x26,
  0x4f, 0x81, 0x6d, 0xe9, 0xde, 0x16, 0x54, 0x15, 0x28, 0x5b, 0x03, 0x1b,
  0x0a, 0x9f, 0x22, 0x6a, 0x1a, 0x77, 0x31, 0xc6, 0xaf, 0xc9, 0x07, 0x97,
  0xfd, 0x46, 0xb5, 0x82, 0x39, 0x0a, 0x48, 0x44, 0xad, 0x01, 0x93, 0xd4,
  0x7f, 0x6c, 0x6f, 0xaa, 0x51, 0xc2, 0xf4, 0xb8, 0xb9, 0x15, 0x78, 0x7b,
  0x7f, 0x63, 0x0e, 0xa7, 0xe9, 0x43, 0x78, 0xab, 0x38, 0x32, 0x8f, 0x7a,
  0x93, 0x19, 0x9b, 0xd4, 0xc8, 0x90, 0x05, 0x1d, 0xa7, 0x2a, 0xee, 0xf3,
  0x3d, 0xb5, 0x57, 0x5b, 0x2d, 0xda, 0x12, 0x27, 0x20, 0x7f, 0xa3, 0xfc,
  0xc9, 0x1d, 0x22, 0x36, 0xfd, 0x41, 0x4f, 0xd1, 0x28, 0x43, 0x6f, 0x4c,
  0x28, 0xbc, 0x07, 0x4f, 0x54, 0x9e, 0xbf, 0xec, 0x49, 0x14, 0x7f, 0x32,
  0x67, 0x89, 0x25, 0x1c, 0x24, 0x70, 0x46, 0xe8, 0x36, 0x97, 0x97, 0xc6,
  0x08, 0x5b, 0x26, 0xe1, 0xe9, 0xf3, 0x03, 0x20, 0x62, 0x37, 0xad, 0x57,
  0x17, 0x73, 0x55, 0x44, 0x7f, 0xa3, 0xd2, 0x0d, 0x41, 0xd3, 0x28, 0xf6,
  0xc1, 0xb8, 0x64, 0xf9, 0xa2, 0xe8, 0x42, 0xd3, 0xf8, 0x1b, 0x5c, 0x18,
  0xaa, 0x55, 0x7f, 0xd6, 0x1f, 0x68, 0xef, 0x49, 0xfc, 0xad, 0xb5, 0x1b,
  0x32, 0xb3, 0x17, 0x30, 0x49, 0x28, 0x46, 0x0d, 0x04, 0x0b, 0x16, 0x5d,
  0xd0, 0x29, 0x3c, 0x4e, 0xe5, 0x6e, 0x30, 0x03, 0xfd, 0x81, 0xbd, 0x14,
  0x2a, 0x2c, 0xf2, 0x4c, 0x3d, 0xf1, 0x5d, 0x5b, 0xb1, 0xee, 0x55, 0x52,
  0x43, 0xeb, 0x1e, 0x5f, 0xb8, 0xe8, 0x75, 0x3e, 0xa4, 0x11, 0x5b, 0x60,
  0x26, 0xce, 0x7f, 0x0e, 0xdb, 0xe3, 0x3f, 0x1a, 0x5c, 0x0a, 0x47, 0x10,
  0x08, 0xe3, 0x6b, 0x61, 0x21, 0xef, 0xbf, 0x76, 0x74, 0x92, 0xb5, 0x67,
  0x5f, 0xb0, 0x46, 0x14, 0x81, 0x3d, 0x3c, 0x34, 0x0c, 0x52, 0xa9, 0x4c,
  0x36, 0x5d, 0x67, 0x02, 0xff, 0x2f, 0x00, 0x28, 0xc5, 0xdd, 0x22, 0x0a,
  0xb8, 0x5f, 0x6c, 0xbf, 0xf3, 0x5e, 0xb4, 0xeb, 0x7f, 0x30, 0xff, 0x5c,
  0x1e, 0x2c, 0xe2, 0xac, 0x28, 0xad, 0x07, 0xbf, 0x2f, 0xab, 0xd1, 0xf9,
  0x47, 0xb7, 0xce, 0x81, 0x2a, 0x1e, 0x40, 0x1a, 0x19, 0xde, 0xfe, 0x50,
  0xf3, 0xfc, 0x2a, 0x0a, 0x06, 0xcb, 0x08, 0xb9, 0xc2, 0xdb, 0xcf, 0xb4,
  0x9d, 0x02, 0x61, 0x1d, 0x5c, 0x97, 0xdd, 0x7e, 0x7f, 0x3a, 0x20, 0x68,
  0xaa, 0xc5, 0x2e, 0xd8, 0x3b, 0x25, 0xd0, 0x6b, 0xc1, 0xc4, 0x61, 0x5b,
  0x7a, 0xfd, 0xff, 0xff, 0x04, 0x00, 0x00, 0x00, 0x08, 0x00, 0x00, 0x00,
  0xff, 0xff, 0xff, 0xff, 0x80, 0x02, 0x00, 0x00, 0x8e, 0xfd, 0xff, 0xff,
  0x04, 0x00, 0x00, 0x00, 0x04, 0x00, 0x00, 0x00, 0x09, 0x00, 0x00, 0x00,
  0x9e, 0xfd, 0xff, 0xff, 0x04, 0x00, 0x00, 0x00, 0x04, 0x00, 0x00, 0x00,
  0x14, 0x00, 0x00, 0x00, 0x68, 0xee, 0xff, 0xff, 0xb2, 0xfd, 0xff, 0xff,
  0x04, 0x00, 0x00, 0x00, 0x04, 0x00, 0x00, 0x00, 0x01, 0x00, 0x00, 0x00,
  0xc2, 0xfd, 0xff, 0xff, 0x04, 0x00, 0x00, 0x00, 0x04, 0x00, 0x00, 0x00,
  0x00, 0x00, 0x00, 0x00, 0x8c, 0xee, 0xff, 0xff, 0x90, 0xee, 0xff, 0xff,
  0x0f, 0x00, 0x00, 0x00, 0x4d, 0x4c, 0x49, 0x52, 0x20, 0x43, 0x6f, 0x6e,
  0x76, 0x65, 0x72, 0x74, 0x65, 0x64, 0x2e, 0x00, 0x01, 0x00, 0x00, 0x00,
  0x14, 0x00, 0x00, 0x00, 0x00, 0x00, 0x0e, 0x00, 0x18, 0x00, 0x14, 0x00,
  0x10, 0x00, 0x0c, 0x00, 0x08, 0x00, 0x04, 0x00, 0x0e, 0x00, 0x00, 0x00,
  0x14, 0x00, 0x00, 0x00, 0x1c, 0x00, 0x00, 0x00, 0xb8, 0x02, 0x00, 0x00,
  0xbc, 0x02, 0x00, 0x00, 0xc0, 0x02, 0x00, 0x00, 0x04, 0x00, 0x00, 0x00,
  0x6d, 0x61, 0x69, 0x6e, 0x00, 0x00, 0x00, 0x00, 0x0a, 0x00, 0x00, 0x00,
  0x68, 0x02, 0x00, 0x00, 0x08, 0x02, 0x00, 0x00, 0xb0, 0x01, 0x00, 0x00,
  0x88, 0x01, 0x00, 0x00, 0x2c, 0x01, 0x00, 0x00, 0xe8, 0x00, 0x00, 0x00,
  0x98, 0x00, 0x00, 0x00, 0x70, 0x00, 0x00, 0x00, 0x38, 0x00, 0x00, 0x00,
  0x04, 0x00, 0x00, 0x00, 0x2a, 0xfe, 0xff, 0xff, 0x14, 0x00, 0x00, 0x00,
  0x00, 0x00, 0x00, 0x09, 0x14, 0x00, 0x00, 0x00, 0x18, 0x00, 0x00, 0x00,
  0x07, 0x00, 0x00, 0x00, 0x6e, 0xfe, 0xff, 0xff, 0x00, 0x00, 0x80, 0x3f,
  0x01, 0x00, 0x00, 0x00, 0x16, 0x00, 0x00, 0x00, 0x01, 0x00, 0x00, 0x00,
  0x15, 0x00, 0x00, 0x00, 0x5a, 0xfe, 0xff, 0xff, 0x14, 0x00, 0x00, 0x00,
  0x00, 0x00, 0x00, 0x08, 0x10, 0x00, 0x00, 0x00, 0x14, 0x00, 0x00, 0x00,
  0x06, 0x00, 0x00, 0x00, 0x58, 0xef, 0xff, 0xff, 0x01, 0x00, 0x00, 0x00,
  0x15, 0x00, 0x00, 0x00, 0x03, 0x00, 0x00, 0x00, 0x14, 0x00, 0x00, 0x00,
  0x0b, 0x00, 0x00, 0x00, 0x0c, 0x00, 0x00, 0x00, 0x02, 0xff, 0xff, 0xff,
  0x0c, 0x00, 0x00, 0x00, 0x10, 0x00, 0x00, 0x00, 0x03, 0x00, 0x00, 0x00,
  0x01, 0x00, 0x00, 0x00, 0x14, 0x00, 0x00, 0x00, 0x02, 0x00, 0x00, 0x00,
  0x13, 0x00, 0x00, 0x00, 0x06, 0x00, 0x00, 0x00, 0xb2, 0xfe, 0xff, 0xff,
  0x24, 0x00, 0x00, 0x00, 0x00, 0x00, 0x00, 0x05, 0x30, 0x00, 0x00, 0x00,
  0x34, 0x00, 0x00, 0x00, 0x05, 0x00, 0x00, 0x00, 0x00, 0x00, 0x0e, 0x00,
  0x14, 0x00, 0x00, 0x00, 0x10, 0x00, 0x0c, 0x00, 0x08, 0x00, 0x04, 0x00,
  0x0e, 0x00, 0x00, 0x00, 0x02, 0x00, 0x00, 0x00, 0x01, 0x00, 0x00, 0x00,
  0x02, 0x00, 0x00, 0x00, 0x01, 0x00, 0x00, 0x00, 0x01, 0x00, 0x00, 0x00,
  0x13, 0x00, 0x00, 0x00, 0x01, 0x00, 0x00, 0x00, 0x12, 0x00, 0x00, 0x00,
  0xfe, 0xfe, 0xff, 0xff, 0x14, 0x00, 0x00, 0x00, 0x00, 0x00, 0x00, 0x01,
  0x1c, 0x00, 0x00, 0x00, 0x20, 0x00, 0x00, 0x00, 0x04, 0x00, 0x00, 0x00,
  0xc0, 0xff, 0xff, 0xff, 0x00, 0x00, 0x00, 0x01, 0x01, 0x00, 0x00, 0x00,
  0x01, 0x00, 0x00, 0x00, 0x01, 0x00, 0x00, 0x00, 0x12, 0x00, 0x00, 0x00,
  0x03, 0x00, 0x00, 0x00, 0x11, 0x00, 0x00, 0x00, 0x09, 0x00, 0x00, 0x00,
  0x0a, 0x00, 0x00, 0x00, 0x3e, 0xff, 0xff, 0xff, 0x20, 0x00, 0x00, 0x00,
  0x00, 0x00, 0x00, 0x01, 0x28, 0x00, 0x00, 0x00, 0x2c, 0x00, 0x00, 0x00,
  0x04, 0x00, 0x00, 0x00, 0x0c, 0x00, 0x10, 0x00, 0x00, 0x00, 0x0c, 0x00,
  0x08, 0x00, 0x07, 0x00, 0x0c, 0x00, 0x00, 0x00, 0x00, 0x00, 0x00, 0x01,
  0x01, 0x00, 0x00, 0x00, 0x01, 0x00, 0x00, 0x00, 0x01, 0x00, 0x00, 0x00,
  0x11, 0x00, 0x00, 0x00, 0x03, 0x00, 0x00, 0x00, 0x10, 0x00, 0x00, 0x00,
  0x07, 0x00, 0x00, 0x00, 0x08, 0x00, 0x00, 0x00, 0x00, 0x00, 0x0a, 0x00,
  0x10, 0x00, 0x0c, 0x00, 0x08, 0x00, 0x04, 0x00, 0x0a, 0x00, 0x00, 0x00,
  0x0c, 0x00, 0x00, 0x00, 0x10, 0x00, 0x00, 0x00, 0x03, 0x00, 0x00, 0x00,
  0x01, 0x00, 0x00, 0x00, 0x10, 0x00, 0x00, 0x00, 0x02, 0x00, 0x00, 0x00,
  0x00, 0x00, 0x00, 0x00, 0x0f, 0x00, 0x00, 0x00, 0xba, 0xff, 0xff, 0xff,
  0x1c, 0x00, 0x00, 0x00, 0x00, 0x00, 0x00, 0x3b, 0x1c, 0x00, 0x00, 0x00,
  0x20, 0x00, 0x00, 0x00, 0x02, 0x00, 0x00, 0x00, 0x00, 0x00, 0x06, 0x00,
  0x08, 0x00, 0x04, 0x00, 0x06, 0x00, 0x00, 0x00, 0x04, 0x00, 0x00, 0x00,
  0x01, 0x00, 0x00, 0x00, 0x0f, 0x00, 0x00, 0x00, 0x04, 0x00, 0x00, 0x00,
  0x0e, 0x00, 0x00, 0x00, 0x03, 0x00, 0x00, 0x00, 0x04, 0x00, 0x00, 0x00,
  0x05, 0x00, 0x00, 0x00, 0x00, 0x00, 0x0e, 0x00, 0x1a, 0x00, 0x14, 0x00,
  0x10, 0x00, 0x0c, 0x00, 0x0b, 0x00, 0x04, 0x00, 0x0e, 0x00, 0x00, 0x00,
  0x24, 0x00, 0x00, 0x00, 0x00, 0x00, 0x00, 0x20, 0x24, 0x00, 0x00, 0x00,
  0x28, 0x00, 0x00, 0x00, 0x01, 0x00, 0x00, 0x00, 0x00, 0x00, 0x0e, 0x00,
  0x08, 0x00, 0x00, 0x00, 0x00, 0x00, 0x00, 0x00, 0x00, 0x00, 0x04, 0x00,
  0x0e, 0x00, 0x00, 0x00, 0x01, 0x00, 0x00, 0x00, 0x01, 0x00, 0x00, 0x00,
  0x0e, 0x00, 0x00, 0x00, 0x04, 0x00, 0x00, 0x00, 0x0d, 0x00, 0x00, 0x00,
  0x01, 0x00, 0x00, 0x00, 0x02, 0x00, 0x00, 0x00, 0x02, 0x00, 0x00, 0x00,
  0x00, 0x00, 0x0e, 0x00, 0x16, 0x00, 0x00, 0x00, 0x10, 0x00, 0x0c, 0x00,
  0x0b, 0x00, 0x04, 0x00, 0x0e, 0x00, 0x00, 0x00, 0x18, 0x00, 0x00, 0x00,
  0x00, 0x00, 0x00, 0x37, 0x18, 0x00, 0x00, 0x00, 0x1c, 0x00, 0x00, 0x00,
  0x00, 0x00, 0x06, 0x00, 0x08, 0x00, 0x07, 0x00, 0x06, 0x00, 0x00, 0x00,
  0x00, 0x00, 0x00, 0x02, 0x01, 0x00, 0x00, 0x00, 0x0d, 0x00, 0x00, 0x00,
  0x01, 0x00, 0x00, 0x00, 0x00, 0x00, 0x00, 0x00, 0x01, 0x00, 0x00, 0x00,
  0x16, 0x00, 0x00, 0x00, 0x01, 0x00, 0x00, 0x00, 0x00, 0x00, 0x00, 0x00,
  0x17, 0x00, 0x00, 0x00, 0xbc, 0x0e, 0x00, 0x00, 0x4c, 0x0e, 0x00, 0x00,
  0xe0, 0x0d, 0x00, 0x00, 0x90, 0x0d, 0x00, 0x00, 0x40, 0x0d, 0x00, 0x00,
  0xf0, 0x0c, 0x00, 0x00, 0xa4, 0x0c, 0x00, 0x00, 0x78, 0x0b, 0x00, 0x00,
  0x4c, 0x0a, 0x00, 0x00, 0x60, 0x08, 0x00, 0x00, 0x74, 0x06, 0x00, 0x00,
  0x08, 0x06, 0x00, 0x00, 0x94, 0x05, 0x00, 0x00, 0x48, 0x05, 0x00, 0x00,
  0xf8, 0x04, 0x00, 0x00, 0xa4, 0x04, 0x00, 0x00, 0x14, 0x04, 0x00, 0x00,
  0x20, 0x03, 0x00, 0x00, 0x2c, 0x02, 0x00, 0x00, 0x98, 0x01, 0x00, 0x00,
  0x1c, 0x01, 0x00, 0x00, 0x80, 0x00, 0x00, 0x00, 0x04, 0x00, 0x00, 0x00,
  0xb4, 0xf1, 0xff, 0xff, 0x18, 0x00, 0x00, 0x00, 0x20, 0x00, 0x00, 0x00,
  0x40, 0x00, 0x00, 0x00, 0x17, 0x00, 0x00, 0x00, 0x00, 0x00, 0x00, 0x09,
  0x54, 0x00, 0x00, 0x00, 0x02, 0x00, 0x00, 0x00, 0xff, 0xff, 0xff, 0xff,
  0x04, 0x00, 0x00, 0x00, 0x9c, 0xf1, 0xff, 0xff, 0x08, 0x00, 0x00, 0x00,
  0x14, 0x00, 0x00, 0x00, 0x01, 0x00, 0x00, 0x00, 0x80, 0xff, 0xff, 0xff,
  0xff, 0xff, 0xff, 0xff, 0x00, 0x00, 0x00, 0x00, 0x01, 0x00, 0x00, 0x00,
  0x00, 0x00, 0x80, 0x3b, 0x19, 0x00, 0x00, 0x00, 0x53, 0x74, 0x61, 0x74,
  0x65, 0x66, 0x75, 0x6c, 0x50, 0x61, 0x72, 0x74, 0x69, 0x74, 0x69, 0x6f,
  0x6e, 0x65, 0x64, 0x43, 0x61, 0x6c, 0x6c, 0x3a, 0x30, 0x00, 0x00, 0x00,
  0x02, 0x00, 0x00, 0x00, 0x01, 0x00, 0x00, 0x00, 0x04, 0x00, 0x00, 0x00,
  0x2c, 0xf2, 0xff, 0xff, 0x18, 0x00, 0x00, 0x00, 0x20, 0x00, 0x00, 0x00,
  0x40, 0x00, 0x00, 0x00, 0x16, 0x00, 0x00, 0x00, 0x00, 0x00, 0x00, 0x09,
  0x74, 0x00, 0x00, 0x00, 0x02, 0x00, 0x00, 0x00, 0xff, 0xff, 0xff, 0xff,
  0x04, 0x00, 0x00, 0x00, 0x14, 0xf2, 0xff, 0xff, 0x08, 0x00, 0x00, 0x00,
  0x14, 0x00, 0x00, 0x00, 0x01, 0x00, 0x00, 0x00, 0x3f, 0x00, 0x00, 0x00,
  0x00, 0x00, 0x00, 0x00, 0x00, 0x00, 0x00, 0x00, 0x01, 0x00, 0x00, 0x00,
  0x6e, 0x4c, 0x9b, 0x3d, 0x38, 0x00, 0x00, 0x00, 0x73, 0x65, 0x71, 0x75,
  0x65, 0x6e, 0x74, 0x69, 0x61, 0x6c, 0x5f, 0x38, 0x2f, 0x64, 0x65, 0x6e,
  0x73, 0x65, 0x5f, 0x36, 0x2f, 0x4d, 0x61, 0x74, 0x4d, 0x75, 0x6c, 0x3b,
  0x73, 0x65, 0x71, 0x75, 0x65, 0x6e, 0x74, 0x69, 0x61, 0x6c, 0x5f, 0x38,
  0x2f, 0x64, 0x65, 0x6e, 0x73, 0x65, 0x5f, 0x36, 0x2f, 0x42, 0x69, 0x61,
  0x73, 0x41, 0x64, 0x64, 0x00, 0x00, 0x00, 0x00, 0x02, 0x00, 0x00, 0x00,
  0x01, 0x00, 0x00, 0x00, 0x04, 0x00, 0x00, 0x00, 0xc4, 0xf2, 0xff, 0xff,
  0x18, 0x00, 0x00, 0x00, 0x20, 0x00, 0x00, 0x00, 0x3c, 0x00, 0x00, 0x00,
  0x15, 0x00, 0x00, 0x00, 0x00, 0x00, 0x00, 0x09, 0x54, 0x00, 0x00, 0x00,
  0x02, 0x00, 0x00, 0x00, 0xff, 0xff, 0xff, 0xff, 0x80, 0x02, 0x00, 0x00,
  0xac, 0xf2, 0xff, 0xff, 0x08, 0x00, 0x00, 0x00, 0x10, 0x00, 0x00, 0x00,
  0x01, 0x00, 0x00, 0x00, 0x80, 0xff, 0xff, 0xff, 0xff, 0xff, 0xff, 0xff,
  0x01, 0x00, 0x00, 0x00, 0xd6, 0xd6, 0xcd, 0x3b, 0x1e, 0x00, 0x00, 0x00,
  0x73, 0x65, 0x71, 0x75, 0x65, 0x6e, 0x74, 0x69, 0x61, 0x6c, 0x5f, 0x38,
  0x2f, 0x66, 0x6c, 0x61, 0x74, 0x74, 0x65, 0x6e, 0x5f, 0x36, 0x2f, 0x52,
  0x65, 0x73, 0x68, 0x61, 0x70, 0x65, 0x00, 0x00, 0x02, 0x00, 0x00, 0x00,
  0x01, 0x00, 0x00, 0x00, 0x80, 0x02, 0x00, 0x00, 0x3c, 0xf3, 0xff, 0xff,
  0x18, 0x00, 0x00, 0x00, 0x28, 0x00, 0x00, 0x00, 0x44, 0x00, 0x00, 0x00,
  0x14, 0x00, 0x00, 0x00, 0x00, 0x00, 0x00, 0x09, 0x64, 0x00, 0x00, 0x00,
  0x04, 0x00, 0x00, 0x00, 0xff, 0xff, 0xff, 0xff, 0x01, 0x00, 0x00, 0x00,
  0x14, 0x00, 0x00, 0x00, 0x20, 0x00, 0x00, 0x00, 0x2c, 0xf3, 0xff, 0xff,
  0x08, 0x00, 0x00, 0x00, 0x10, 0x00, 0x00, 0x00, 0x01, 0x00, 0x00, 0x00,
  0x80, 0xff, 0xff, 0xff, 0xff, 0xff, 0xff, 0xff, 0x01, 0x00, 0x00, 0x00,
  0xd6, 0xd6, 0xcd, 0x3b, 0x24, 0x00, 0x00, 0x00, 0x73, 0x65, 0x71, 0x75,
  0x65, 0x6e, 0x74, 0x69, 0x61, 0x6c, 0x5f, 0x38, 0x2f, 0x6d, 0x61, 0x78,
  0x5f, 0x70, 0x6f, 0x6f, 0x6c, 0x69, 0x6e, 0x67, 0x32, 0x64, 0x5f, 0x36,
  0x2f, 0x4d, 0x61, 0x78, 0x50, 0x6f, 0x6f, 0x6c, 0x00, 0x00, 0x00, 0x00,
  0x04, 0x00, 0x00, 0x00, 0x01, 0x00, 0x00, 0x00, 0x01, 0x00, 0x00, 0x00,
  0x14, 0x00, 0x00, 0x00, 0x20, 0x00, 0x00, 0x00, 0xcc, 0xf3, 0xff, 0xff,
  0x18, 0x00, 0x00, 0x00, 0x28, 0x00, 0x00, 0x00, 0x44, 0x00, 0x00, 0x00,
  0x13, 0x00, 0x00, 0x00, 0x00, 0x00, 0x00, 0x09, 0xc4, 0x00, 0x00, 0x00,
  0x04, 0x00, 0x00, 0x00, 0xff, 0xff, 0xff, 0xff, 0x01, 0x00, 0x00, 0x00,
  0x14, 0x00, 0x00, 0x00, 0x20, 0x00, 0x00, 0x00, 0xbc, 0xf3, 0xff, 0xff,
  0x08, 0x00, 0x00, 0x00, 0x10, 0x00, 0x00, 0x00, 0x01, 0x00, 0x00, 0x00,
  0x80, 0xff, 0xff, 0xff, 0xff, 0xff, 0xff, 0xff, 0x01, 0x00, 0x00, 0x00,
  0xd6, 0xd6, 0xcd, 0x3b, 0x86, 0x00, 0x00, 0x00, 0x73, 0x65, 0x71, 0x75,
  0x65, 0x6e, 0x74, 0x69, 0x61, 0x6c, 0x5f, 0x38, 0x2f, 0x63, 0x6f, 0x6e,
  0x76, 0x32, 0x64, 0x5f, 0x31, 0x35, 0x2f, 0x52, 0x65, 0x6c, 0x75, 0x3b,
  0x73, 0x65, 0x71, 0x75, 0x65, 0x6e, 0x74, 0x69, 0x61, 0x6c, 0x5f, 0x38,
  0x2f, 0x63, 0x6f, 0x6e, 0x76, 0x32, 0x64, 0x5f, 0x31, 0x35, 0x2f, 0x42,
  0x69, 0x61, 0x73, 0x41, 0x64, 0x64, 0x3b, 0x73, 0x65, 0x71, 0x75, 0x65,
  0x6e, 0x74, 0x69, 0x61, 0x6c, 0x5f, 0x38, 0x2f, 0x63, 0x6f, 0x6e, 0x76,
  0x32, 0x64, 0x5f, 0x31, 0x35, 0x2f, 0x43, 0x6f, 0x6e, 0x76, 0x32, 0x44,
  0x3b, 0x73, 0x65, 0x71, 0x75, 0x65, 0x6e, 0x74, 0x69, 0x61, 0x6c, 0x5f,
  0x38, 0x2f, 0x63, 0x6f, 0x6e, 0x76, 0x32, 0x64, 0x5f, 0x31, 0x35, 0x2f,
  0x42, 0x69, 0x61, 0x73, 0x41, 0x64, 0x64, 0x2f, 0x52, 0x65, 0x61, 0x64,
  0x56, 0x61, 0x72, 0x69, 0x61, 0x62, 0x6c, 0x65, 0x4f, 0x70, 0x00, 0x00,
  0x04, 0x00, 0x00, 0x00, 0x01, 0x00, 0x00, 0x00, 0x01, 0x00, 0x00, 0x00,
  0x14, 0x00, 0x00, 0x00, 0x20, 0x00, 0x00, 0x00, 0xbc, 0xf4, 0xff, 0xff,
  0x18, 0x00, 0x00, 0x00, 0x28, 0x00, 0x00, 0x00, 0x44, 0x00, 0x00, 0x00,
  0x12, 0x00, 0x00, 0x00, 0x00, 0x00, 0x00, 0x09, 0xc4, 0x00, 0x00, 0x00,
  0x04, 0x00, 0x00, 0x00, 0xff, 0xff, 0xff, 0xff, 0x01, 0x00, 0x00, 0x00,
  0x14, 0x00, 0x00, 0x00, 0x10, 0x00, 0x00, 0x00, 0xac, 0xf4, 0xff, 0xff,
  0x08, 0x00, 0x00, 0x00, 0x10, 0x00, 0x00, 0x00, 0x01, 0x00, 0x00, 0x00,
  0x80, 0xff, 0xff, 0xff, 0xff, 0xff, 0xff, 0xff, 0x01, 0x00, 0x00, 0x00,
  0xfb, 0x19, 0x5e, 0x3b, 0x86, 0x00, 0x00, 0x00, 0x73, 0x65, 0x71, 0x75,
  0x65, 0x6e, 0x74, 0x69, 0x61, 0x6c, 0x5f, 0x38, 0x2f, 0x63, 0x6f, 0x6e,
  0x76, 0x32, 0x64, 0x5f, 0x31, 0x34, 0x2f, 0x52, 0x65, 0x6c, 0x75, 0x3b,
  0x73, 0x65, 0x71, 0x75, 0x65, 0x6e, 0x74, 0x69, 0x61, 0x6c, 0x5f, 0x38,
  0x2f, 0x63, 0x6f, 0x6e, 0x76, 0x32, 0x64, 0x5f, 0x31, 0x34, 0x2f, 0x42,
  0x69, 0x61, 0x73, 0x41, 0x64, 0x64, 0x3b, 0x73, 0x65, 0x71, 0x75, 0x65,
  0x6e, 0x74, 0x69, 0x61, 0x6c, 0x5f, 0x38, 0x2f, 0x63, 0x6f, 0x6e, 0x76,
  0x32, 0x64, 0x5f, 0x31, 0x34, 0x2f, 0x43, 0x6f, 0x6e, 0x76, 0x32, 0x44,
  0x3b, 0x73, 0x65, 0x71, 0x75, 0x65, 0x6e, 0x74, 0x69, 0x61, 0x6c, 0x5f,
  0x38, 0x2f, 0x63, 0x6f, 0x6e, 0x76, 0x32, 0x64, 0x5f, 0x31, 0x34, 0x2f,
  0x42, 0x69, 0x61, 0x73, 0x41, 0x64, 0x64, 0x2f, 0x52, 0x65, 0x61, 0x64,
  0x56, 0x61, 0x72, 0x69, 0x61, 0x62, 0x6c, 0x65, 0x4f, 0x70, 0x00, 0x00,
  0x04, 0x00, 0x00, 0x00, 0x01, 0x00, 0x00, 0x00, 0x01, 0x00, 0x00, 0x00,
  0x14, 0x00, 0x00, 0x00, 0x10, 0x00, 0x00, 0x00, 0xac, 0xf5, 0xff, 0xff,
  0x18, 0x00, 0x00, 0x00, 0x28, 0x00, 0x00, 0x00, 0x48, 0x00, 0x00, 0x00,
  0x11, 0x00, 0x00, 0x00, 0x00, 0x00, 0x00, 0x09, 0x60, 0x00, 0x00, 0x00,
  0x04, 0x00, 0x00, 0x00, 0xff, 0xff, 0xff, 0xff, 0x01, 0x00, 0x00, 0x00,
  0x14, 0x00, 0x00, 0x00, 0x09, 0x00, 0x00, 0x00, 0x9c, 0xf5, 0xff, 0xff,
  0x08, 0x00, 0x00, 0x00, 0x14, 0x00, 0x00, 0x00, 0x01, 0x00, 0x00, 0x00,
  0x80, 0xff, 0xff, 0xff, 0xff, 0xff, 0xff, 0xff, 0x00, 0x00, 0x00, 0x00,
  0x01, 0x00, 0x00, 0x00, 0x81, 0x80, 0x80, 0x3b, 0x1e, 0x00, 0x00, 0x00,
  0x73, 0x65, 0x71, 0x75, 0x65, 0x6e, 0x74, 0x69, 0x61, 0x6c, 0x5f, 0x38,
  0x2f, 0x72, 0x65, 0x73, 0x68, 0x61, 0x70, 0x65, 0x5f, 0x32, 0x2f, 0x52,
  0x65, 0x73, 0x68, 0x61, 0x70, 0x65, 0x00, 0x00, 0x04, 0x00, 0x00, 0x00,
  0x01, 0x00, 0x00, 0x00, 0x01, 0x00, 0x00, 0x00, 0x14, 0x00, 0x00, 0x00,
  0x09, 0x00, 0x00, 0x00, 0x9e, 0xf6, 0xff, 0xff, 0x14, 0x00, 0x00, 0x00,
  0x14, 0x00, 0x00, 0x00, 0x10, 0x00, 0x00, 0x00, 0x00, 0x00, 0x00, 0x02,
  0x34, 0x00, 0x00, 0x00, 0x90, 0xf6, 0xff, 0xff, 0x24, 0x00, 0x00, 0x00,
  0x73, 0x65, 0x71, 0x75, 0x65, 0x6e, 0x74, 0x69, 0x61, 0x6c, 0x5f, 0x38,
  0x2f, 0x72, 0x65, 0x73, 0x68, 0x61, 0x70, 0x65, 0x5f, 0x32, 0x2f, 0x52,
  0x65, 0x73, 0x68, 0x61, 0x70, 0x65, 0x2f, 0x73, 0x68, 0x61, 0x70, 0x65,
  0x00, 0x00, 0x00, 0x00, 0x01, 0x00, 0x00, 0x00, 0x04, 0x00, 0x00, 0x00,
  0xee, 0xf6, 0xff, 0xff, 0x14, 0x00, 0x00, 0x00, 0x14, 0x00, 0x00, 0x00,
  0x0f, 0x00, 0x00, 0x00, 0x00, 0x00, 0x00, 0x02, 0x34, 0x00, 0x00, 0x00,
  0xe0, 0xf6, 0xff, 0xff, 0x24, 0x00, 0x00, 0x00, 0x73, 0x65, 0x71, 0x75,
  0x65, 0x6e, 0x74, 0x69, 0x61, 0x6c, 0x5f, 0x38, 0x2f, 0x72, 0x65, 0x73,
  0x68, 0x61, 0x70, 0x65, 0x5f, 0x32, 0x2f, 0x73, 0x74, 0x72, 0x69, 0x64,
  0x65, 0x64, 0x5f, 0x73, 0x6c, 0x69, 0x63, 0x65, 0x00, 0x00, 0x00, 0x00,
  0x00, 0x00, 0x00, 0x00, 0x3a, 0xf7, 0xff, 0xff, 0x14, 0x00, 0x00, 0x00,
  0x14, 0x00, 0x00, 0x00, 0x0e, 0x00, 0x00, 0x00, 0x00, 0x00, 0x00, 0x02,
  0x2c, 0x00, 0x00, 0x00, 0x2c, 0xf7, 0xff, 0xff, 0x1c, 0x00, 0x00, 0x00,
  0x73, 0x65, 0x71, 0x75, 0x65, 0x6e, 0x74, 0x69, 0x61, 0x6c, 0x5f, 0x38,
  0x2f, 0x72, 0x65, 0x73, 0x68, 0x61, 0x70, 0x65, 0x5f, 0x32, 0x2f, 0x53,
  0x68, 0x61, 0x70, 0x65, 0x00, 0x00, 0x00, 0x00, 0x01, 0x00, 0x00, 0x00,
  0x03, 0x00, 0x00, 0x00, 0x82, 0xf7, 0xff, 0xff, 0x14, 0x00, 0x00, 0x00,
  0x30, 0x00, 0x00, 0x00, 0x0d, 0x00, 0x00, 0x00, 0x00, 0x00, 0x00, 0x02,
  0x54, 0x00, 0x00, 0x00, 0xf4, 0xf6, 0xff, 0xff, 0x08, 0x00, 0x00, 0x00,
  0x10, 0x00, 0x00, 0x00, 0x01, 0x00, 0x00, 0x00, 0x00, 0x00, 0x00, 0x00,
  0x00, 0x00, 0x00, 0x00, 0x01, 0x00, 0x00, 0x00, 0xea, 0x6c, 0x0d, 0x38,
  0x2b, 0x00, 0x00, 0x00, 0x73, 0x65, 0x71, 0x75, 0x65, 0x6e, 0x74, 0x69,
  0x61, 0x6c, 0x5f, 0x38, 0x2f, 0x64, 0x65, 0x6e, 0x73, 0x65, 0x5f, 0x36,
  0x2f, 0x42, 0x69, 0x61, 0x73, 0x41, 0x64, 0x64, 0x2f, 0x52, 0x65, 0x61,
  0x64, 0x56, 0x61, 0x72, 0x69, 0x61, 0x62, 0x6c, 0x65, 0x4f, 0x70, 0x00,
  0x01, 0x00, 0x00, 0x00, 0x04, 0x00, 0x00, 0x00, 0xf2, 0xf7, 0xff, 0xff,
  0x14, 0x00, 0x00, 0x00, 0x34, 0x00, 0x00, 0x00, 0x0c, 0x00, 0x00, 0x00,
  0x00, 0x00, 0x00, 0x09, 0x48, 0x00, 0x00, 0x00, 0x64, 0xf7, 0xff, 0xff,
  0x08, 0x00, 0x00, 0x00, 0x14, 0x00, 0x00, 0x00, 0x01, 0x00, 0x00, 0x00,
  0x00, 0x00, 0x00, 0x00, 0x00, 0x00, 0x00, 0x00, 0x00, 0x00, 0x00, 0x00,
  0x01, 0x00, 0x00, 0x00, 0xa9, 0xe3, 0xaf, 0x3b, 0x1b, 0x00, 0x00, 0x00,
  0x73, 0x65, 0x71, 0x75, 0x65, 0x6e, 0x74, 0x69, 0x61, 0x6c, 0x5f, 0x38,
  0x2f, 0x64, 0x65, 0x6e, 0x73, 0x65, 0x5f, 0x36, 0x2f, 0x4d, 0x61, 0x74,
  0x4d, 0x75, 0x6c, 0x00, 0x02, 0x00, 0x00, 0x00, 0x04, 0x00, 0x00, 0x00,
  0x80, 0x02, 0x00, 0x00, 0x5a, 0xf8, 0xff, 0xff, 0x14, 0x00, 0x00, 0x00,
  0xa4, 0x01, 0x00, 0x00, 0x0b, 0x00, 0x00, 0x00, 0x00, 0x00, 0x00, 0x02,
  0xcc, 0x01, 0x00, 0x00, 0xcc, 0xf7, 0xff, 0xff, 0x08, 0x00, 0x00, 0x00,
  0x08, 0x01, 0x00, 0x00, 0x20, 0x00, 0x00, 0x00, 0x00, 0x00, 0x00, 0x00,
  0x00, 0x00, 0x00, 0x00, 0x00, 0x00, 0x00, 0x00, 0x00, 0x00, 0x00, 0x00,
  0x00, 0x00, 0x00, 0x00, 0x00, 0x00, 0x00, 0x00, 0x00, 0x00, 0x00, 0x00,
  0x00, 0x00, 0x00, 0x00, 0x00, 0x00, 0x00, 0x00, 0x00, 0x00, 0x00, 0x00,
  0x00, 0x00, 0x00, 0x00, 0x00, 0x00, 0x00, 0x00, 0x00, 0x00, 0x00, 0x00,
  0x00, 0x00, 0x00, 0x00, 0x00, 0x00, 0x00, 0x00, 0x00, 0x00, 0x00, 0x00,
  0x00, 0x00, 0x00, 0x00, 0x00, 0x00, 0x00, 0x00, 0x00, 0x00, 0x00, 0x00,
  0x00, 0x00, 0x00, 0x00, 0x00, 0x00, 0x00, 0x00, 0x00, 0x00, 0x00, 0x00,
  0x00, 0x00, 0x00, 0x00, 0x00, 0x00, 0x00, 0x00, 0x00, 0x00, 0x00, 0x00,
  0x00, 0x00, 0x00, 0x00, 0x00, 0x00, 0x00, 0x00, 0x00, 0x00, 0x00, 0x00,
  0x00, 0x00, 0x00, 0x00, 0x00, 0x00, 0x00, 0x00, 0x00, 0x00, 0x00, 0x00,
  0x00, 0x00, 0x00, 0x00, 0x00, 0x00, 0x00, 0x00, 0x00, 0x00, 0x00, 0x00,
  0x00, 0x00, 0x00, 0x00, 0x00, 0x00, 0x00, 0x00, 0x00, 0x00, 0x00, 0x00,
  0x00, 0x00, 0x00, 0x00, 0x00, 0x00, 0x00, 0x00, 0x00, 0x00, 0x00, 0x00,
  0x00, 0x00, 0x00, 0x00, 0x00, 0x00, 0x00, 0x00, 0x00, 0x00, 0x00, 0x00,
  0x00, 0x00, 0x00, 0x00, 0x00, 0x00, 0x00, 0x00, 0x00, 0x00, 0x00, 0x00,
  0x00, 0x00, 0x00, 0x00, 0x00, 0x00, 0x00, 0x00, 0x00, 0x00, 0x00, 0x00,
  0x00, 0x00, 0x00, 0x00, 0x00, 0x00, 0x00, 0x00, 0x00, 0x00, 0x00, 0x00,
  0x00, 0x00, 0x00, 0x00, 0x00, 0x00, 0x00, 0x00, 0x00, 0x00, 0x00, 0x00,
  0x00, 0x00, 0x00, 0x00, 0x00, 0x00, 0x00, 0x00, 0x00, 0x00, 0x00, 0x00,
  0x00, 0x00, 0x00, 0x00, 0x00, 0x00, 0x00, 0x00, 0x00, 0x00, 0x00, 0x00,
  0x00, 0x00, 0x00, 0x00, 0x00, 0x00, 0x00, 0x00, 0x00, 0x00, 0x00, 0x00,
  0x20, 0x00, 0x00, 0x00, 0x30, 0x56, 0x1a, 0x37, 0x45, 0xbe, 0xae, 0x36,
  0xdd, 0x19, 0xff, 0x36, 0x66, 0x5b, 0x1a, 0x37, 0xa6, 0x7e, 0xa7, 0x37,
  0x7e, 0xbb, 0x04, 0x37, 0x7e, 0x9b, 0xf7, 0x36, 0xe2, 0x74, 0xb6, 0x36,
  0xee, 0x8f, 0xda, 0x36, 0x5b, 0xa6, 0xcc, 0x36, 0x0d, 0xa9, 0x26, 0x37,
  0x49, 0xe3, 0xa2, 0x37, 0x4f, 0x53, 0x2f, 0x37, 0xd8, 0x19, 0xee, 0x36,
  0x7b, 0xe1, 0xe9, 0x36, 0x98, 0x91, 0x2a, 0x37, 0xef, 0xc3, 0x08, 0x37,
  0xe6, 0x4d, 0xb3, 0x36, 0x56, 0xa3, 0xc3, 0x36, 0x30, 0xf0, 0xb5, 0x36,
  0x30, 0x6e, 0xb0, 0x36, 0x04, 0x79, 0x04, 0x37, 0xa9, 0x02, 0x4d, 0x37,
  0xcf, 0x7f, 0x18, 0x37, 0x2a, 0x7b, 0xb7, 0x36, 0xe0, 0x0b, 0xd9, 0x36,
  0x8e, 0x2e, 0x17, 0x37, 0x8b, 0x75, 0x01, 0x37, 0xff, 0x16, 0x3c, 0x37,
  0xcd, 0xd4, 0x1b, 0x37, 0x5d, 0x0f, 0x2b, 0x37, 0x59, 0x40, 0xf4, 0x36,
  0x2d, 0x00, 0x00, 0x00, 0x73, 0x65, 0x71, 0x75, 0x65, 0x6e, 0x74, 0x69,
  0x61, 0x6c, 0x5f, 0x38, 0x2f, 0x63, 0x6f, 0x6e, 0x76, 0x32, 0x64, 0x5f,
  0x31, 0x35, 0x2f, 0x42, 0x69, 0x61, 0x73, 0x41, 0x64, 0x64, 0x2f, 0x52,
  0x65, 0x61, 0x64, 0x56, 0x61, 0x72, 0x69, 0x61, 0x62, 0x6c, 0x65, 0x4f,
  0x70, 0x00, 0x00, 0x00, 0x01, 0x00, 0x00, 0x00, 0x20, 0x00, 0x00, 0x00,
  0x42, 0xfa, 0xff, 0xff, 0x14, 0x00, 0x00, 0x00, 0xa8, 0x01, 0x00, 0x00,
  0x0a, 0x00, 0x00, 0x00, 0x00, 0x00, 0x00, 0x09, 0xc0, 0x01, 0x00, 0x00,
  0xb4, 0xf9, 0xff, 0xff, 0x08, 0x00, 0x00, 0x00, 0x0c, 0x01, 0x00, 0x00,
  0x20, 0x00, 0x00, 0x00, 0x00, 0x00, 0x00, 0x00, 0x00, 0x00, 0x00, 0x00,
  0x00, 0x00, 0x00, 0x00, 0x00, 0x00, 0x00, 0x00, 0x00, 0x00, 0x00, 0x00,
  0x00, 0x00, 0x00, 0x00, 0x00, 0x00, 0x00, 0x00, 0x00, 0x00, 0x00, 0x00,
  0x00, 0x00, 0x00, 0x00, 0x00, 0x00, 0x00, 0x00, 0x00, 0x00, 0x00, 0x00,
  0x00, 0x00, 0x00, 0x00, 0x00, 0x00, 0x00, 0x00, 0x00, 0x00, 0x00, 0x00,
  0x00, 0x00, 0x00, 0x00, 0x00, 0x00, 0x00, 0x00, 0x00, 0x00, 0x00, 0x00,
  0x00, 0x00, 0x00, 0x00, 0x00, 0x00, 0x00, 0x00, 0x00, 0x00, 0x00, 0x00,
  0x00, 0x00, 0x00, 0x00, 0x00, 0x00, 0x00, 0x00, 0x00, 0x00, 0x00, 0x00,
  0x00, 0x00, 0x00, 0x00, 0x00, 0x00, 0x00, 0x00, 0x00, 0x00, 0x00, 0x00,
  0x00, 0x00, 0x00, 0x00, 0x00, 0x00, 0x00, 0x00, 0x00, 0x00, 0x00, 0x00,
  0x00, 0x00, 0x00, 0x00, 0x00, 0x00, 0x00, 0x00, 0x00, 0x00, 0x00, 0x00,
  0x00, 0x00, 0x00, 0x00, 0x00, 0x00, 0x00, 0x00, 0x00, 0x00, 0x00, 0x00,
  0x00, 0x00, 0x00, 0x00, 0x00, 0x00, 0x00, 0x00, 0x00, 0x00, 0x00, 0x00,
  0x00, 0x00, 0x00, 0x00, 0x00, 0x00, 0x00, 0x00, 0x00, 0x00, 0x00, 0x00,
  0x00, 0x00, 0x00, 0x00, 0x00, 0x00, 0x00, 0x00, 0x00, 0x00, 0x00, 0x00,
  0x00, 0x00, 0x00, 0x00, 0x00, 0x00, 0x00, 0x00, 0x00, 0x00, 0x00, 0x00,
  0x00, 0x00, 0x00, 0x00, 0x00, 0x00, 0x00, 0x00, 0x00, 0x00, 0x00, 0x00,
  0x00, 0x00, 0x00, 0x00, 0x00, 0x00, 0x00, 0x00, 0x00, 0x00, 0x00, 0x00,
  0x00, 0x00, 0x00, 0x00, 0x00, 0x00, 0x00, 0x00, 0x00, 0x00, 0x00, 0x00,
  0x00, 0x00, 0x00, 0x00, 0x00, 0x00, 0x00, 0x00, 0x00, 0x00, 0x00, 0x00,
  0x00, 0x00, 0x00, 0x00, 0x00, 0x00, 0x00, 0x00, 0x00, 0x00, 0x00, 0x00,
  0x00, 0x00, 0x00, 0x00, 0x00, 0x00, 0x00, 0x00, 0x00, 0x00, 0x00, 0x00,
  0x20, 0x00, 0x00, 0x00, 0x7a, 0xe4, 0x31, 0x3b, 0xe5, 0x69, 0xc9, 0x3a,
  0xa0, 0x04, 0x13, 0x3b, 0x7c, 0xea, 0x31, 0x3b, 0x0e, 0x0f, 0xc1, 0x3b,
  0xa8, 0xfd, 0x18, 0x3b, 0x0b, 0xb3, 0x0e, 0x3b, 0xe2, 0x4d, 0xd2, 0x3a,
  0xa9, 0xeb, 0xfb, 0x3a, 0x80, 0xe2, 0xeb, 0x3a, 0xdb, 0x18, 0x40, 0x3b,
  0xb1, 0xbf, 0xbb, 0x3b, 0xae, 0x15, 0x4a, 0x3b, 0x80, 0x38, 0x09, 0x3b,
  0xdf, 0xc9, 0x06, 0x3b, 0x1c, 0x9a, 0x44, 0x3b, 0xac, 0xa3, 0x1d, 0x3b,
  0xbb, 0xab, 0xce, 0x3a, 0x5e, 0x7f, 0xe1, 0x3a, 0xf0, 0xb4, 0xd1, 0x3a,
  0xbb, 0x5b, 0xcb, 0x3a, 0x08, 0xb1, 0x18, 0x3b, 0xe4, 0x4c, 0x6c, 0x3b,
  0x4f, 0xc6, 0x2f, 0x3b, 0x32, 0x7c, 0xd3, 0x3a, 0x61, 0x2c, 0xfa, 0x3a,
  0x95, 0x41, 0x2e, 0x3b, 0xd0, 0x37, 0x15, 0x3b, 0x1a, 0xcc, 0x58, 0x3b,
  0x7d, 0x9d, 0x33, 0x3b, 0x13, 0x2b, 0x45, 0x3b, 0xe8, 0xc3, 0x0c, 0x3b,
  0x1d, 0x00, 0x00, 0x00, 0x73, 0x65, 0x71, 0x75, 0x65, 0x6e, 0x74, 0x69,
  0x61, 0x6c, 0x5f, 0x38, 0x2f, 0x63, 0x6f, 0x6e, 0x76, 0x32, 0x64, 0x5f,
  0x31, 0x35, 0x2f, 0x43, 0x6f, 0x6e, 0x76, 0x32, 0x44, 0x00, 0x00, 0x00,
  0x04, 0x00, 0x00, 0x00, 0x20, 0x00, 0x00, 0x00, 0x03, 0x00, 0x00, 0x00,
  0x01, 0x00, 0x00, 0x00, 0x10, 0x00, 0x00, 0x00, 0x2a, 0xfc, 0xff, 0xff,
  0x14, 0x00, 0x00, 0x00, 0xe4, 0x00, 0x00, 0x00, 0x09, 0x00, 0x00, 0x00,
  0x00, 0x00, 0x00, 0x02, 0x0c, 0x01, 0x00, 0x00, 0x9c, 0xfb, 0xff, 0xff,
  0x08, 0x00, 0x00, 0x00, 0x88, 0x00, 0x00, 0x00, 0x10, 0x00, 0x00, 0x00,
  0x00, 0x00, 0x00, 0x00, 0x00, 0x00, 0x00, 0x00, 0x00, 0x00, 0x00, 0x00,
  0x00, 0x00, 0x00, 0x00, 0x00, 0x00, 0x00, 0x00, 0x00, 0x00, 0x00, 0x00,
  0x00, 0x00, 0x00, 0x00, 0x00, 0x00, 0x00, 0x00, 0x00, 0x00, 0x00, 0x00,
  0x00, 0x00, 0x00, 0x00, 0x00, 0x00, 0x00, 0x00, 0x00, 0x00, 0x00, 0x00,
  0x00, 0x00, 0x00, 0x00, 0x00, 0x00, 0x00, 0x00, 0x00, 0x00, 0x00, 0x00,
  0x00, 0x00, 0x00, 0x00, 0x00, 0x00, 0x00, 0x00, 0x00, 0x00, 0x00, 0x00,
  0x00, 0x00, 0x00, 0x00, 0x00, 0x00, 0x00, 0x00, 0x00, 0x00, 0x00, 0x00,
  0x00, 0x00, 0x00, 0x00, 0x00, 0x00, 0x00, 0x00, 0x00, 0x00, 0x00, 0x00,
  0x00, 0x00, 0x00, 0x00, 0x00, 0x00, 0x00, 0x00, 0x00, 0x00, 0x00, 0x00,
  0x00, 0x00, 0x00, 0x00, 0x00, 0x00, 0x00, 0x00, 0x00, 0x00, 0x00, 0x00,
  0x00, 0x00, 0x00, 0x00, 0x00, 0x00, 0x00, 0x00, 0x10, 0x00, 0x00, 0x00,
  0xcd, 0x3e, 0x44, 0x37, 0x4e, 0x36, 0x0a, 0x37, 0x21, 0x12, 0x28, 0x37,
  0x95, 0x7d, 0x38, 0x37, 0x65, 0x1a, 0x10, 0x37, 0x04, 0x29, 0x11, 0x37,
  0xe0, 0x89, 0x4a, 0x37, 0x5c, 0xb0, 0x25, 0x37, 0xea, 0x58, 0x2b, 0x37,
  0x54, 0x0e, 0x2f, 0x37, 0x11, 0x08, 0x3d, 0x37, 0xd4, 0x00, 0x21, 0x37,
  0xf4, 0x5a, 0x1b, 0x37, 0x14, 0x9c, 0x48, 0x37, 0x53, 0x75, 0x3a, 0x37,
  0x6d, 0x39, 0x29, 0x37, 0x2d, 0x00, 0x00, 0x00, 0x73, 0x65, 0x71, 0x75,
  0x65, 0x6e, 0x74, 0x69, 0x61, 0x6c, 0x5f, 0x38, 0x2f, 0x63, 0x6f, 0x6e,
  0x76, 0x32, 0x64, 0x5f, 0x31, 0x34, 0x2f, 0x42, 0x69, 0x61, 0x73, 0x41,
  0x64, 0x64, 0x2f, 0x52, 0x65, 0x61, 0x64, 0x56, 0x61, 0x72, 0x69, 0x61,
  0x62, 0x6c, 0x65, 0x4f, 0x70, 0x00, 0x00, 0x00, 0x01, 0x00, 0x00, 0x00,
  0x10, 0x00, 0x00, 0x00, 0x52, 0xfd, 0xff, 0xff, 0x14, 0x00, 0x00, 0x00,
  0xe8, 0x00, 0x00, 0x00, 0x08, 0x00, 0x00, 0x00, 0x00, 0x00, 0x00, 0x09,
  0x00, 0x01, 0x00, 0x00, 0xc4, 0xfc, 0xff, 0xff, 0x08, 0x00, 0x00, 0x00,
  0x8c, 0x00, 0x00, 0x00, 0x10, 0x00, 0x00, 0x00, 0x00, 0x00, 0x00, 0x00,
  0x00, 0x00, 0x00, 0x00, 0x00, 0x00, 0x00, 0x00, 0x00, 0x00, 0x00, 0x00,
  0x00, 0x00, 0x00, 0x00, 0x00, 0x00, 0x00, 0x00, 0x00, 0x00, 0x00, 0x00,
  0x00, 0x00, 0x00, 0x00, 0x00, 0x00, 0x00, 0x00, 0x00, 0x00, 0x00, 0x00,
  0x00, 0x00, 0x00, 0x00, 0x00, 0x00, 0x00, 0x00, 0x00, 0x00, 0x00, 0x00,
  0x00, 0x00, 0x00, 0x00, 0x00, 0x00, 0x00, 0x00, 0x00, 0x00, 0x00, 0x00,
  0x00, 0x00, 0x00, 0x00, 0x00, 0x00, 0x00, 0x00, 0x00, 0x00, 0x00, 0x00,
  0x00, 0x00, 0x00, 0x00, 0x00, 0x00, 0x00, 0x00, 0x00, 0x00, 0x00, 0x00,
  0x00, 0x00, 0x00, 0x00, 0x00, 0x00, 0x00, 0x00, 0x00, 0x00, 0x00, 0x00,
  0x00, 0x00, 0x00, 0x00, 0x00, 0x00, 0x00, 0x00, 0x00, 0x00, 0x00, 0x00,
  0x00, 0x00, 0x00, 0x00, 0x00, 0x00, 0x00, 0x00, 0x00, 0x00, 0x00, 0x00,
  0x00, 0x00, 0x00, 0x00, 0x00, 0x00, 0x00, 0x00, 0x10, 0x00, 0x00, 0x00,
  0x8d, 0x7a, 0x43, 0x3b, 0x17, 0xac, 0x09, 0x3b, 0x0e, 0x6a, 0x27, 0x3b,
  0x17, 0xc5, 0x37, 0x3b, 0x4a, 0x8a, 0x0f, 0x3b, 0xda, 0x97, 0x10, 0x3b,
  0x55, 0xbf, 0x49, 0x3b, 0xab, 0x0a, 0x25, 0x3b, 0x90, 0xad, 0x2a, 0x3b,
  0x45, 0x5f, 0x2e, 0x3b, 0x08, 0x4b, 0x3c, 0x3b, 0xd3, 0x5f, 0x20, 0x3b,
  0x98, 0xbf, 0x1a, 0x3b, 0x77, 0xd3, 0x47, 0x3b, 0xdd, 0xba, 0x39, 0x3b,
  0x33, 0x90, 0x28, 0x3b, 0x1d, 0x00, 0x00, 0x00, 0x73, 0x65, 0x71, 0x75,
  0x65, 0x6e, 0x74, 0x69, 0x61, 0x6c, 0x5f, 0x38, 0x2f, 0x63, 0x6f, 0x6e,
  0x76, 0x32, 0x64, 0x5f, 0x31, 0x34, 0x2f, 0x43, 0x6f, 0x6e, 0x76, 0x32,
  0x44, 0x00, 0x00, 0x00, 0x04, 0x00, 0x00, 0x00, 0x10, 0x00, 0x00, 0x00,
  0x03, 0x00, 0x00, 0x00, 0x01, 0x00, 0x00, 0x00, 0x09, 0x00, 0x00, 0x00,
  0x7a, 0xfe, 0xff, 0xff, 0x14, 0x00, 0x00, 0x00, 0x14, 0x00, 0x00, 0x00,
  0x07, 0x00, 0x00, 0x00, 0x00, 0x00, 0x00, 0x02, 0x2c, 0x00, 0x00, 0x00,
  0x6c, 0xfe, 0xff, 0xff, 0x1c, 0x00, 0x00, 0x00, 0x73, 0x65, 0x71, 0x75,
  0x65, 0x6e, 0x74, 0x69, 0x61, 0x6c, 0x5f, 0x38, 0x2f, 0x66, 0x6c, 0x61,
  0x74, 0x74, 0x65, 0x6e, 0x5f, 0x36, 0x2f, 0x43, 0x6f, 0x6e, 0x73, 0x74,
  0x00, 0x00, 0x00, 0x00, 0x01, 0x00, 0x00, 0x00, 0x02, 0x00, 0x00, 0x00,
  0xc2, 0xfe, 0xff, 0xff, 0x14, 0x00, 0x00, 0x00, 0x14, 0x00, 0x00, 0x00,
  0x06, 0x00, 0x00, 0x00, 0x00, 0x00, 0x00, 0x02, 0x34, 0x00, 0x00, 0x00,
  0xb4, 0xfe, 0xff, 0xff, 0x26, 0x00, 0x00, 0x00, 0x73, 0x65, 0x71, 0x75,
  0x65, 0x6e, 0x74, 0x69, 0x61, 0x6c, 0x5f, 0x38, 0x2f, 0x72, 0x65, 0x73,
  0x68, 0x61, 0x70, 0x65, 0x5f, 0x32, 0x2f, 0x52, 0x65, 0x73, 0x68, 0x61,
  0x70, 0x65, 0x2f, 0x73, 0x68, 0x61, 0x70, 0x65, 0x2f, 0x33, 0x00, 0x00,
  0x00, 0x00, 0x00, 0x00, 0x0e, 0xff, 0xff, 0xff, 0x14, 0x00, 0x00, 0x00,
  0x14, 0x00, 0x00, 0x00, 0x05, 0x00, 0x00, 0x00, 0x00, 0x00, 0x00, 0x02,
  0x34, 0x00, 0x00, 0x00, 0x00, 0xff, 0xff, 0xff, 0x26, 0x00, 0x00, 0x00,
  0x73, 0x65, 0x71, 0x75, 0x65, 0x6e, 0x74, 0x69, 0x61, 0x6c, 0x5f, 0x38,
  0x2f, 0x72, 0x65, 0x73, 0x68, 0x61, 0x70, 0x65, 0x5f, 0x32, 0x2f, 0x52,
  0x65, 0x73, 0x68, 0x61, 0x70, 0x65, 0x2f, 0x73, 0x68, 0x61, 0x70, 0x65,
  0x2f, 0x32, 0x00, 0x00, 0x00, 0x00, 0x00, 0x00, 0x5a, 0xff, 0xff, 0xff,
  0x14, 0x00, 0x00, 0x00, 0x14, 0x00, 0x00, 0x00, 0x03, 0x00, 0x00, 0x00,
  0x00, 0x00, 0x00, 0x02, 0x34, 0x00, 0x00, 0x00, 0x4c, 0xff, 0xff, 0xff,
  0x26, 0x00, 0x00, 0x00, 0x73, 0x65, 0x71, 0x75, 0x65, 0x6e, 0x74, 0x69,
  0x61, 0x6c, 0x5f, 0x38, 0x2f, 0x72, 0x65, 0x73, 0x68, 0x61, 0x70, 0x65,
  0x5f, 0x32, 0x2f, 0x52, 0x65, 0x73, 0x68, 0x61, 0x70, 0x65, 0x2f, 0x73,
  0x68, 0x61, 0x70, 0x65, 0x2f, 0x31, 0x00, 0x00, 0x00, 0x00, 0x00, 0x00,
  0xa6, 0xff, 0xff, 0xff, 0x14, 0x00, 0x00, 0x00, 0x14, 0x00, 0x00, 0x00,
  0x03, 0x00, 0x00, 0x00, 0x00, 0x00, 0x00, 0x02, 0x3c, 0x00, 0x00, 0x00,
  0x98, 0xff, 0xff, 0xff, 0x2c, 0x00, 0x00, 0x00, 0x73, 0x65, 0x71, 0x75,
  0x65, 0x6e, 0x74, 0x69, 0x61, 0x6c, 0x5f, 0x38, 0x2f, 0x72, 0x65, 0x73,
  0x68, 0x61, 0x70, 0x65, 0x5f, 0x32, 0x2f, 0x73, 0x74, 0x72, 0x69, 0x64,
  0x65, 0x64, 0x5f, 0x73, 0x6c, 0x69, 0x63, 0x65, 0x2f, 0x73, 0x74, 0x61,
  0x63, 0x6b, 0x5f, 0x31, 0x00, 0x00, 0x00, 0x00, 0x01, 0x00, 0x00, 0x00,
  0x01, 0x00, 0x00, 0x00, 0x00, 0x00, 0x0e, 0x00, 0x18, 0x00, 0x14, 0x00,
  0x13, 0x00, 0x0c, 0x00, 0x08, 0x00, 0x04, 0x00, 0x0e, 0x00, 0x00, 0x00,
  0x18, 0x00, 0x00, 0x00, 0x18, 0x00, 0x00, 0x00, 0x02, 0x00, 0x00, 0x00,
  0x00, 0x00, 0x00, 0x02, 0x3c, 0x00, 0x00, 0x00, 0x04, 0x00, 0x04, 0x00,
  0x04, 0x00, 0x00, 0x00, 0x2a, 0x00, 0x00, 0x00, 0x73, 0x65, 0x71, 0x75,
  0x65, 0x6e, 0x74, 0x69, 0x61, 0x6c, 0x5f, 0x38, 0x2f, 0x72, 0x65, 0x73,
  0x68, 0x61, 0x70, 0x65, 0x5f, 0x32, 0x2f, 0x73, 0x74, 0x72, 0x69, 0x64,
  0x65, 0x64, 0x5f, 0x73, 0x6c, 0x69, 0x63, 0x65, 0x2f, 0x73, 0x74, 0x61,
  0x63, 0x6b, 0x00, 0x00, 0x01, 0x00, 0x00, 0x00, 0x01, 0x00, 0x00, 0x00,
  0x14, 0x00, 0x1c, 0x00, 0x18, 0x00, 0x17, 0x00, 0x10, 0x00, 0x0c, 0x00,
  0x08, 0x00, 0x00, 0x00, 0x00, 0x00, 0x04, 0x00, 0x14, 0x00, 0x00, 0x00,
  0x18, 0x00, 0x00, 0x00, 0x30, 0x00, 0x00, 0x00, 0x50, 0x00, 0x00, 0x00,
  0x01, 0x00, 0x00, 0x00, 0x00, 0x00, 0x00, 0x09, 0x6c, 0x00, 0x00, 0x00,
  0x03, 0x00, 0x00, 0x00, 0xff, 0xff, 0xff, 0xff, 0x14, 0x00, 0x00, 0x00,
  0x09, 0x00, 0x00, 0x00, 0x0c, 0x00, 0x0c, 0x00, 0x00, 0x00, 0x00, 0x00,
  0x08, 0x00, 0x04, 0x00, 0x0c, 0x00, 0x00, 0x00, 0x08, 0x00, 0x00, 0x00,
  0x14, 0x00, 0x00, 0x00, 0x01, 0x00, 0x00, 0x00, 0x80, 0xff, 0xff, 0xff,
  0xff, 0xff, 0xff, 0xff, 0x00, 0x00, 0x00, 0x00, 0x01, 0x00, 0x00, 0x00,
  0x81, 0x80, 0x80, 0x3b, 0x21, 0x00, 0x00, 0x00, 0x73, 0x65, 0x72, 0x76,
  0x69, 0x6e, 0x67, 0x5f, 0x64, 0x65, 0x66, 0x61, 0x75, 0x6c, 0x74, 0x5f,
  0x72, 0x65, 0x73, 0x68, 0x61, 0x70, 0x65, 0x5f, 0x32, 0x5f, 0x69, 0x6e,
  0x70, 0x75, 0x74, 0x3a, 0x30, 0x00, 0x00, 0x00, 0x03, 0x00, 0x00, 0x00,
  0x01, 0x00, 0x00, 0x00, 0x14, 0x00, 0x00, 0x00, 0x09, 0x00, 0x00, 0x00,
  0x08, 0x00, 0x00, 0x00, 0x9c, 0x00, 0x00, 0x00, 0x80, 0x00, 0x00, 0x00,
  0x70, 0x00, 0x00, 0x00, 0x60, 0x00, 0x00, 0x00, 0x4c, 0x00, 0x00, 0x00,
  0x2c, 0x00, 0x00, 0x00, 0x18, 0x00, 0x00, 0x00, 0x04, 0x00, 0x00, 0x00,
  0xd0, 0xff, 0xff, 0xff, 0x19, 0x00, 0x00, 0x00, 0x02, 0x00, 0x00, 0x00,
  0x00, 0x00, 0x00, 0x19, 0xe0, 0xff, 0xff, 0xff, 0x09, 0x00, 0x00, 0x00,
  0x04, 0x00, 0x00, 0x00, 0x00, 0x00, 0x00, 0x09, 0xf0, 0xff, 0xff, 0xff,
  0x11, 0x00, 0x00, 0x00, 0x02, 0x00, 0x00, 0x00, 0x00, 0x00, 0x00, 0x11,
  0x0c, 0x00, 0x10, 0x00, 0x0f, 0x00, 0x00, 0x00, 0x08, 0x00, 0x04, 0x00,
  0x0c, 0x00, 0x00, 0x00, 0x03, 0x00, 0x00, 0x00, 0x03, 0x00, 0x00, 0x00,
  0x00, 0x00, 0x00, 0x03, 0xdc, 0xff, 0xff, 0xff, 0x16, 0x00, 0x00, 0x00,
  0x00, 0x00, 0x00, 0x16, 0xe8, 0xff, 0xff, 0xff, 0x53, 0x00, 0x00, 0x00,
  0x00, 0x00, 0x00, 0x53, 0xf4, 0xff, 0xff, 0xff, 0x2d, 0x00, 0x00, 0x00,
  0x00, 0x00, 0x00, 0x2d, 0x0c, 0x00, 0x0c, 0x00, 0x0b, 0x00, 0x00, 0x00,
  0x00, 0x00, 0x04, 0x00, 0x0c, 0x00, 0x00, 0x00, 0x4d, 0x00, 0x00, 0x00,
  0x00, 0x00, 0x00, 0x4d
};
unsigned int model_len = 10312;
